00000000001000000010110001011110
00000000001101010011001000110010
11111111111101101110000111111000
11111111111111001100011111100110
00000000000101001001010000100111
00000000000010101110110111101111
11111111111001101011010000011000
00000000000011000001100101101000
11111111101000010010011111100101
00000000001011011111110010111110
00000000000001101100101001001000
00000000000011001011011010100000
11111111111001110000111011111001
00000000000101101111100011001000
00000000001000111100010100101011
11111111101100100010001001001000
11111111110100100101101011000010
11111111101101000111001000100110
11111111100101111010101000101000
11111111111100111000000010101111
11111111111101110101110111010000
11111111101011110001110000011111
00000000000010011100100101101111
11111111111100010110000100101010
11111111111011000001001101100101
11111111110010110001101010000100
11111111101111110010000110000011
11111111111100111111111000011010
00000000010010010111101001001011
11111111111111010011000010101110
11111111111101110111010101001101
11111111110111100100000100011110
00000000000011000110101100100010
00000000000010110000101111110110
11111111111001001010111111111110
00000000000100100111110001100110
11111111111001110010100111110011
00000000000011110100001100010111
00000000001100010111001100110011
00000000000011101100011100101011
00000000010000010001011101000011
00000000000101000011110010110101
00000000001100001000001111010010
00000000000110001011110101010110
00000000000111101100100001001110
00000000001011011001101111110010
11111111111010001110011100111111
00000000000111110010000100001110
