00000000000100101111000100000000
11111111111011000010110001111001
00000000000101101110010010101110
00000000000100001011101010110010
11111111111111001010100011001010
00000000000110101101110010100100
11111111111101100101111101010110
11111111111000011101101110001000
11111111111100000000001001110111
11111111111110101011110011001111
00000000000010001101010001000010
11111111111000101110011101010000
00000000000001101010000001111011
00000000000011001000011000001100
00000000000000110001010110000011
11111111111101001010110100000100
11111111111001000100100111010001
00000000000101010011001100110101
00000000000000110010110000011011
11111111111110000111011101110110
00000000000100011011000110100010
11111111111001111111011100011010
11111111111110111011011010001001
11111111111001110100111100000001
11111111111100011011101100000110
00000000000100110101110010111000
00000000000100110111101010111000
00000000000001111111110000001001
11111111110110110011111110010110
11111111111010011001111000010100
00000000001001000001101110011001
00000000000100110110001100001101
11111111111111010011100101001101
11111111111101010001100111011110
11111111111110110110000101111111
00000000000111111111001101001001
00000000000000111001010011111100
00000000001010101001110011111111
00000000001100010110010010001101
00000000000000111001001101011010
00000000000011101111100001100101
11111111111100100111010110100110
00000000000011110111101111100110
00000000000101110000011111010110
11111111111111011100101101110111
00000000000011110111111110101111
11111111111011100000111101000110
11111111111010011000110101011111
11111111110010100010101000001101
11111111110001001011101000111010
11111111111101110110011111001111
00000000000001101001010100100011
00000000000111000101110100111100
00000000000011000001011111101011
00000000000100111100000010000101
11111111111001111010001111110101
00000000000001111100111101011110
11111111111110111000111000110100
00000000000000110010100110000110
11111111111111101011110101001000
11111111111110101111100001001111
00000000000001010010101110110110
00000000000010111000000101011010
11111111111110011010111111111010
11111111110110010110110101100001
00000000000000010000100101110000
00000000000010001100010001111010
11111111111010101000001101101011
11111111111011100101111010001001
11111111111110011111100111000100
11111111111011111010110010010101
00000000000111111011000011000110
00000000001011011110000010000111
00000000000110110100111010101100
00000000001001100110111111111101
11111111111110110100101101100111
00000000000001111001011011010010
11111111111001011011111100010111
11111111111011011111011111010101
11111111111110000101110101001101
11111111111110100011100100101111
00000000000111010110100101000011
11111111111010111010010110101111
11111111111111101000001110101110
00000000001000000110101011001010
00000000000011100010010011100101
11111111111111010100000010000001
11111111111110101111001100001000
00000000000101100011000001001100
00000000010000010011100010010101
00000000000100110000110111111000
00000000001010010011000001010010
11111111111100111000110001000000
00000000000110110100011000111111
00000000000001000110100110010010
00000000000100100000000101000111
00000000000001100001101100001110
11111111111101010001111101001101
11111111111111011000100101001011
00000000000000101110000100010111
11111111111101110001111110110011
11111111111011000100011110001000
11111111111100000101101000001110
11111111111101000110110011000111
00000000000011110011011011100101
11111111111010010110101110010010
00000000000000000000100111110111
11111111111100001000010100001100
00000000000100101110001101100011
00000000000010000000100000001000
00000000000011001011000100101010
11111111111101101000011100101110
00000000000101001000100110111010
00000000000010110011100000011001
00000000000111100111110011100000
00000000000010001000110101110100
11111111111111100000000001111000
00000000000110010100001001100000
00000000001000110111001001010000
00000000000100111000011110101011
00000000000011111010101101100110
00000000000110011100111011011101
00000000000111000110000000001110
11111111111110000011110011101011
11111111111001010001001111100100
11111111111000011101010110000111
11111111111000101111110001000000
11111111110100100011100000000111
11111111111111101101101011011011
11111111111110000001000011101000
00000000000011110100101100101101
00000000000010101010000100010111
11111111111101011011110000101000
00000000000001100011000000001001
00000000001010110111111110110110
00000000000010100011010011001010
11111111111111010101011000000100
11111111110111011110000011110100
00000000000001011101011110011101
00000000010001010011001101011101
00000000000110001001100011001100
00000000000001111001000100001101
00000000000001011000011101010010
00000000000011100010001111010011
00000000000100000011000100110010
00000000000001110101010101001110
11111111111011100101101110011011
11111111111101101101111101101110
00000000000000101111110000110000
11111111110111000100101110101000
11111111111100000110001001110000
11111111111000000011000001101001
11111111111011000010000011011110
00000000000010111010010110010001
00000000010000010100110100110110
11111111111111001001001100101000
00000000000100100010101011001101
11111111111100010111110010000000
11111111111101110101100100100101
00000000000100010011010101100100
00000000000001000101000011000100
11111111111110110000101000111000
11111111111100010001101010001111
00000000000001011000111110101000
00000000000010111001000111110110
11111111111111001011110111111101
11111111111111110110111100111010
00000000000100001110010000101100
11111111111110100011001000100100
11111111110101011101101111111010
00000000000011011110111010000011
00000000000110101100100010011010
00000000001001010000111000000101
11111111111111010111000010110100
11111111110111100101110100011000
11111111111010000111111011001000
00000000001101000110001000100100
00000000000111111101101101011010
00000000010011010000011111110110
00000000010010010010101000010011
11111111111101000011101111100010
00000000000101110100111101111101
00000000000100000111010100110100
11111111111110001110000100000111
00000000001011110100101010110101
00000000000001100110100110110111
11111111111111000000011111110010
00000000000001110000010110011000
11111111110100101010011100100101
00000000000000100110001110111110
00000000000011000010111101100111
00000000000011001101110010001100
11111111111001110110100100000011
11111111110110001000011001001101
11111111101001000000111010011000
00000000000100111100100111111101
11111111111111101010101001001110
00000000000100110001111010111110
00000000000110010010110100010111
00000000000010011011100001101100
11111111111101011010100100101000
00000000000001110011011000100000
00000000000000101001010110110001
00000000000011110100010010101110
00000000000101100010100100100100
11111111111100000011010111101000
11111111111110010011010001011100
11111111111100110111000011000001
11111111111100111011110110110011
11111111111000101100011110101111
11111111110110110001101001111001
00000000000010001111100000111101
00000000000100101001011011001000
11111111111111111011110100100001
11111111110100100000100001111011
00000000000000010111101001101000
00000000000011000111101000111011
00000000000000101010111101010001
11111111110110110001000001110010
11111111110111110111001110111001
11111111110011000010000001000001
11111111110110110001111111111000
11111111111000010001111110001001
11111111111101010011110010111001
00000000000000000011101110001010
11111111111011111011100010110001
11111111111100001000111110001011
00000000000010100101111111100101
00000000000100010011100001011111
00000000001111110011100100010110
11111111111110001000100001101101
11111111111101001000110100000101
11111111111111100011100101110101
00000000000011101000101110101100
00000000001001110110011001100100
00000000000101110111110101001010
00000000000111010111101011000111
11111111111011010010101111101001
11111111110110000110010010111111
11111111110110100101101101110111
00000000000111111110111111100001
11111111111110011010000001111010
11111111111100110011001101001110
11111111111000011100011100100110
11111111111011110110101001010101
00000000001001011101011110011111
00000000000110110011100001111000
00000000000010011001011111111001
00000000000110100001010101001110
00000000000001001011101100110101
00000000001101001001011010000110
00000000001101110100010001111111
00000000001111010111110010011001
00000000001000111000101110111000
00000000000001100111001111000011
00000000001000011001101001010111
11111111111110100110000111001011
00000000000011010011001010100001
11111111111111111111011101010010
11111111111011011000100010100100
00000000000110011011001001010100
00000000001000101000011111000000
11111111111111100000001110110011
11111111111111010100110100110000
11111111110110100010000100110100
11111111111001011010000100111100
11111111110111011100001000011110
00000000000001100110100110001111
11111111111111101111100001110101
11111111111100100100001010101010
11111111111110111110100110111000
11111111111111010110111110000101
11111111111110110001000010001010
11111111111110110101101101100000
11111111111101100010010111010010
00000000001110001101001001100100
00000000000110000010000010000100
00000000000101110000100001111010
00000000000000100000010100001001
00000000000001101101111100100110
00000000000100011100001100101011
00000000000011011011110011001011
00000000000001111001010100001100
11111111111001010100000111111011
11111111111010111000110011100000
00000000001010010011110000101101
11111111111101011101101101010110
00000000000011100110001011011011
11111111111010011000001110010010
11111111111010101101001100011100
11111111111111111000100011101011
11111111110110100101010000000001
00000000001000000011010001101011
11111111111101010011110111110001
11111111111001111100101101001010
00000000000000001010100101100010
11111111111100111011111111111110
11111111111101101001101111010011
11111111111010100000110101010111
11111111111100001011001110011001
11111111111111001011110011011110
00000000000110010111101010111111
11111111111111100101010011001100
00000000000111100110001011000010
00000000000110000011110100001001
11111111110100000011010001000100
00000000000000010001111111011101
11111111111111110001110101000011
11111111111011000011001100111100
00000000000110101001110100100100
00000000000000000011001110110100
11111111111110100111110001010111
11111111111100001100000111100101
11111111111111001100101011111011
00000000000011110000011111110011
11111111111101010011100001111101
00000000000001101100111011100100
00000000000001011011110000001011
11111111111001001100111110000010
11111111111001101110100110101010
11111111110100110001010100001111
11111111110110011110111110010101
11111111110011010000000111110101
11111111111000101101101010110110
11111111111011100101000000110110
00000000000100110100100000111011
00000000000100110100100010101111
11111111110100110000101100101010
11111111111000010011011010101100
00000000000101011111111001111100
11111111111110011110011101000110
00000000000000000011111001111110
11111111111011011100011001110000
11111111101101010000000001110101
00000000001101101100100101100100
00000000000100111100010101111100
11111111111101110010000100001011
11111111111100000000111001010010
11111111110100000010110011011001
00000000010001111011100101110011
11111111111011101011000101100110
00000000000101110000011100101001
11111111111011001000011011110010
11111111111101000100011001101110
11111111111111010100111011000000
11111111111111010110111011111110
00000000000010110100101011111011
11111111111110110000011010001011
11111111111100011100100001011000
11111111110100100110000111110011
11111111110111001000101101000110
11111111111000100010100010000101
11111111111110001000110011010101
00000000000111110011001010100110
00000000000110101110001111010011
11111111111110001101101001101010
11111111111110110000100101011101
11111111111111111011011001011101
00000000000101101101001101000011
00000000001001001010110011011110
00000000000010001101111110001110
11111111111001000000110111011001
11111111111000100110110010011010
00000000000000010000100010100000
00000000001101110110010010000100
00000000000101001001011000110111
00000000000000000101101111010101
00000000000001011001010100010000
00000000000110011111100001011000
00000000000101101110011001110100
00000000000111101010010101110001
00000000000001001111001011110011
00000000000110100001011011110011
11111111111111001010111011101100
11111111101100011101010010011011
00000000001001101111010111001011
00000000000000011010010001001010
11111111111001010000011100010110
11111111110101111101110100011001
11111111110111011010011101110101
00000000000010111011111101011101
00000000000100011001100110111000
11111111111000011010100010011010
11111111111001100000100101100101
00000000000000100100011011111100
00000000001011000100001011110000
00000000000000111001000011110110
11111111111101001000001101011010
00000000001001001011111111001110
00000000001011101010111111001011
00000000000110110100001010111011
11111111111101100101001110100000
00000000000100000100010101101111
00000000000100010101100011011110
11111111111101110111110000101110
00000000001010100011000101000000
00000000000010111000000100100001
00000000000101110100111001000001
11111111111101110011011110000111
11111111111001101110011111101111
