11111111110111010000001111001101
11111111111101101001101011110111
11111111111100111001000100000101
00000000000101011111011110110100
00000000000000011001011111110011
11111111111011001100101110010010
00000000000001101100000101111011
00000000000001010110010111110001
00000000001000111101011010110100
00000000000100110100011011101000
11111111111001100101101100010001
11111111111111100110110101101100
00000000000001000110000011010011
00000000000011100011101110111010
11111111111000111101000011101011
11111111111011010111000101100010
11111111111111110100100100100100
11111111111010110101101111000010
11111111111010111111111001000101
11111111110111001111001001011111
11111111110100011111010110000110
00000000001010001010010000100111
00000000000100110000001110100010
11111111111100110110000010000000
11111111110111100001011000000011
00000000000110101101010000110010
00000000000101001110111010011101
00000000000111110111110010110100
00000000000000000100101110100110
11111111110111101101111010101001
11111111111111101101100101111110
11111111111111111011111001011101
00000000000000010110001000011011
00000000000101111111101001010011
11111111111101101000010011000010
00000000000011000001000100000111
00000000000010100010001111001000
11111111111110100111000010000000
11111111111110111001101111011111
11111111111000000010101101101011
11111111110110010100110010101010
11111111111101100010011111000110
11111111111011111100001110110001
00000000000010010110110001000000
11111111111101010110010001011000
11111111111010111011100111000111
00000000000011101011001001101000
00000000000100111110101101000000
00000000001100000101110011101000
11111111111100101011000110111100
11111111110010001001111001100111
11111111111001011111011110100011
11111111111011101000001101101101
00000000000010011100011100100101
00000000000100111010010100010100
11111111111111011011111010010111
00000000000011101110110101101111
00000000000111011011000011110111
11111111111111111100000001010000
00000000000001011010100111100101
00000000000111001001000110000001
00000000000000100001101010110011
00000000000000110100011100110000
11111111111101001100001101111001
11111111111110000110010011011010
11111111111100110011000100011011
00000000000010010111011001001001
11111111111110110001100101111000
11111111111010001010110001010111
00000000000000000100001101111010
00000000000001100011001001001110
11111111111011101110001000011111
11111111101111000011000101101111
11111111101111011101100001001101
00000000000011001001001000100011
11111111111111011111111100100110
11111111111110101110011111011011
00000000000110010110110000001101
00000000000000010100000001011000
00000000000110010100110101001000
00000000000001100111011001000000
11111111111101111110001100011111
11111111111011010101011100110111
11111111110110110001110011100011
00000000000001010010110010010100
00000000000001111101100110101110
00000000000011001101000000110100
00000000000101011110011000011101
11111111111011001111111110100101
11111111110010011111100001100011
00000000000101000100100011000100
00000000000000011000000000001011
00000000000001100001110101001101
11111111110110110000001001001100
11111111110100010010010000101010
11111111111010011000111001100111
11111111111001101100000111000011
00000000000011101010010100011111
11111111111111010001010011000001
00000000000010011101010001111111
11111111110100001000100010100101
11111111111100111001011101001110
00000000000100010111111100100100
00000000000010101110110100011011
00000000000011111111111011100000
11111111111000111010101101100101
00000000000001101000101010011000
11111111111111000110110111110001
11111111111111001100011101001011
00000000000001001101100000101011
00000000000010011011101011100101
00000000001010000010001000101100
00000000000101101011000001011100
11111111111111110100111001001000
00000000000011011100000110001010
00000000000001011110000000110010
11111111110011111000011011000100
11111111110001001101111111101001
11111111101101011101100101011000
11111111110001011000100010001001
11111111110011100010100011011010
11111111101101100010001101100101
11111111111001010011100001100001
00000000000110111010100111111101
00000000000110111010111111100001
00000000000110011000001010011110
11111111110110101111011100011000
11111111101001001110001101011011
11111111101110111110011010111000
11111111111010111011111100001100
11111111111100101100011010001011
11111111111111000110110110101011
11111111111011000010001010001000
11111111111100100110100000010010
00000000000010000001010101111101
11111111110101011111110011010110
00000000000111100010110011001100
00000000000100000111101110000110
11111111111000110011001000000001
11111111111001110100011101101101
11111111111100111101101110011001
00000000001001110011100100110011
00000000000101001101011010111100
11111111110101011110010101010100
11111111111011100011100111111110
11111111111111000101010001010100
00000000000000001011100111010010
00000000000001011010001010101111
11111111111100111111011010111011
11111111110111101001011101110001
11111111111011010110011101101001
11111111101011011101001010001011
11111111110111010010100010001100
11111111101110001010101011010111
11111111111100011011110010101010
11111111111100110000000000001011
11111111110110100001011011111100
11111111110011011000110100111110
00000000000100010011111101100100
00000000000011110100000011110110
11111111111111100011111001111111
11111111111101111110001110000100
00000000001000100011010111000111
00000000000101001000111011001001
00000000000111110011011011100100
00000000000101111001001101011011
00000000000010110010111010101001
00000000000010000111111010001011
00000000000100111101110101100101
00000000000110001011000000001000
00000000000010110010010000001001
00000000000100000010001100110000
00000000000111001100011010001000
00000000001010110101111111110101
00000000000000011010001110001111
11111111111011111110010001010111
11111111110111011010000100100001
00000000000101001110011101100110
11111111111011000101100011101100
11111111111101011101110000110101
11111111101101100100001011001111
11111111101110101011101101110101
00000000000000100101001100011111
00000000000010101100111001110000
00000000000100000010010110100011
11111111111000101110001100010110
00000000000000000001101011000111
00000000000010010000001100011011
00000000001010110100101111110101
00000000000100010100101100101000
00000000000100110010101011000011
00000000000111110111011011000100
00000000010011100000110110011110
00000000010101000110001100100011
00000000001001111011110100001111
00000000000001111010000010000110
00000000000101111101100000000101
11111111111001101101110010011001
11111111110110010001101111000110
11111111101111110011001000001101
11111111110111100101111011001110
11111111110111001001111101010010
11111111111111001100011101000110
11111111111111000111010111101001
11111111111110100011001110000111
11111111100100100111010000111110
11111111101000011011001101001000
11111111111001111101111100100010
00000000000100101010100011011110
00000000000010111011101010010010
11111111111111000001010111001111
11111111110100011101101101011111
00000000000101000001011000000101
00000000000110010001001100100100
11111111110111110000100011110110
00000000000111111110100000001100
00000000001111101110000000111101
00000000001011100100010100011101
00000000000110001101001000011100
11111111110100000100100001000001
00000000000111011001010011111111
00000000010100010001101100000010
00000000000011111011010111010101
11111111111000101111001011101001
11111111101010111111000001001010
11111111110010010111100000001110
11111111111101010010110011001011
11111111111110010000000100011001
11111111111111000001001101100010
00000000000100110001110101111010
11111111111011000111100001000101
11111111111111100010111111011010
11111111111011010010001100111010
00000000000100010001001010110010
00000000000000111010100110010110
00000000000010100100101001110111
00000000000101110111011011001110
00000000000101001001101110110011
00000000000000010000110111001111
00000000000010111010000101110001
11111111110100101101111010011100
11111111111011101110101011001011
11111111111000011101101101010111
11111111110111000000001110010011
11111111111011100100110011111010
11111111110110100001010000001111
11111111101010101000001111101111
11111111101001100001011101111111
11111111110110100110011100110011
00000000010000110101100001010110
11111111111110100100011000011111
11111111110111010100001111100010
11111111111111001101011111010101
11111111111111001110011001111010
00000000000001011010111111101000
11111111110100110011100000001111
11111111111101111010000000100100
00000000000011110100011001110010
00000000000101100000110110111011
00000000000101011000101011011100
00000000000011010001010100101011
00000000001011110011111001101100
00000000000011100101111011100110
00000000000011000100111000011000
00000000000000111000001111001100
00000000001000010100011000000101
00000000000010010001100110001111
00000000000001001010111001001010
00000000000111101111000101111010
11111111111011011001011110110101
11111111110110011110011100100100
00000000000000111110101011111101
00000000000010010001011111100100
11111111111110100000110000111011
11111111111101000011001000000000
11111111111111101101110000110001
11111111111111001101010101011110
00000000000010101001101011011111
00000000000100000111100110010010
00000000000001000011111010000100
00000000000100001100011101001100
11111111111111011100011010101010
00000000000001110100100000010011
00000000000100100111111100000000
11111111111101000100001000101111
00000000000101101101101000101111
00000000000011101000110101101000
00000000000111011011100010110100
00000000001000001010000101011010
11111111111110011000111010010100
11111111111100100001100001110100
00000000000010100000010000110000
11111111111110101010111110101000
00000000000101010101101110001110
11111111111101001010011000100010
11111111111001101100101000010000
11111111111100000100010001101010
00000000000111110100000011010111
00000000000011000101111001101110
11111111111100110010001011010001
11111111111101010110010001010110
11111111110111011001110001100111
00000000000010111100001110101100
11111111111010111010000010100000
11111111110101101100000110110101
00000000000110010111000110100000
11111111110011100010110100100110
11111111111001101001111000101000
00000000000011001001101111110100
11111111111110010011111111001010
11111111111011000101110010100111
11111111110111100010100101100010
11111111111001010110010100100101
00000000000001111011000001111001
00000000000110110000011110000111
11111111111111011011000101110111
00000000000010111000001001110001
11111111111000110001101110011100
00000000001000000110011111111000
11111111111111001010000110000101
00000000000111101011101100101001
00000000000101110100001001010100
11111111111101010000111110011000
00000000000111011001010011010110
11111111111010000100111000001001
00000000000010110010001110011101
11111111111111011001101101101110
11111111111101000110101100001000
00000000000000000100111000000110
11111111110111000000110101011111
00000000000000011111111001010011
00000000000010010110010000010001
00000000000010100101111010101100
11111111111011101110100100101011
11111111111010100000100101100000
00000000000001110001100011010111
00000000000111110000100010001011
00000000010010111010001010101101
11111111111101100110001110110111
00000000000011101001111000011010
00000000000110011001011000101000
00000000001010111011010110100001
00000000001100011000010011011110
11111111110101010010111111100011
11111111110110100011111110001010
11111111110101101111010110100010
11111111111011010000111010010110
00000000001101100011110110010100
00000000000110111011111110111000
00000000000101010110111011111100
11111111111010101001001110001110
11111111110110011011001010101100
11111111110111000100000110110101
11111111111101111000000011001110
00000000000001110001010110000000
11111111101110010111011011101001
11111111101101000010000100011111
00000000000010100011010011101101
00000000000110001111110100000100
00000000001011000100001110000100
11111111100111100001011101001110
11111111111100110000000111001010
11111111111100101011011101111100
11111111110010010001010110000111
11111111111001101101010001111000
11111111111110001001010011111101
11111111111010101111110000110100
11111111111110101001001010101000
11111111101010011010100001000111
11111111110111110011101011001100
00000000000010100000110110100010
11111111111000011110011011011000
00000000000111010110011101110010
00000000011001000100010000001011
00000000010110111111111001001001
00000000000000001010011110110011
11111111111110100011000011000001
00000000000010101011111010110101
11111111111111001010000100010110
11111111111000111110010110010011
11111111111101011110110010010010
00000000000111100011000100110010
00000000000100101100001001100000
11111111111110101000011000001101
00000000000110101000001010111111
00000000000000100011111010011111
00000000001000000011100101101000
00000000001000011010111000010011
11111111111010011110111111111111
11111111111100110110000001001101
11111111111000010000111000011011
00000000000011010011111110111000
00000000000010100000110100000001
11111111110111100001100111111010
11111111111001001100100010000000
11111111101111111111010100110010
11111111111011001001101000101010
00000000000000101010010001001001
00000000000011101010110000010101
00000000000001001111010001111101
