00000000000101110100100000101111
00000000000001101000101001011100
00000000001000010010001001100011
00000000001000011001111110100001
00000000000000101001111111111001
00000000000000000100101000101101
11111111111111100101011111001110
00000000001110001000000000101100
00000000000110011010100011011001
00000000001010100111100000101001
11111111111101001010101111101111
00000000000110001101100010011110
00000000001100100010111011011110
00000000000000101100101101011001
00000000001100110011110001010100
00000000000101011110000111111111
00000000000111001110001110001010
11111111110001000101000011001001
11111111111110100001010100000011
00000000001011010111101110001100
11111111111101000000010010000011
11111111111011010010010001000011
11111111110001101100010011011011
00000000000101100111010110101101
00000000000101001011001100111111
00000000000110010101000011010010
00000000001000100001010100001101
00000000000111001111001101110010
00000000001111111001101001011111
11111111111011001001111111001011
11111111111111011101011001110011
11111111111100111001001100001111
00000000000101111111111110100100
00000000010100110011000110001110
00000000000110000110110101000101
11111111110110011110111001110100
11111111111010001111101100101111
00000000000111111100101010011110
11111111111111001111001110011000
00000000001001101111101111011110
11111111111111001010101000110011
00000000000110100010101010010111
00000000000000101000010010001110
11111111111010011111111010100011
00000000000010101100010000110101
00000000000001000010000000100111
00000000000001111110010000010110
11111111111001011010111000100010
00000000000110100000100001001011
00000000001000111000100011101100
11111111111100111000011111010011
11111111111000111100000111111010
11111111111010010010100010101101
11111111111101101111001101011010
00000000000001100100010000011001
00000000000001100100111110000111
00000000000001011101011001001100
00000000000100000101111101101100
11111111111001000101011111001010
00000000000100011110001111100100
00000000000111010111000100101100
00000000000100100111000011111011
11111111110110111001010100111101
00000000000001000000011100011010
00000000001101101011001101011000
00000000000011001100010110000011
11111111110100000001000010100110
11111111110111000010001011111011
00000000000001101011011001111000
00000000000101111110010011011011
11111111111111111000100110101101
11111111111010001011100110111101
00000000000101001100110111011001
11111111111000001100100100000000
11111111101101011100000110100001
00000000000110100011110001000111
00000000000001000000000111011100
11111111111110100010101011000010
11111111111110010110011100000010
11111111110011001111101101000101
00000000000010110100111110100000
11111111111101110001001011110110
00000000000010010001001101010011
00000000001011110011111010010010
11111111111001100000110010011110
00000000000010001011001010100001
00000000000000110000000101011001
00000000000011000011011011011111
00000000000101001110110100111110
11111111111111101011101011010011
00000000000010011101100110111111
11111111110111101101110101011011
00000000000101101111001001000100
00000000000111000001010111000011
11111111111111100001000000000001
11111111111010111001011000101111
00000000000000101001101111110000
00000000001001111000101100101000
11111111111110010000100110100101
00000000000010001001010011111000
00000000001000111001010000011101
00000000000011000101101111111010
11111111111111000011110100010011
11111111111000110101111110100001
11111111110101010010010011001000
00000000001111001101000011100001
00000000001011110000110000101101
11111111111101000001000010000110
11111111111110101010000100100010
11111111111111010000111011000001
00000000000010101100011011101111
11111111111110010001010011111101
00000000001001010010000100101111
00000000000011111000100001001101
00000000000111011001010110101100
00000000000001111011101011101011
00000000000001101101011101101101
00000000000101101100010011010110
00000000000100011110100010010000
11111111111011011111100000011100
00000000000011001111111100101001
11111111111010000010110010100011
11111111111101101001000101100011
11111111110100101011111111011111
11111111111101000011110110110110
00000000000011100001000011000010
11111111111101001011000111110100
11111111110100000110000011101101
11111111101111101001011100100101
11111111111011001100100111011101
00000000000011000100101111111011
11111111110011001100111101100011
11111111110111110000100000001000
11111111110100010000111011011100
11111111101010010001001110110101
00000000001100001101101101000110
11111111111110110100001000001011
00000000000010100101110101000010
11111111110111111011101111110001
11111111111101010000011110100100
11111111111101001011110011111100
00000000000000001110011001011000
00000000000010111110111110011111
11111111111111001110111010000010
00000000000110111001001100111010
00000000000010011110001110010100
11111111111111010111100000001110
00000000000101111001010001001001
00000000000001111101010000101110
00000000001001000001001000010010
00000000000010011110001110011000
11111111111010011101011010001000
11111111111001111001101110100101
11111111111100011110000000000101
11111111111101011110011011010111
11111111111001100010111001010111
00000000000111000000001111010010
00000000001001000111101000111000
11111111111100011000101010010000
11111111111010000000100110011101
11111111111100010111111111001100
00000000001100100110110000000000
00000000001110101000001101000110
00000000000000011110101010011010
11111111111100000011010001101110
11111111111111010101100010010111
00000000001010000001101011011011
00000000000000111111100011000010
11111111111100000101111010011100
00000000001011101111111100110111
11111111111111110001001100101010
11111111111100010100111000010001
11111111110111100000011111011001
00000000000011111010000101000110
00000000001011010001110110110101
00000000010110000001101000001111
11111111110100110101010000110110
11111111111010010100001011100101
11111111101011101000010000011010
11111111111001101011010010110011
00000000001011000100100110001111
11111111111010110111011011001011
00000000000100010100101001100000
00000000000101111011001011111011
00000000000010001011101001000111
00000000000011100010001011100111
00000000000001000100111101000011
11111111111000011010111001001000
11111111111110101000000111101001
11111111110111110101011010011010
11111111111101110001000000111001
11111111111110000010000100101100
11111111110110001000100011100110
00000000000100101010101111011110
00000000001111011101000101001000
00000000000010010110100001011111
11111111111010110110000110001111
11111111111000101010101111001110
11111111111100110000001010010110
11111111111011011101100100011000
11111111111011010100000100010000
11111111111000111101010000101000
11111111111011111110010110010111
00000000000110000100100100010100
11111111111111010011101010110000
00000000000001011010011101011100
11111111111111000001101010010101
00000000000100010000011101101010
11111111110100101101011001110000
11111111111001100101010011110100
00000000001011001011110000100000
00000000000100001101010001010000
11111111110010101110110111101010
11111111111110001101010010011101
00000000000111000010001110001110
00000000001100000100101110101100
11111111110111011100000001011101
11111111111101101001100110111110
00000000001000000110001110110111
00000000001000010101010110001110
00000000000010111111000111001101
11111111111111110010111001000101
00000000000111010110001101001100
00000000001110100111110001111101
00000000000010011010101010111011
00000000000010010110000000101010
11111111110111000011010111101111
11111111110011111101111010111100
11111111110110000100010010010100
11111111111101000000000010000001
00000000010001100110110000001010
00000000000011011010110111101001
11111111111010111110001100010011
00000000000001001111111000010110
00000000000001011010000110010100
00000000000110101011011001100010
11111111111110100101001011010000
11111111111011110100001010111100
00000000001000101001000010000111
00000000000100101011110011010000
11111111111110111000011011011101
00000000000010011111011111000110
00000000000011101010111011101111
00000000000101011011110001100110
00000000001010111011110110111100
11111111111110001101011110001110
11111111111111001010000011010000
11111111111010000000100100110111
11111111110010100111010011111011
11111111110001110100101101111001
11111111111110011000000010000111
00000000000001110101111011001000
11111111110110101001110110010000
11111111111010001110101101100001
00000000000100101000110000001111
00000000000000001101001110111101
11111111111110101111010000100001
11111111111110110011010011001110
00000000001000000110010001011001
00000000000000010110000110000111
00000000000001010110011010001101
11111111111010001101101000011110
00000000000001111011101100111010
00000000001011011011011100011001
00000000000110111010100010011001
00000000001000111011010101100110
00000000000101001010111100010101
00000000000001011111010011100111
00000000001101000010101000111001
00000000000101010011001111110111
00000000000000010101101011101000
11111111111100100100011001011110
11111111111100010100000001010000
00000000000110100001101111100010
11111111111110011111101000100000
00000000000001110111111000000111
00000000001001111011011100010000
00000000000100000101110110100101
00000000000101101010110010011010
00000000000110101100111011011100
11111111111110100101101101011101
00000000000111000001001001101101
00000000000011110011011110011101
00000000000110001000001000011100
00000000000011111010001001100111
11111111110110101001110011001110
00000000000100010101101001000011
00000000000000011101011110011010
00000000000111110101101001001101
00000000001001110101001011011101
00000000000010010000000111101111
00000000001100111110011001101001
00000000000000001000100111110110
00000000000111111010110110101111
00000000001100001011110000011100
11111111111001111100111101111010
11111111110111010111101000101001
00000000000010010001111001111011
00000000001000101000011110100110
00000000001000111011101011011101
11111111111000100101001110010111
00000000001101111010111111010001
00000000000010111111111101100101
00000000001010110111110111011110
00000000000110001010110010001101
00000000001101001001010001001100
11111111111110001010010100010011
11111111111110000100101110101110
00000000001001111001111110100110
00000000000010001001111011101111
00000000001011110001110110101101
11111111111001011011001000000110
11111111111011101110010111111111
11111111110110101000101111001101
11111111111100001100001101000011
00000000000100101100000100110011
11111111111100111111001101111100
00000000000001100100100001111001
00000000000000001000001010100000
00000000000111001000111111111110
00000000000001110011101011011010
00000000000010111101000110010110
00000000000101110000110101100100
11111111111111001001110011100110
00000000001000110010001101010000
00000000000001101100000010010110
00000000000010011011011001100001
11111111111101101110100010111010
00000000000110111110110100101111
00000000000011101111110001000101
11111111111101100000111011010100
00000000000101010110001100111100
00000000000100000110110000001111
00000000001011000010011011011010
00000000000010110011011100010000
00000000000000000011110000010011
00000000001011000000110111110011
00000000000110111101110111110111
00000000010000000100001111100111
00000000001001110011000100011100
00000000000001100110111100100001
11111111111101001110111000110001
00000000001000100110000111111011
00000000001010010101001011000001
11111111111001010100100010111100
11111111111100000110001110011101
11111111111000011110110010100000
00000000000000110001011011110011
11111111111100000001110011011001
00000000000100010100000101000101
00000000000110101100100010110010
11111111111101100000110010011111
11111111111011111011011000111011
11111111111100011111000011101101
00000000000010100101110101110100
00000000001000001010010010100001
11111111111100011110001010100000
11111111111101100000111111100001
11111111111001011110000100101000
00000000000000001001010000000001
11111111110101100110010000110010
00000000001000100111100110111011
00000000001010100000101001111100
11111111111111001110101100101110
11111111110110101001111111000101
11111111111000100001100101011010
00000000000101001010100100100011
00000000001011110101110111111001
11111111110111000111100111110011
11111111111111011110001101011111
00000000001010011011100000001110
00000000000010100100110000000100
00000000000100010110101111010111
11111111110011100011010110010000
00000000010011001011111000101100
00000000001110010111101000011110
00000000000110100010011101011101
00000000000101111001011110001100
11111111111010110111010000000001
11111111111110110101011001000001
00000000000010011011000111100110
00000000000010100000011111001101
00000000001010100001001100010000
00000000001000001101101101110000
00000000000000010001100101111100
11111111110110110110111010100101
11111111111100010000010001111111
00000000000011110110100010101000
00000000000010011011111000010110
00000000000100111100101101010100
11111111110110110111111010111110
00000000000010100100001111100000
00000000000000010100100000000011
00000000000100110101001100111000
00000000000010011001010010000111
11111111111011000000101011011101
11111111111100001000100110011110
11111111110101011010111110110000
11111111111100110011010111010000
00000000000010011000010000110101
