11111111111011001110110010010000
00000000000100100000001010101000
00000000001011101001101011000001
00000000001000111001111000111101
00000000000111000011111011110011
11111111110011011100010011110011
00000000000011111010101111010110
11111111111001110011101111011110
11111111111110111100101111110111
00000000000011010000100000000110
11111111110110010101101111010001
11111111110111110101001000100101
11111111111001010100110111110111
00000000000111010101011011111110
00000000000010010101100011001001
00000000000101111100100000111101
00000000000100110000101110010101
00000000000011101100100010011100
11111111111100110101000011010001
11111111111110010011100001100110
00000000001010011010001011001010
00000000000101011011000101000000
00000000000010000011110001001011
11111111111001001100001010111000
00000000000000110111100001010101
00000000000001001111010100011110
00000000000011100110111100100001
00000000001100101100011011111001
00000000001000101100001111110001
00000000000001100011101000100000
11111111111100101100001001110100
00000000000000101011000000110101
00000000000100100011100111000001
00000000000011110110110101001100
00000000000001000011111101100000
11111111111100110100101001101110
11111111111000101110111111010000
00000000000000001000010110101011
11111111111110011001111101011100
00000000000010001000100110100110
11111111111110111010100110110110
00000000000000111101101010100010
00000000000000011100011010010000
00000000000001011001010001011111
00000000000001110011001101010011
00000000000100100111001011010101
00000000000011110100101000010111
00000000000110010110101111010101
00000000000000100010001001101011
00000000000010100001100101010001
11111111110100010101101000001011
11111111111101100011100111011000
11111111111010010111001110100110
11111111111110000010100110101101
00000000000011100001010010001001
11111111111000001000000101110001
11111111111000110100100101011011
11111111110101100100000100011111
11111111111111001000001111100111
00000000000011101110100110110110
00000000000111100011001101110001
11111111111101011010100111000101
11111111111110010010010100100000
11111111111110011000010001001011
11111111111111110111101101100101
00000000001101000001100011000001
11111111111011011010101000100101
11111111110111100011001101100010
11111111111101011010011011101101
11111111111000100000000111111101
11111111111110001001001001101101
11111111110100111100111111110000
11111111111001000011111101011100
11111111111101010111101101001110
11111111111010001000001111100111
00000000000110011011011111011100
00000000000001001001111101101001
11111111111011111110000001100111
11111111111110110100111010010110
11111111111011101100111111000001
11111111111100100011001010000001
00000000000000100110000011000101
11111111111010111011010100010000
00000000000101111111111110001001
11111111111111101010100100100011
00000000000001000011111001111110
00000000000001110111100110011110
00000000001101011001010000110100
11111111111101011111000101100100
00000000001001000110110010010111
00000000000001110110010101010000
11111111111100110100000010001000
00000000000101101101010011001100
00000000000100000001100001100010
00000000000110100100010100011001
00000000000010101010111101101000
00000000000000111001001000111100
11111111111100110100110100010100
00000000000010011101011110000111
00000000000001111000000111011110
11111111111100001010101101000010
11111111110011100111011110011000
11111111111010011111000000101111
11111111111100010010111001100110
00000000000001000001000010100111
00000000010001000101111101101001
00000000001011100000001111000011
11111111111001111001011110111010
11111111111001000111010100010111
11111111111011010100011011011001
00000000001110110110110100010100
00000000001010111010011100001100
00000000001001111111110001100111
00000000000111011101001010001000
00000000000111111010111000001111
11111111111110011110000000001011
00000000000100101100000100111011
11111111111010100010000001101101
00000000000011110010000010100100
00000000001000100010101000111010
11111111111010010110001010000111
00000000000110001011000100000010
11111111111100110000000101100010
11111111111001101100110000100010
00000000000000110000000101111010
00000000000011100000010100111001
11111111111010001101110101110111
11111111111010011110010000110001
11111111111100110001101100001111
11111111111100001011111110011111
11111111111111011111101010001100
00000000000010001111101101001011
11111111111011100100100001000110
11111111111000111100000001001100
11111111111110110100010110111111
11111111111110100100100110011011
00000000000010100111001111101011
11111111111110001011011100000000
11111111110111111110101010011011
00000000000001100100101100100110
00000000000110001010011011011010
00000000000100101001001100000000
00000000000011011001001110110000
00000000000010010010111110110000
00000000001010110100100010111011
00000000000110010011001110110111
00000000000110001001110011011111
00000000000001101011111100011011
11111111111110011101001000000000
00000000000111001010110101010111
00000000010110001000100111110110
00000000001110101000101001000000
11111111111011010100111101001010
00000000000100101100111110001000
00000000010001110011111000111101
00000000010000010011110000010001
11111111111010111010111101101100
11111111111000100101111000000111
11111111111001110100110100010100
00000000001010110110101100001010
00000000000101100111111000110110
11111111101101100100010111001111
11111111111001111000111101101110
11111111111110001100001101010100
00000000000101101011010100011110
11111111111101101100101110111110
11111111111111001111010000001000
00000000000001001100111100011111
00000000000110011001010011001111
00000000000010100011111010111110
00000000000001001010111000101100
11111111111111101100000000000000
00000000000010000111100010100101
11111111111011110100011010010110
00000000000100101011010101010111
11111111111011000101110100101010
11111111111100011111100111100011
11111111110111011100001101110000
00000000000000010000101100011100
00000000000111000110000101101001
11111111111111000000000011011010
11111111110001001101110101100111
11111111111001110110011111100110
11111111111001001110010001110000
00000000001100011001000111000110
00000000000001001010001110110110
11111111111001101011000000000010
11111111111100011001011011000010
11111111111111111100101100001011
00000000000110000010110111010100
00000000000001001111010001000011
00000000000101111111011010011010
00000000000000000100101011101110
11111111111010010001100111011010
11111111111111011010000000101101
11111111111111111101110001111110
11111111110111010111011100101000
11111111111001000001010100001101
11111111111111011101010001001111
00000000001001000001111111111010
11111111110000010011100111001101
11111111110100011101101011100011
11111111111100011010011110111100
00000000001001100100110110100111
00000000001001011110111100111110
11111111101000100110111101100110
11111111110110011110010101110100
11111111110110111001110000100101
00000000000010000110000110010111
11111111111010011111000100110110
00000000000111000101001011110001
00000000000010101100000100011001
11111111111110001001111010111110
11111111111011110010100101000011
11111111111100000010001101000111
00000000010010000011011000000011
00000000001100001101000011010100
11111111111101000101100111010111
11111111110110111000111100100110
11111111111000001000101010011011
00000000000000111111101111000100
11111111111000011110001010011111
11111111111110010000011010001100
00000000000011010110001000010000
11111111111001110011001111011101
11111111110100111001101111000000
11111111111010110010111000100001
11111111110110111110000110101110
11111111111101000110000001001100
00000000000100101100101001001001
00000000000010110010101100010011
11111111111110011111011110100110
00000000000000100000000011101001
00000000000001100001101000000010
00000000000111001111100010101111
00000000001011010101011100111110
00000000000011100111100110000000
00000000000001100110100111011111
00000000000101110001110100010111
00000000000011101111100000000000
00000000000100111001000010111011
00000000000000111010100101001010
00000000000010101110111111111010
00000000000111110111101110011011
00000000001010100010001010101011
00000000000000000111111010001000
11111111111011101000010110000100
00000000000000000100011011111100
11111111111111110000110111111110
11111111111010100001110011100011
11111111110011100010100000101001
11111111111111100011111010101101
00000000000101100011110010011100
00000000001101011111010010100001
11111111111110001010100110001011
11111111110111010110011101010001
11111111110111001110111110000110
00000000000100100101010000111001
00000000000001110111011101100001
11111111111010011101110011000110
00000000000010101100001000110101
11111111111100010011011110100001
00000000000000011101100100011111
00000000000110011000001110011001
00000000000000011111010100100000
00000000000101111001010100001110
00000000000100100011011100101100
11111111111111010011010110010000
00000000000100000111110001010000
11111111111010001100000100011010
00000000001000110011010011000111
00000000000010111001011010101000
00000000000110010000110111001001
00000000000011000000110111000111
00000000000000100000100100000001
11111111111000010000000111001100
00000000000010101011001100001111
00000000000111110111010010011001
00000000001111101000100010100011
11111111111110101101100101000010
11111111111010100010000110101001
00000000000001001100011111101011
00000000000101011100010011010011
00000000000100010111000111111110
11111111111101001100101010110110
11111111110110010111010111010010
11111111111101000100111111101001
00000000000010010001111110011001
00000000000101101101101101011110
11111111111100101111110100101010
00000000000100101101101110110110
00000000000001000100110010001100
00000000000010111110011110001001
11111111111110011001111110000011
11111111111001010000000010000001
00000000000111010011111110001010
00000000000111001000011101011000
00000000000101011110101100100110
00000000000001111110111111111010
11111111111111010100101110110011
00000000000111100101010001000100
11111111110110100100100000101111
11111111111001010101110101010100
00000000000111001001100101001001
00000000000010101110000100110010
11111111111110010011010011011000
11111111110011110011000100110110
00000000000110011110010011000111
00000000000011000001100110001001
00000000000010111101100101100001
00000000000010000110001100000101
11111111111010100101010100111100
11111111111000100000100100110100
11111111110100000001001000001111
11111111111110110000100111011010
00000000010001000011100111101000
11111111110111100001010001101010
00000000000011000100000110001111
00000000000100010001011101000101
00000000000100100001011010111111
00000000001010000100011010100010
00000000000110100100110011011110
00000000000110101001100111000011
11111111111000111011001001001100
00000000000010010101001000100000
00000000001100011110111010110100
00000000001011101010101011111001
00000000000010000011011011101111
11111111111010100000010010011011
00000000001010001010110011110011
00000000000110111010100001000101
00000000000100110010011001110010
11111111111111001101101011100110
11111111110111110101001000110001
11111111110100111011111101000101
11111111110111100100001011000111
11111111111101100010101101000010
00000000000010001100000101010011
11111111111111001101111101000100
11111111111110010010000001001010
11111111111100011110110111101000
00000000000000000000011010000100
11111111111111000100000100011001
11111111111110100101000010100101
00000000001010010101000101111100
00000000000010011001100111001001
00000000000001001110100000000011
00000000001001011010011010100000
00000000000000001010101110111000
00000000000011000111111111000101
11111111111101110110111101101000
11111111111000111010011001001000
11111111110001000001011100110101
11111111110111111001111110101111
11111111111111110000001101100100
00000000001011111010010111011101
00000000000010001011010011010001
00000000001000101110001111011011
11111111111111110100100110110001
11111111111111100100110010111011
00000000010011110010001110010110
00000000000000010010010110000100
11111111111011000000001101100000
00000000000000011000010101101010
00000000000100010100011100101110
00000000001000100101010110010000
00000000000100100100010001101100
11111111111011101100011111010001
00000000000011111100000101011110
00000000001111010110001000100010
11111111110101011001000111010011
00000000000000000110100101011110
11111111111110011000100001011000
11111111111010000000000010010110
00000000001010100001000011111011
00000000000011001111111100101101
00000000000101000000001001010110
00000000001000010000101001101011
00000000000001100100111110001001
11111111110011000101001110111101
00000000000111010101001010111000
00000000001000100010000110000010
11111111111010010011100001001000
11111111111101100111101010101101
11111111110010010001110101010000
00000000000010111110011110111101
00000000010000111000001101000100
00000000000110111110010011010111
11111111111101011111110111001111
00000000000001110011111100110100
00000000000010111100001000010000
00000000000011111101011100100011
11111111111110100100100101111111
00000000000101110111001011010010
00000000001010010011010001110000
00000000000111010100100000011001
11111111111111110110001011111000
11111111111011100001111101011011
00000000000010011110010001111101
00000000000011101100111011110000
