11111111110011110000001101100110
11111111111101011001110110111001
11111111111010101101000110100011
00000000000001101110100011111010
11111111111111111011011101011001
11111111111011001011000011100100
00000000000011001100100000110010
11111111111101101111110100100101
00000000000101100010000010100100
00000000000000000100101110011100
11111111111001011000100101011001
11111111111000010101001101010101
11111111111100000010010110011110
00000000000010001001011111111110
11111111111011011010010110000011
11111111111111010111001111111001
00000000000100010001100010100001
00000000000101010100000011010101
00000000000000110111100110100010
11111111111101110100100000101010
11111111111011011010000000010111
00000000000110110001101110101001
00000000000001111101000100111001
11111111111000110010011100101101
00000000000001101100100110000010
11111111110000011011100111011100
11111111110111100000001110110101
00000000000110010000011100010111
00000000000110001111111010001110
00000000001000101110100101010111
11111111110111111100101111100011
11111111111100101000001011010011
00000000000101111011101011001111
00000000000001101011010101011110
11111111111001100110110000111001
11111111111010100010010010001110
11111111110111110001010001101011
11111111110111110111011101001010
11111111111111011010100010110110
11111111111100101011011101110001
00000000000001101001111110101101
11111111111010010110101001000101
00000000000010111100110010010100
00000000000011100010000111110101
11111111111111100010011110100010
00000000000001010011010001101010
00000000001010101000100010001111
00000000000110111100011010110111
00000000000101000100010111000100
00000000001010100011001011111111
00000000000100001110010000101000
00000000001000000000110101100101
00000000000100100000011010011001
11111111111100000001111001010011
11111111110100011010000010011010
11111111111011111000101110110010
11111111111101110111000011010010
00000000000010110001110001011001
00000000000101011010010010110000
00000000000110100110000100001101
00000000000001001101001001001011
00000000000110000001000001110101
00000000000111111011010000100010
00000000001000010111001111000001
11111111111101111110110010011000
00000000001000001111111100011010
00000000000111110110111100101100
00000000000011000110001001101011
11111111111010011111100100110010
11111111111111000100000011101000
00000000001010110010101011010010
00000000000001011111000100101111
11111111111011010100011101100111
00000000000011011000001100101101
00000000000000110001010011111000
11111111111000011010100110001111
00000000000001111101111100111010
00000000001010000011011000100110
00000000000100011011001000000000
00000000000011001110110100000000
11111111111100011001100011110111
11111111111001111111101000010110
00000000000010100011101100000101
11111111111101100101011011100101
11111111110101010100000011110000
11111111111001010100101000101011
00000000000000010001110111101010
00000000001001100110000101000100
11111111111111111110011110100001
11111111111010101010000110011001
11111111111100011101011100100101
11111111111110011101100000000001
00000000000101100001100100101101
11111111111101101100101010001110
11111111111100110000000010000011
00000000000100110111100110001111
11111111111111010001110110100100
11111111111100111110010001111011
00000000000011110011001010101101
00000000001000000001111001101110
11111111111100000110010000010111
11111111111101011110111000101110
00000000000001100001001111100111
11111111111111110100010010110110
11111111111010001100100110000000
11111111111000110000110110101011
00000000000001010001011000010111
00000000000101011010111000000000
11111111111111001110011001011111
11111111110110011011001011000101
11111111111110101100111110100010
00000000001000010010000000101101
00000000000010101001100011011101
11111111111100101001011110100100
11111111111010001000101010110111
00000000000010000100000110100111
11111111111111101000010001000111
11111111110111111000110010110010
00000000000000100101111001001100
00000000000011000011001001010010
00000000000110100101001101100011
00000000000101011101110010100110
11111111111111001100110101010001
00000000001010000100101011101100
00000000010001001101101010000001
00000000010101110111111010100100
00000000001101111010110001010001
00000000000100000101101011011111
00000000000110000101110010001111
00000000001001101000100111111111
00000000000000100000010000111101
00000000001001000111111111110111
00000000000101011110001101010111
11111111111111101111101011011000
11111111101111000011101011000000
11111111111011001100110111010100
00000000000100110011111101110001
00000000000010001011100100001101
11111111110110101111101011110011
11111111110111111011001001101101
11111111110110101100000000010101
00000000000100001010011111000011
00000000000011001010001001111111
11111111111010101111001011011111
11111111111111001000000110100000
11111111111100110101000110010110
00000000000001101111001111111100
00000000000101101110011101010000
11111111111110010011000010101101
00000000000110111010001001111001
00000000000101100001110011100111
00000000001101011010100000111010
00000000000001001010110110000111
00000000000100000010110101111101
11111111111001111001111100001101
00000000001100110101101101000001
00000000000101001011010011010000
11111111111000100101000001110000
11111111110110111000101110100100
11111111110101001110100111011111
00000000001011111101101010001111
11111111111111010000100001000111
11111111111011010111110010010110
11111111111000011010100010100000
00000000000111000000111101000111
11111111111111010010100011000011
00000000000011010100101110011011
11111111111110100100111000100010
00000000000110010011000110011001
00000000000110110101110010001010
00000000000100001110100011000000
00000000001011100010111100011000
00000000000101011111001110101110
11111111111101110000011011010000
00000000000100101000111010010010
00000000001010000010111011100111
11111111110110101000101110011000
11111111110100101111000110010100
11111111111000010000111111011010
11111111101011010101100011110000
00000000001001001101111011001101
11111111111010101010111000000011
11111111111010010011000011001001
11111111110010101110001111010010
11111111101010011100110000000100
11111111111100011001111001011001
11111111111101101010100001010111
00000000001000101010111100000100
00000000001100111110101101011001
00000000010010011111101111100010
00000000000010101111101000101111
00000000001010001001101100011111
00000000000111101100010010010110
11111111110001101010100000000010
11111111111011010011010000010111
00000000000011101111110010110101
00000000001011011100101110011011
00000000000110001111010111001010
11111111111010001100000001000100
00000000000100000101010101011001
00000000000001001001010111001101
11111111111111111001001010010111
00000000001000100110111111110110
11111111111010001001000001010001
11111111111000010001001001010010
11111111111100111011011101000111
11111111111111100110111001100111
00000000000011100000000101101000
00000000001001000010010011100100
00000000010010011100000101110000
11111111111001101110011011000010
11111111111001001101000100010011
00000000000110110010001110000111
00000000000001001010000000000100
11111111111101010101101000011011
11111111111101010110011011011010
00000000001010010111110110011011
00000000000011011110011010011101
11111111110011010100010000011111
11111111111010000001000111001010
00000000000011110010010101111011
00000000000000111010011100110110
11111111110111110111101000111111
11111111111110010000001010011111
11111111111101010010001110110111
00000000000011010101001111000100
00000000000100111011011011000111
00000000000101110111111101110111
11111111111011000001001011101111
11111111101101000101101100101011
11111111111001110001001011110010
11111111111101001111001000000110
00000000000100011101011110010001
00000000000100001100000010010000
11111111111100111001000111111001
11111111111100101110000101010010
00000000000101100000110111010101
00000000001001000111011001011100
00000000000100001101111100110100
00000000000010000110111100010010
00000000000010000100101011011011
00000000000101100001011111001100
00000000000001010010101101010011
00000000001000101100011100101010
00000000000011110000101001110011
00000000000001100010100101000100
00000000000101010001011011100001
00000000000101010110011110001011
00000000000001110100100011011010
00000000000101011011000100110000
11111111110001010001011110110101
11111111111101100000001100110001
11111111111110010100011010010101
11111111111100010110001110000001
11111111111110000110101001001011
11111111110110001111000111101101
11111111111001001010100101110101
00000000001000001011110101110001
11111111111101011010010111111010
11111111111101011001110011010000
11111111110000011101000000000000
11111111111011010000001011000101
00000000000110111100011110101101
11111111111000100010111001110111
00000000000001001011001010101001
00000000000010010111001101001101
00000000000100100000011110000110
00000000000000110101010011011110
11111111111111101011000111111101
11111111111101011001011011111110
00000000000111000011011100110000
00000000001001100100101000110011
00000000000010010110001111101111
11111111111010110010000100111001
00000000000011011001000101100110
11111111110100011000010101101001
11111111110101010000001100110000
00000000000000011000001110110010
00000000000001100000101101000011
11111111111100001100101101100110
11111111110101101000101100010111
11111111111000010000000110101000
00000000000010110110010111101110
00000000000000110110100110100101
00000000001000001010011000100101
11111111110111101101101111011100
11111111110111101111000101110011
00000000000101110000001110110100
00000000000011110101110110001110
11111111111011011100000100001111
11111111111110110001000110000100
11111111111110000100010000100110
00000000000011010010011101001011
11111111111100111110010101010111
11111111111010111000011101101011
00000000001000010110111010011010
00000000000011011100111000101111
00000000000000011110011010001111
11111111111100011110111100111010
00000000000001000101101011011000
00000000001011100100110110101101
11111111111110111111011111100100
00000000000010001010101000001101
11111111111001010000011100100101
00000000000000110100001001101111
00000000000101010110010111010101
00000000000011000110011001010110
00000000000110110001001010011101
00000000000100011000001011000000
11111111110101111111101100010101
11111111111100101010000100101100
00000000000100001011000011111000
11111111111111111110011011101000
00000000000011010011100000111000
00000000001000011000010011111011
00000000000010100101010101101000
11111111111010110110101111110010
00000000000100011001010111010101
00000000000101111100100000100001
11111111110110100110101111100111
11111111111011101111010001110100
00000000000110101011110101110000
11111111111111010000011100011010
00000000000000000111010011011010
11111111111111111001011101100111
11111111111110110101110100101001
00000000000001110111101011100010
00000000001010001000101011011000
00000000001100111100111101000011
00000000000101111011011101111010
00000000000010001010111001101100
00000000001001010010101100001010
00000000000000011011011001010001
11111111111111111010101100111101
11111111101011001111001100010010
11111111110111011011100111010001
00000000000000110111011111001111
00000000000001010101010010100110
11111111111110001001100111001101
11111111110011100110101100000111
11111111111000110110101101110010
11111111111110000011000000110111
11111111111110100101110101100010
11111111111100000000101101000010
00000000000101110011110111100000
00000000000110001011011111100101
00000000000001001111010111001100
00000000000001011001010100101111
00000000001000000111010010000011
00000000000011111010000100000110
00000000000101010110111111011010
00000000000001110001000010100101
11111111111010111011110000101000
11111111111010011110011000011001
11111111111011101101111010111001
00000000001010010100000000111100
00000000001001110110000010000101
00000000000010011000110110111011
11111111111011110010000001101110
11111111110110100110101110001001
00000000010010110111010010011100
00000000000001010110011000110001
11111111110010001111100011100001
11111111110011011101001110010010
00000000000001000010001011101010
00000000000011000101010011111001
00000000000000001101100101111110
11111111111110110101011011110100
00000000000110010001100010100111
00000000001110001011000111001001
11111111110010010111111001011001
00000000001100000110011110101010
00000000000011001001110111110010
00000000000111010111101011010001
00000000010011010110000110000100
11111111110101000001011110011001
00000000000110010011101000001000
00000000001010011000111101010011
00000000001011101100010000101001
00000000000101101010000100111010
11111111110011111100001111010001
11111111111110011111011001010100
11111111111110110100010001011001
11111111111000100111101001100110
11111111110011111000001010100111
11111111110010010111001100001001
00000000000001101111100010011011
00000000000000100100010111100101
11111111111001000011011010010011
11111111111100001100011100111011
11111111111110110000101110101000
11111111110111100010011110001010
00000000000111001000001000000001
00000000000011011001111010001010
00000000000110100100001000101100
00000000000100010100010010001000
11111111111110001000000011110111
00000000000011001101010110011100
00000000001000011010000001100000
00000000001000101100010110110000
