11111111111100101100000000101000
00000000000000011111100001000001
00000000000000000101000110000101
11111111111101000001001100101111
11111111111100001001000001010010
11111111111101011101111001101111
00000000000010001100010110000001
11111111111111010010010101101100
11111111111111111110010010000111
11111111111100010111010000000001
11111111111100110111100000110101
11111111111101000101101110001010
11111111111100011111001111110010
11111111111111000110100100001010
00000000000001010010110000111000
00000000000000111000111011111101
11111111111100100101111110101000
00000000000001110000111100000011
00000000000010001011011011001011
11111111111111101001101001010110
11111111111111110110001000011111
11111111111110100011110001010110
11111111111111101010111010000110
11111111111111001011110010101011
11111111111101111101011011000111
11111111111101001010111101001010
11111111111100001011111011111111
11111111111101001011011111111001
11111111111111000001101100101010
11111111111110100011100100011000
11111111111110110110010000110111
00000000000011000010101010101100
00000000000001010001010010100001
00000000000000010011100011001101
11111111111101111100001100001110
11111111111101110100000110001100
11111111111111011100001111000000
11111111111111001011010000100100
00000000000001011010001000011101
00000000000000110001001000110110
00000000000000110110111000010111
11111111111101101101101001010101
00000000000000101100111010110101
11111111111100101000101111010011
00000000000000100000100000101001
11111111111111010011000010101001
00000000000011110111100101100111
00000000000011111011111100010110
11111111111101000110001100001000
00000000000001100011101011111000
00000000000010000001000011110111
11111111111101010000001001100010
11111111111110101010111100000010
11111111111110110111011011111100
11111111111101000001000010000111
11111111111110001111011001111011
00000000000010000011010111000110
00000000000000111001110010100101
11111111111100111111011010111011
00000000000000101101110100100100
11111111111111010100100000111011
11111111111110110111111101100111
00000000000000100101100000000101
11111111111101000001011100001001
00000000000000111100101011001011
00000000000000111001010101101101
00000000000001000101001000000100
00000000000000011100001001101001
11111111111101100111100001000000
11111111111101000100011001000011
11111111111110000110110010011100
00000000000000111010111010010101
00000000000010000110110011111011
11111111111110111010111001001000
11111111111110011100100001001110
11111111111110111101010101110101
00000000000010010001100011110111
11111111111110100010111101010100
00000000000001110100000000011110
11111111111101110001110111001110
00000000000000110001001011000100
00000000000000100110011101111011
00000000000001110001100001010010
11111111111111010111000111000011
11111111111100101000000000101100
11111111111110100111010111111101
00000000000000001100101011111101
00000000000001000000101000010001
00000000000000100110010110001110
11111111111111111001000011000010
11111111111111001001100011001110
11111111111101001111101010000101
00000000000010001001001110010000
00000000000000110110101101011010
11111111111111110110101100110011
11111111111110111001011001100101
00000000000010100011101000001011
11111111111111001110101110100110
11111111111101100000011100100011
11111111111101110110101111001001
11111111111110110000011111010110
11111111111111010110101010010010
11111111111101110100011011111101
11111111111111111000000111101111
11111111111110010111100110100001
11111111111101110110001100010110
11111111111111011110011011101111
11111111111100100110110101111010
11111111111100001111110000010010
11111111111100001111000001001010
00000000000001000110010010000111
11111111111111110110111101111111
11111111111100000110011100001001
11111111111111011111111110001010
00000000000000000100000110100000
11111111111101001100100100001111
11111111111101001111110011111000
11111111111101100001110010010101
00000000000001010000100011011001
11111111111101001100101101100000
11111111111111000011100101011100
11111111111101111000111100011111
00000000000010010011101001011010
11111111111110010010101100100111
11111111111100100010100100010000
11111111111101110111001000111010
00000000000010000010011101100010
11111111111110000001010111110011
11111111111110001111100110000010
11111111111101101000001101101010
00000000000001111000101100000101
11111111111110000001010111100110
11111111111110101011000111010100
00000000000000110111100011110000
11111111111011101011111100010010
11111111111111001110011001101101
11111111111101101011010000100111
00000000000001011110100110110110
11111111111110101001100011010110
11111111111110110001001010000001
00000000000000000001011011101110
11111111111110101001111001110001
11111111111111001110010100101111
11111111111101000110111101100010
11111111111101101100001100111011
00000000000000110001100110111111
11111111111111100101011110000011
11111111111111010101010111001000
00000000000011000010001011111111
00000000000001111100100111001000
11111111111111100111101101010010
11111111111101111101101111010110
00000000000000100001101000000111
11111111111110101010101000101010
11111111111110011001100101111111
00000000000001110000100101001011
11111111111110000000101000111001
00000000000010110111100111010101
11111111111110111110010100111101
11111111111110011000101110110011
00000000000010100111111000001100
00000000000000111101011101000110
11111111111110000010100101100100
11111111111111010100001110100100
11111111111110001110111110111110
11111111111110100000011000011000
00000000000000100001000101101101
00000000000011100010010001000110
00000000000001100100111000011101
11111111111100001101010010010011
11111111111101010010101101001000
00000000000000100100111011011111
11111111111100111110111101011010
11111111111110100110000101111001
11111111111101111111000111111101
11111111111110001111111011010010
00000000000000110001110011001110
00000000000000110000000100111110
11111111111110111001001000000001
00000000000000001110010001001010
11111111111111110001101001000011
11111111111111101101000100010010
00000000000000101001100001011111
11111111111110011011010110000010
11111111111111111110011000010101
00000000000001001011010011110011
00000000000010010000001011001110
11111111111110000100101001001111
11111111111111100000111110101011
11111111111101111011011011101111
11111111111111111000101111111011
00000000000011000100011111111000
11111111111100111000001110000100
00000000000010111011011101001101
11111111111111000110100101000000
11111111111101010000100010000111
11111111111101010100011001010100
00000000000000110100111010011111
00000000000000110111111011111100
11111111111100111010101001110010
11111111111110000100101110110101
11111111111101111001000001101010
11111111111101011011110100110110
00000000000001101001100101011011
00000000000000000001010111110000
00000000000000101110010000011010
00000000000001000110000011111001
11111111111111111001101111101101
00000000000000101101010000111101
00000000000001111101101101101001
00000000000001001001110000000010
11111111111110000110110000010110
11111111111111101110001101011111
11111111111101111101101010010000
00000000000001110000100110101110
11111111111101100011001100010001
11111111111110110111100110010101
00000000000000100110111100110101
11111111111100010111110000011001
11111111111110011111111101011100
00000000000010011001010100011001
11111111111110001011110101001111
11111111111111001011101011100110
11111111111111101010100010011111
00000000000000100001000100100001
11111111111111001110000110010100
00000000000000001111111001001010
11111111111111010101001111000111
00000000000011000001111001101100
11111111111101100000001010100111
11111111111101010101010001011000
11111111111110101110101001000011
11111111111111110110010111011010
11111111111100101110110001001100
11111111111110110110000100011101
11111111111110111111011000000110
00000000000010100001001001100111
11111111111111111100110100011011
11111111111101111001011011110111
11111111111101001110110000000110
00000000000010001110101111000000
11111111111111010101001011001000
11111111111110100101000100010101
11111111111101010101101101100000
00000000000001010010010111001100
11111111111111110100000001111000
00000000000010111000111101110101
11111111111101001100110010000111
11111111111101101100011010110001
00000000000010100101000111101001
11111111111101000010010011000000
00000000000000001101001011100010
11111111111101000111110110101010
11111111111110100110100101100100
11111111111111100001100100010101
11111111111101101111010110000001
11111111111101110001111010101001
11111111111100011010110100000110
11111111111101010100000100011111
11111111111100111010110111010010
11111111111111111001011110111011
11111111111110001100011000010000
11111111111110000101110100010110
00000000000000001010101010011100
00000000000000110111010110000001
11111111111100011011111110011100
00000000000000110110101100011000
11111111111111011010010001111010
00000000000010001110111011001011
00000000000010011010000010010101
11111111111110100000011100000111
11111111111111101010111011010101
11111111111111111101000110011110
11111111111111010011010010100101
11111111111100110001110110101101
11111111111111001111011110111111
11111111111110100010001010010101
00000000000001111010110101001011
00000000000000000101001111110011
00000000000000001111011011101010
00000000000000011110111001110111
11111111111100110000100010110100
11111111111101101000001111101101
11111111111101101010101100001100
11111111111101001000100101101011
11111111111100101011100100100000
00000000000001000001100000100110
11111111111110100000000100010110
11111111111101100111000100001000
11111111111100111101100101011101
00000000000000101101110011011111
11111111111110111101011111111011
00000000000001001111100010111101
00000000000001110011010011111111
00000000000000111100000110110110
00000000000001110111001001001010
11111111111100011110111001000011
00000000000000101011010000111101
11111111111110101110111100110110
00000000000000110110010111011100
11111111111111011111001110010011
11111111111101110111010111000110
11111111111101011101100101100000
00000000000000111010111101000111
11111111111111100001011110100000
00000000000001011100101100100111
00000000000001101100000111010101
00000000000001001101100001010000
11111111111101011011111001010011
00000000000001111011000110110001
00000000000000110000111111010001
00000000000000011001100010111010
11111111111110100001110000100011
11111111111110000111011101000111
11111111111111001001001011000001
11111111111110111101010101000010
11111111111111011001100111101000
00000000000000111100100100010111
11111111111101111110000101110110
11111111111110010000110011000100
11111111111100101000000100000010
11111111111110001010101111100001
11111111111110101100111100101110
11111111111101010001100111011011
11111111111110011110000000111010
00000000000000001110101001010010
11111111111101101111110000001000
00000000000010100100011111011001
11111111111111000110110011101100
11111111111110001001101101001010
11111111111110110110011011000110
11111111111100110001100111110011
11111111111110111000100101001010
11111111111101001110001110000101
11111111111110011101111011101001
11111111111100101010010111110000
00000000000001011010001101000101
11111111111111010000000101111000
00000000000001110101100011000001
00000000000000110110000001111110
00000000000010000011101001100011
00000000000001011101110001000000
11111111111111011001110101000100
11111111111100010110101111101001
11111111111111000100000000101101
00000000000001111011100111111000
00000000000000101000011110010101
00000000000010001000111101010001
00000000000001110001000000010011
11111111111111100001010011000100
11111111111110001011000000011001
11111111111110110100010100110111
11111111111101101001110111001111
00000000000001101010111110001111
00000000000000010110111011100000
11111111111101111111110111000111
11111111111101101100011101000000
11111111111101010110110011111000
11111111111111100010101111111110
00000000000010010001010011001000
11111111111101100110011010000110
00000000000001011111100111111001
11111111111111010000011011111010
11111111111111111000101101000011
11111111111110110101100111011100
11111111111100101100100110010111
11111111111101100010100111001100
00000000000010001011000001010001
11111111111111000011011111001111
00000000000000000100001100010101
00000000000011011000101001101010
00000000000000110010111001100110
11111111111110110110110101111110
00000000000011110100001110100000
11111111111101110110001111100011
00000000000000010100100010010010
00000000000000111100011111001110
11111111111111100110010010011000
11111111111100001010111101001110
00000000000010000101101001111011
11111111111110000110001001010001
00000000000010110000101110101101
11111111111110000011111000100111
00000000000000111110010000110110
00000000000011100110111000111011
11111111111100110000001111010101
11111111111111011001000010001100
00000000000011011110001101010111
11111111111101111110001100100110
11111111111100011011110111001011
11111111111101101100111111111101
11111111111111010011011101010011
11111111111100100111111101011101
11111111111101011110111110010100
00000000000001010000001000110110
11111111111110001011011011010100
11111111111111111111101011111010
11111111111110001010110011011101
11111111111100111011011000101001
11111111111111000110111111010000
