00000000001011011111111101101001
11111111111111010011001011110110
11111111111000011010110001101010
00000000000010000110101000011001
11111111111111101011100011111011
11111111111001011000010000110000
11111111111101000100011000110010
11111111111111000110101101000111
00000000000001101011011010100101
00000000000001111111100101010111
11111111111000010000101100011001
00000000000010011011110111010001
00000000000000111000000110000001
00000000001010000101111010100011
00000000001100101111001110110111
11111111111001001001100100011100
11111111111001010101010100010100
11111111111010110100000110010010
00000000000111101010111001111001
00000000001001101001111101010001
11111111111011100000000111111110
00000000000001000111101111011100
00000000000000100101000110011000
00000000000100110111100110101011
00000000000101001110100110001101
00000000000000100000110000000010
11111111111001110111010000010001
00000000000011010001011000111110
00000000000100110011011010001001
11111111111100010011010001111000
11111111111001111101000011110010
11111111111000100100111100001010
11111111111001110010001111101010
00000000000011100000101010001010
11111111111111001000111111111000
11111111110010101001001101101110
11111111110111011001001111001001
11111111110110011110000001000101
00000000000010101010011110100111
00000000000010101110011111010001
11111111110010000100100001011000
11111111111100100101111101101101
11111111110001101001111101101100
11111111111010101011000000001100
11111111111011010000000010101011
11111111110011011010001110111100
11111111111011011111011010010011
11111111111110000100100111110010
00000000000100111000110011000000
00000000000010011001011000110001
11111111111111010011010010111010
11111111111110111100100000000101
11111111111010000101010101110011
11111111111111010100001001000000
00000000000000110111111011010111
11111111111101111111011100101110
11111111111110011110101111011010
00000000000000111100100111100100
11111111111111011100011110011010
11111111111111100111000100010001
00000000000010000001111111001011
11111111111110110001101110000000
00000000000001111110011010000110
11111111111000111111000101111111
00000000000001001000100000101000
11111111111110101111101001011111
11111111111001110101001001101100
11111111111111010000010011100010
11111111111101111011011101100010
00000000000101100011011101010110
00000000000010111001110111001101
11111111111111100101001110101100
11111111111001001001101100100000
11111111110010110101110100001000
11111111101100110001111101001000
11111111111101000010111001111111
11111111111110101101000100010001
00000000000000110010110100011111
00000000000000101110111110111110
00000000001001110000000010011111
00000000000000010100110101000101
11111111110101011111000001101000
00000000000000101011001011000100
11111111111111111101111100110110
00000000000001001111011111101110
11111111111010110010110100011100
11111111111001101011110001100110
11111111111100110010001010011000
11111111111010000101000101111110
00000000000011010010110010010100
11111111111111100011100010110100
11111111111110010000100011100011
11111111111110000100100110010010
11111111111101111000101101101000
00000000000010101010110001101010
11111111111100001111110000001010
11111111111100011000000010110100
11111111111100111110011010100110
11111111111100001111010010010111
00000000000001000001010010000001
00000000001000000000001111010001
00000000000011110111000101010111
00000000000111001111010110001111
00000000000011101101101000100111
00000000000000010011101011101001
00000000010010010101010001010100
00000000001001000111011011000111
00000000000000000100110101011100
00000000000010111111100101111101
00000000000110111010000011010100
00000000000001001110000110100011
00000000000101010111010100011100
00000000000011110100111100001100
00000000000010000010000100100101
00000000000101010010111110000101
11111111111000010111010100011100
00000000000000010010001001111100
00000000000000001011011001100011
11111111111000101111001111000111
00000000000001001010001001011011
11111111101011101000110010010011
11111111101110010111011111110111
11111111110010010110110000111111
11111111110011100010110001001101
11111111111010111110000111110110
00000000000110001101011100101111
00000000000011101110101110000010
00000000000100110011101000111000
00000000000100011100100101000110
00000000000011100101111000000011
11111111111101101010011101011110
11111111111100010100110001010101
00000000000101001111100010100011
11111111111011101110100101111001
11111111111100010000001110110100
00000000000010110101000001000100
11111111111101111111110101001000
11111111111100001000000000101001
11111111111101000101001000111100
11111111111101110011001000101011
00000000000001100100000111101011
00000000000000001011011101100100
00000000000100001011000000111110
11111111111101010111101010011000
11111111111101111110110100111011
00000000001000101000001110111110
00000000000111001010000001001001
00000000000001010001001111000100
00000000000001001111110010010011
11111111111100100000001010111110
00000000010101000000001000011001
00000000001100011101111001101000
00000000001010011110011110111011
00000000000111100010100011001111
00000000000111100111110110010101
00000000001001010001010100100101
00000000001000100100101000110010
00000000000011001110011010011001
00000000001100100001011001001000
00000000001010010111110111101110
00000000000010011101011010001100
11111111111010010101010000110110
11111111111001010111100111101010
00000000000111001000011011010011
00000000000011111011000001011100
00000000000001101101110010100101
11111111111001100010001000101101
11111111111010111000100000000111
00000000001100111001100000110011
00000000000111111110110101011111
11111111111011101100011011000011
11111111111000000000110101111101
00000000000101010101000100111110
00000000000110101110010000001000
00000000001111100001000110100001
00000000011011111101111101000110
00000000001101010010010000011111
11111111111111111101011010001011
00000000000010111110101001011000
00000000000100111100101010111110
00000000001000110011111011000001
11111111111111100000001010011010
11111111111011010011010100110010
00000000010000100001000100001010
00000000000111000010111011000000
00000000001000010111011010111110
00000000000010100010010001010000
00000000000000001010011111110000
00000000000001011111110101000111
11111111111000110100000111000101
00000000000110101110110110101111
11111111111110000011101011001001
00000000000101101000001111111000
00000000000111010100110010000010
00000000000110111100001100001110
11111111111111001010101111011000
11111111110001111101111010011110
11111111110111011011001101001110
11111111111000000101100110010001
00000000000000110010110010111001
11111111110110101111100110110101
11111111111110111010101011011010
11111111111100100001100010000110
11111111111101100101000111101100
11111111111111010110110101010000
11111111110100000010011101001110
00000000000011010101101101100011
00000000000111101010110101011110
00000000001001100101111110100101
00000000000111101011100101010001
00000000001011000101000100001010
11111111111110010011110011111010
11111111111001010101101010110010
11111111111101100100101001100001
00000000000100001101100001101111
11111111111111110110100000001010
11111111111110110111011101110000
00000000000111001000011101101010
00000000000101110001101110101111
00000000001011100110100011101110
00000000000101100000111100101111
00000000001010001010000001110100
00000000000110110110011000100001
00000000000001000000010111000111
11111111111010100010001001010010
11111111111100101111111010000111
11111111111111010011101100111100
00000000000100010101110110100001
00000000000000001000111001101000
00000000000010100100100011000011
00000000000001000100101100001000
00000000000000110101100100000100
00000000000110000001010101101010
11111111111101111000101111110111
00000000000001101100100111101011
11111111111111010011111011110001
00000000000111010111000000110011
00000000000111110001001000111000
00000000000111110110111101100100
00000000000011110010000101010011
00000000000110101001110111001111
00000000000010010010000010011011
11111111111111000010011101111101
00000000000000010010111011110010
00000000000001110001011001101111
11111111111001011011011010100000
11111111101101011101000110110010
11111111101101100011101011010000
11111111110011100111100100100100
11111111110000101011100101001000
11111111111010110001010100111110
11111111110111110101101011100010
11111111110010111001010111010000
11111111111000100011100111100000
11111111111101000001101110010110
11111111111100101010001111001101
11111111111111110101110100110100
00000000000010011100001101000011
00000000001000010001110001010001
00000000000001000100011111110100
11111111110110100100001100001010
11111111101111101101110111001111
00000000000110100110000011010001
00000000001110010000111101100101
00000000000100010101111000101010
11111111111101110110010111110011
11111111111001110101011100101111
00000000000111101100011111111100
00000000001010011110111000100110
00000000000011000101000011100001
11111111110110100010011110110111
11111111111000110100100101011001
00000000000001010001110001010001
00000000001000000100110110010001
00000000001011001000000010000000
11111111110101011100000101111001
11111111111011001011101011111000
00000000000010001010011100111100
11111111111110010010001011001111
00000000000001101011000101001000
11111111111101110000011001010111
11111111111010110000000100100110
11111111111110110111100101010000
00000000000101100101011101001101
11111111111101110001111011100010
11111111110100000010100010011100
11111111110101001000110100001011
11111111111110100111111110101110
00000000001001111110000101010011
00000000000010010101010110100101
00000000000100010111010010011011
11111111111010000100011000011100
11111111110110001110010010011010
11111111111111010100101111001101
00000000000100010110100101100111
11111111110111110000101001100111
00000000000100001101111100111011
00000000000100010000110110000011
00000000000101000011110011100100
00000000000010000000110000001100
11111111110111100000110110001010
11111111110010001000110101000001
11111111110100101101101110111101
11111111111001111100101010001001
11111111111110010000101101110101
11111111111001111101011100100000
00000000000101110100011100011110
00000000001001110101010100101011
00000000000111111000101011100001
11111111111000000110100110000011
11111111111011111100001011101101
00000000001100111110100100011001
00000000000000010100100010010111
00000000000000110110101001101001
11111111111101001010010101001101
00000000000110011001011000101010
00000000000011100000010011110101
00000000000001100010111001010010
00000000000010110101011111011001
00000000000011011111001110001010
00000000001110000001101110110110
00000000001101110111101110110000
00000000001010111110110011010101
00000000000100101110101110011011
00000000000100010100111010111110
00000000000001001011011100111001
00000000000100011000110110101110
00000000010000001010110011010100
00000000001101000011010100001001
11111111111111010101000000011011
11111111111110111010111100011110
00000000000100111001001110001000
00000000001110001001010101101010
00000000010000000110111100011001
11111111110100011111011011010100
11111111111011011110000000111000
11111111110111110000110111010011
11111111111100000000001011011001
00000000001010101111011010011100
11111111111101110000110111111111
00000000000010000011000101110011
11111111111111110001011011010100
00000000001100000000010110100110
11111111111111101111111001010001
00000000000001011001111111101101
11111111111011100110110100010000
00000000001001111010000100101011
00000000001100010011100011100010
00000000000001010001001111011100
11111111110011110011001101111010
00000000001001111000101011010011
00000000001010110011101000101111
00000000000110110001001011110011
00000000000100001100101101010011
00000000000011111100000110000111
00000000011000100100101001001101
00000000010010001001111100001001
00000000001011011010000000110100
00000000001011101010110000010110
00000000000101001010000010110100
00000000011001000110100010000110
00000000000111111110000110110000
00000000000011010111010010111100
00000000000011011100001111101111
00000000000110000001000100100100
11111111111100001101001001010010
11111111110100011101100111001110
11111111111011011011110011010111
11111111110111101000010001101000
11111111111101100101110011011000
00000000001011000111010001010101
11111111110101011010010110110111
11111111110010101011100010011011
11111111111010110111100100111010
00000000000000011111101100010110
00000000000100100010011110110010
00000000000110001001100001011010
00000000000111110111011011101100
00000000001001110110000001111010
00000000000110000001011101010011
00000000000011000010111010110100
11111111111011101011110000100101
00000000000011001111110100010101
00000000000011011100011111100001
11111111111101111111101000101011
11111111110110000010111001100110
11111111101111010010011101011111
11111111111011000111110011000110
00000000000011100111100110101101
11111111111110001101000101001000
11111111110111100100110001100101
00000000000001111000111101111111
00000000000100111111111011001110
11111111111111110101011100001111
11111111111111001011111101110000
11111111110100110111100100011001
11111111110111010111010111101111
11111111111000000000110010101100
00000000000011100111110111010100
00000000000010010010001001000100
