00000000000000101001110111100010
11111111111101010110111011010001
00000000000001011010001001101100
11111111111111101011000011010100
11111111111111000011011111010110
11111111111110011001010000111110
11111111111100111011001001000101
11111111111111111001001001011000
11111111111100101111111100110010
00000000000010001011010101001100
00000000000000001111010000100010
11111111111100110000011111010000
11111111111101100010010011101000
11111111111101000010011010010011
00000000000000001111111011101101
00000000000001110100000010010001
11111111111110010110001011000001
11111111111110111111100011000001
11111111111111001010100000001000
11111111111101010110100110110111
11111111111101010111001100101011
11111111111011111010011011101110
11111111111111000100011101100111
11111111111011101010101111010110
00000000000000111000010011010000
11111111111011111000100100000111
11111111111111110011111001001101
11111111111111111111001011101110
11111111111101001100010010101001
11111111111110011100100100111110
00000000000001001100110101101010
11111111111101101101101010111001
00000000000000001101001111000010
11111111111111111001011100001100
00000000000000101000011001101100
00000000000001111010010001000000
11111111111101111000010111010001
11111111111111000010100000100000
00000000000010000011111111011010
00000000000001010001111111001000
00000000000010000111101011111011
11111111111111000001100010001101
11111111111010011111010010111101
11111111111011010110011010001110
11111111111110100000101010000111
00000000000000001010001000101010
11111111111011111000110010100110
11111111111101001111010100000110
11111111111111011101110011111000
11111111111111101100100001110111
00000000000001010100100001010111
00000000000001001011110111001010
11111111111011100000011011010110
11111111111110100110011100101100
11111111111111011000101010001111
00000000000000100101000101100111
11111111111101001110001001110111
11111111111011101010100111101001
11111111111110011000100001101101
11111111111100000001001101010010
00000000000000101100011100010100
11111111111010111111010010110001
00000000000001011110011001001000
11111111111010101100001011111011
11111111111110110111100101101100
00000000000000110100001101110010
11111111111101000111110111001101
00000000000000110000011110010101
00000000000000000011011001110010
11111111111100010100010101000101
11111111111101001001101001101000
11111111111110001101000110000111
00000000000000111111111000101101
11111111111101110111101011011100
11111111111011011011111000011010
11111111111110011000101000101110
11111111111100100110011110001101
00000000000001010001110100001111
11111111111011100010001001110010
11111111111111101100111111100001
00000000000000000010100011110010
11111111111011000010010100101101
00000000000000000011101010001111
11111111111100010100010100000101
11111111111110110001111111101010
11111111111111010011011111111110
11111111111111110000110001111110
11111111111111110100100101010010
11111111111101111101001001110111
00000000000000110101111110001111
00000000000001000010000011101100
11111111111110110110001101000100
11111111111010111100101101001010
11111111111100111011100100010001
00000000000000100000011110100010
11111111111110111100001001010111
00000000000001010010101010101111
11111111111101101001110100001100
11111111111110011100110100011000
00000000000001010101010000101000
11111111111111100001001010010110
11111111111100110000010001110100
11111111111101001011001010110100
11111111111111011111001001000011
11111111111010010111100001001111
11111111111111111000111010100101
11111111111011000110110111001110
11111111111101010100100111011001
11111111111110100000110101010101
11111111111011011100101011011110
00000000000100100001101101100111
00000000000000000011010110011010
00000000000000001000001101110011
00000000000000101011000001000011
00000000000001101010110111101001
00000000000101110111100100001111
00000000000000000010011100010011
11111111111011100001000001101010
00000000000000101110111011101000
11111111111111100110100000010100
11111111111111101011100010110110
11111111111110010111000010101111
00000000000001011001001101000000
11111111111110101011010000000100
11111111111111101001111100100101
11111111111110101011101001110001
00000000000010000110010100100011
00000000000000100101001101001110
00000000000000111100100110110111
00000000000000010001010111000111
00000000000000101001001010100000
11111111111101101100010001000000
11111111111010010110110110100111
11111111111101000101101100100011
11111111111110000011100001011001
11111111111110111011001110110011
11111111111110111100001010110010
11111111111100010100001010100100
11111111111100111111010110100100
11111111111111100110110111110011
11111111111101111101101100010100
11111111111100010111110100001111
11111111111100110001011000010000
11111111111111001011010100101011
11111111111111111001010100100000
00000000000001000000000011100101
00000000000000101010001100010000
11111111111100010001111111100001
00000000000000001100101101010001
00000000000001011101111110100011
00000000000001110110001001001110
00000000000001001101000101110011
11111111111110101001000000001100
11111111111110011110111101101111
11111111111111111101110111001001
11111111111100010101000111110010
11111111111100111111000000100000
11111111111101010010101110010001
11111111111100011100111001100010
00000000000011111011111000100000
11111111111011100101110011100111
00000000000000100111110110011110
00000000000001111101100110000101
11111111111100101111110001010010
00000000000001101011111000010010
00000000000000110111101000001100
00000000000001000011101100101011
11111111111111110100110011010000
00000000000000000100111110001101
00000000000000001010011101111001
11111111111110011111101101100000
00000000000010101101011000011000
11111111111110000110100100010101
00000000000001001011000100000101
11111111111100101001100101010100
11111111111111100101010010001111
00000000000001010000001110011010
11111111111011110010101000100011
11111111111111100110110110101010
11111111111011110010011101000110
00000000000010110101101010010101
11111111111101010010100100111010
11111111111111111101111100011000
11111111111100001011000100001000
00000000000010100010010111011000
11111111111101011000001111111001
00000000000011010111010110111010
00000000000001001101001001010110
11111111111100010011011011101101
11111111111110100010111011010101
11111111111110111110010010100111
11111111111101100000101101101011
11111111111111111111111110010011
11111111111101010101110111101110
00000000000000100100100111000001
00000000000000011110000000000000
00000000000000110101101101011100
11111111111101010111011101000100
00000000000001110101001000100111
11111111111111101100111110010100
11111111111111001000000000101010
00000000000001000001001000101011
11111111111111000010100011101100
11111111111111111001111000110001
00000000000001111110010010110110
00000000000000001110101011011010
00000000000001001000010010011100
11111111111100000110010010000001
11111111111101110100110011010001
00000000000001001010100000111010
00000000000001100010101000100010
00000000000010100000110100101110
11111111111111010100100001001000
11111111111101100010100111000100
00000000000001001100000000001111
00000000000000001011010100110101
11111111111101101011010101101100
11111111111100100101000000101111
00000000000000011001101101001110
11111111111101111111111100101010
00000000000000010000000101111111
11111111111110000101000110101111
11111111111110011101111111110111
11111111111110101011100001110000
00000000000000001001011010110000
11111111111111000001000110111000
11111111111111111000111100000101
11111111111110111001010000001101
11111111111111001001101100111111
11111111111100010111011111001101
11111111111101000001001110111101
11111111111111100001011001101101
11111111111011100001110110100001
00000000000000010101101111111111
11111111111101000100000001100010
11111111111110010101110110111010
11111111111100011101110101001110
11111111111111000111101000000110
00000000000000000111000001110111
00000000000000100100101110110011
11111111111111110101011000011101
11111111111110010001000000111100
11111111111101001101011001110111
11111111111111101111011101101000
11111111111111000011101100101101
11111111111111110011100001011110
00000000000001001000100010100110
11111111111110010101101111100000
11111111111110111010011110111001
11111111111101110110000000101001
11111111111111011000010010110101
11111111111100110111100100111001
00000000000000011100011000010001
11111111111011110001011001110000
00000000000001000101001100111110
00000000000000111101101110110001
11111111111100101010110100100100
11111111111100010101011001101010
00000000000010010100000001100110
00000000000000101010011100000000
00000000000000010111110100111011
00000000000000111101110000001001
11111111111011111110110111011000
00000000000001010101000001011010
11111111111101100110110110001000
11111111111101001101001010101010
11111111111100011111001001110000
11111111111101001001010110110101
11111111111111001000101010000011
00000000000000110111111001000111
11111111111101000111011010111001
00000000000000010001000011010100
11111111111110101001101000111001
11111111111100000011001000010001
11111111111100100110100110111011
00000000000010001100011010001110
11111111111111101011000000000001
11111111111111010010100101000001
11111111111111010011101110010010
00000000000001100010000000101110
11111111111110101101100000101111
00000000000000001010101010001111
00000000000010000011001111001111
11111111111101000110001100101011
11111111111100111100010001001101
11111111111100001011110101010010
11111111111110010100001111001100
11111111111110111001000111001010
11111111111111011111001101100001
11111111111111110000100001010000
11111111111100010110011111101001
11111111111011000111001110110000
11111111111101001111101101000110
11111111111110100001001110000100
11111111111110000110011000110010
11111111111110101010111111010001
00000000000001010000000100011000
11111111111111110011101100001001
11111111111101110111111111011110
11111111111111001001011001100110
11111111111100011011100110001110
11111111111101111100000100000100
00000000000000100000100011010100
11111111111110100111010110001000
11111111111101001111100000111101
00000000000001101001100000101011
11111111111110011100010110011011
11111111111100000010100011101111
11111111111111011010100110011011
11111111111110111100010010010101
11111111111101110100111110000101
00000000000000001001000011110010
00000000000000000001100011001110
11111111111111110011110000110011
11111111111100001111011010101100
11111111111101101100100001110001
11111111111111001000001100011111
11111111111101100110110100010000
00000000000000011110011001110000
00000000000001010011010110110000
11111111111111001100010110101000
00000000000000111111100110110100
00000000000000010111111011101101
11111111111111110010100001111001
11111111111110001110101101000010
11111111111110000011110110101110
00000000000000110011011111110100
11111111111101100110001101010010
11111111111101001011100010101100
11111111111101100011000110001111
11111111111011110110001011111110
11111111111100110000000101000010
11111111111101011101001001100011
11111111111111000001111110010100
11111111111101110000010111001100
11111111111111100101001100111011
11111111111111000000111110110000
11111111111101011001101111010110
11111111111110110000100011011000
11111111111100010011000011000010
11111111111111001111010100001000
00000000000010101000000011101100
11111111111101101001010000001101
11111111111111010110001100001100
11111111111110101001100001001010
00000000000000011011010101111111
11111111111011110011001001110111
11111111111111100100100001111101
11111111111110001010000000100111
00000000000000000010010111000011
00000000000001010001110110000011
00000000000000010110011010100100
11111111111011010110100110100110
00000000000000011101010000111110
11111111111110000111000001101001
00000000000011001101111100001100
11111111111110000101000100101101
00000000000001111101100110001101
11111111111101100101100011010000
11111111111101000011100111010000
00000000000001011011101100111010
11111111111101110100000111001011
00000000000000100010111011001110
11111111111111111010101100100101
00000000000010001001011011101110
11111111111100100100000100011101
11111111111011100010010000101000
00000000000000111001001100100001
00000000000001001100011001101111
00000000000000001001101110101101
00000000000010000001101010010011
00000000000100110111010011110101
00000000000000000010011000111111
11111111111101000010011010110101
11111111111101110111111111100010
11111111111111011000011111110111
11111111111100010111011011100000
11111111111100001001110101001011
11111111111011111100000111010101
00000000000000100001001000101001
11111111111111101001100101101001
11111111111101101101001100110000
11111111111110110101000100101111
00000000000000111111001000101101
11111111111101010101101110110011
00000000000010000111001100100101
00000000000001100001001100001001
11111111111011001000011001110010
00000000000001001011101010110000
11111111111101110111110100011011
11111111111101111000111101000001
00000000000001101000101011001011
00000000000001011000011111000010
11111111111101011111010110010100
11111111111110011010111111111011
11111111111101101011001100001011
11111111111100100111011000010001
11111111111110101101010010101101
00000000000000000110000110000000
11111111111101011001101011001100
