00000000000011100001000111101100
11111111111111010101101010110011
11111111111111010110111111101101
00000000000000110110010101111001
11111111111111100110010000111001
11111111111110110111110000011111
11111111111000000110111110010110
11111111110100001010000000100011
00000000000100011111010100001001
00000000001011101111011110010110
00000000000101001111000101010010
11111111111001010010011011000011
00000000000000000100001101111110
00000000001000101000010001101111
00000000000110011011111010001010
11111111111101101011100111100101
11111111111110110100100010100001
00000000000100010110100011011100
00000000000011100101001110101100
00000000001010000110110011111000
11111111111100111001011010010111
00000000000011010010011110111110
00000000000010110000110000100001
11111111111111111011010011010011
00000000000111000011100100100100
00000000010000111000101100010001
00000000000101110001001010101001
00000000001000011011010101001000
00000000000010001111101011110110
11111111111111110011011001001110
00000000000010001001110101001110
11111111111000110011111100000101
11111111111001011001110100010100
11111111111101011001111101010000
11111111111101010100111010000100
00000000000001101000111011101101
11111111110110100010000000001110
11111111111010101110110011011000
00000000000001000000010110011010
11111111111101010101111111111110
00000000000100110011011111100000
00000000000011010100111111010100
00000000000101000010110011100001
00000000000001110110100100110111
11111111111100011101011100010101
11111111111011110111101001101111
00000000000110001011001001110111
00000000000001000100001010010011
11111111111011101110010011001001
00000000000111101001000001110010
11111111110111110110000001111010
11111111110111100111111110000011
11111111111110111000011010110111
11111111111011001101100011110010
00000000000001110010000010111001
11111111111010101000101001000000
11111111111000001001101101000000
00000000000101010100111010100100
00000000001010100000001101011111
00000000001001001011111101001110
11111111111001100100010100110001
00000000000001011000000011011001
00000000001010111110110110000110
00000000000000000011101111111100
00000000000001100011101000011010
11111111111011100110101000110000
00000000000110001011101110100100
00000000000010100110001110001001
00000000001000101101111010110001
00000000001001101000001011111100
11111111111011011100100110110100
00000000000100001001000001000101
00000000000111111101110111111011
00000000000111001001000010111001
11111111111011111111101001010100
00000000000011000000111111011100
11111111111111010110111000110100
00000000000000011001001110100011
11111111110110010001111110001111
11111111101011101001100111000010
11111111110011111110011000101100
11111111111100100011101110000100
00000000000000010111001011111010
11111111111000100101111110101100
11111111111111110101000001101000
11111111111100011011000111001010
00000000000000110110110001100010
00000000000010110010110110101110
00000000000100110001100111111110
00000000001010101010101000100111
11111111111101001011111000101001
11111111111010111000010100010100
00000000000100101001110110000100
11111111110111001001001111101111
11111111110001100110100111110000
11111111111100111110111011010011
00000000000000011010011000000111
11111111111100010100101000111011
00000000000111101011100101100111
00000000001001101000111101000011
00000000000001010111010101101011
11111111111000100000110001011101
11111111110011010001000111010000
11111111110001001010110001110101
11111111101100011010010111000011
11111111111010011101100110100101
00000000000011110111000101000110
00000000000011100100101000111100
00000000000111011101111101101010
00000000001001111110010100000110
11111111110000001100010011011000
11111111110011010110010011011010
11111111111101011100110100101101
00000000001010001000010011101110
00000000001001111011001111110111
11111111111010010011000110110011
11111111111011110110101111001111
11111111111110111100101001010101
00000000000000111100110000101000
00000000000001101001111111100101
11111111111011001110100111010111
00000000000001011010110111101011
11111111111110001101111011001110
11111111111110110010110100101110
00000000000100001001000001000111
00000000010101011001110101101011
00000000000100101010011010001111
11111111111010000000011001111011
11111111101010110001000111010100
11111111101111000111010010100111
00000000000110101010000011001011
00000000000001111000011110101001
11111111101111001001011001011010
11111111101100110010011000010110
11111111110100001001101001011010
00000000000000100110001001111100
00000000000001000111001110101011
11111111111011010001011010110001
00000000000000011001000010111001
11111111111010110011101011110101
11111111111000010100010110101111
00000000000000000100010010110101
00000000000100111101111010011011
00000000000011000000001111101001
11111111111010010011100111101100
11111111110111111001100010111111
11111111111111000000101111100001
11111111111111101111001101010111
00000000000111010011011010011110
11111111111100111000100110111000
00000000010011110110010111100000
00000000010110011010110001100101
11111111111100001100110111101001
00000000001000111110001101110101
00000000001010110000111001001110
00000000001001110001011010110101
11111111111010101101110000000000
11111111111010000110011101000110
00000000000001000111010111100101
11111111111010111110000110110001
11111111111010111000101010111110
11111111110000101110111000011001
11111111110100001001001000011010
00000000000101101011111111011111
11111111111011111001110111110001
11111111110001011101001011001101
00000000000000101110001001011100
00000000000001101001010111000110
00000000000000101111111010001001
11111111111000101111001111000110
00000000000010101101101011111100
00000000001010000101110010011001
00000000001011100001011100110011
00000000000000010111010010010101
00000000000011100100111000100011
00000000001010111111101101010001
11111111111111101000110101010101
11111111111101011001111000001011
00000000000110111010000010000111
11111111111011110101000110111001
00000000010010101101011011010001
11111111111111110001111010000111
11111111111010011111000000111001
00000000000101100101101011001110
11111111111011101110101111110001
00000000000011110110111000010100
11111111111101101001011111011111
00000000001100110001000000010101
00000000000100010110000101100100
11111111111001011000010101111110
11111111110110111001000000111001
00000000001001110100000010001100
11111111111110111000110000100101
11111111110111011110000110000011
00000000000100111110011011111000
11111111111100011011100011010101
00000000000110110101010110011000
00000000010000111101110010101111
00000000001110111010111000001001
00000000010011110100001111110000
00000000001110011111000010111101
00000000000100100100100000001110
00000000001101110100000000001000
00000000000111011101011010001010
00000000000110011110011011001111
00000000010110100101100100001111
11111111110111111111011100000000
00000000000001111001001110100111
00000000000010100100001001000100
11111111111110110101001101110011
00000000000011101010011000011110
11111111110110011011110111000100
00000000000111111000110111000111
11111111111010010111011010110011
11111111111010101100001000011010
11111111110111010001010111011111
00000000000100110000100101100101
00000000000011010010010010101110
00000000000001010101000011111010
00000000010000110100100000110100
11111111110101100111101110101010
00000000000010111101100111111001
00000000000110001011001101010101
00000000001010110011001000111010
11111111111011011110100101001110
11111111110111000100011100100101
11111111111000111011101001010110
11111111111001011100000110000101
11111111110010111111001000000010
11111111110101000110011000001110
11111111111111110010010110000011
11111111111110000101101101000111
00000000001000011101110111101110
00000000001101111110000001011011
00000000010001001010010101000111
11111111101111010101100110011111
11111111111101001000010001010001
00000000000101001110100010110101
00000000000101100100101111001011
00000000000111011110001000011101
11111111111111100111001111011011
11111111111100110000001010111101
11111111111110011011000000010110
00000000000100110001001100011100
00000000000010111000001000011010
00000000000011000011101001000011
00000000000100010001000111111001
00000000001001011100110011011010
11111111111111001100001100110010
11111111111000100100100001100010
00000000000010100110010000100110
00000000000101100010111010010100
00000000001001100010110100111100
11111111111111010011110100101010
11111111111001010010001111100001
00000000000010010100010100101110
11111111110100000111100100101011
00000000000010011101000100010110
11111111111010011000010001001100
00000000000010000100011111000110
11111111111111010010000010001010
11111111111010010000001010011010
00000000001001111000100000010010
11111111111101010010011001001101
00000000000111100010011000011111
11111111111101111010011001110010
11111111111110111011011101011000
00000000000000111000011101011011
00000000000011000000100100001101
00000000001000010101011100011111
11111111111101000111001010111000
00000000000000011111110010100010
00000000000101111101100000010110
00000000000101110110000001011101
00000000001011111011100111101001
00000000010011001100101011100011
11111111111110110011010100111100
00000000000111111101111011101001
11111111111100110001110001111000
11111111111110110000111010110100
00000000000001001000000000101000
11111111111011011011011011000010
00000000000011000110110010101000
11111111110110101111010001011100
11111111111111111000111111110100
11111111111101001011110001000000
11111111111000000011000110100011
00000000000001110110000100110101
00000000000001100100111101000110
00000000000100000010000011011100
00000000000101000011110000011110
11111111111011101101100011010111
00000000000001101010001110111001
11111111111101100111001011000100
11111111111111111011111000000111
00000000000111011010011000101000
00000000000011010010000010111010
11111111111110111111011111100010
00000000000001000101100101100000
11111111111110101011011010000101
11111111111100111111010100101110
11111111110011100100000010101110
00000000000011110011110001101000
00000000000100000011000100100110
11111111110100001110011000110000
11111111111010101110000001011100
00000000001000100100100110010110
11111111111111111110000110101001
11111111111011010010111111110001
11111111110101011001111111101111
00000000000000111101000001100100
00000000001100010110000010011000
11111111111110111111001101111001
00000000000111001110011100000001
11111111111111011010111101000011
00000000000010001110001000111000
11111111111100101100101111101110
00000000000110001111001010100101
00000000000100000010001110010111
11111111111101000110100100110111
11111111111010010111100010111000
00000000000001001001111110000011
11111111111110001011111100000010
00000000000000001010011000001100
00000000001000100010011111000101
00000000000111111001110100101111
11111111111110111010010101001111
00000000000111000101111010000110
11111111110110110001101100111010
11111111110001110000111100010100
11111111111001101101001000001000
11111111111101101101110110001111
11111111111111010101011001010110
11111111101100111010111101010111
11111111101000101011100011001011
11111111110111110000001010110010
11111111111111110100111101111100
00000000000001101111000100011001
11111111111111011000000001011101
11111111110010011000010101111000
11111111111100000010101011010010
00000000000101011110110011001000
00000000001001110010100110100011
11111111101111011110100010001010
11111111110111000101011000110110
00000000000111110000000001111100
00000000000111110011111010111001
00000000001000110010110111001001
00000000001010010110011001110110
11111111110100111011101000110111
00000000000111001010000110000110
00000000000111011100111100010110
11111111111101111100101001100001
11111111111010111010010001110011
11111111110100100100111011001010
00000000010001111000100001110111
00000000000101010100100011111101
00000000000100011100100101111011
00000000001010001010100100111100
00000000000101000001001000010101
00000000000011110111111000100010
11111111110111011001011001010100
11111111110111010110111011001111
11111111111100010111101110010100
11111111111100100001110100011110
11111111110100101100010001001010
11111111111010100001010010001100
11111111111100001010000101011110
11111111110110001000010111111110
11111111111000001101000110111111
11111111110110100110101000100111
00000000000100111000110100100100
11111111111101101100110000001011
11111111111001111011001010000001
11111111111000111111000010010111
00000000001011001100101000100001
00000000000101011010010010110100
00000000000001100000010001000100
11111111101110101110000000001001
11111111101010100101010011100100
11111111111101000100111000000011
00000000000000001000100111101010
11111111111011100100100001000010
11111111110110101001001001111110
11111111110000100110110001101011
11111111110111000011100000111000
11111111111111101000101100101000
00000000000110001110011011100110
11111111111011010011110001101101
00000000000100010000101000110111
11111111111101100101011001100010
00000000000000011001000011101000
00000000000101011111011011101101
11111111111100110100000000001011
00000000000011110000010010010101
00000000000000111011010011110101
00000000000000010101000110000111
00000000000001110010111001111111
00000000000110101101111010100001
00000000001001100011000001010101
