11111111111001010010011100111110
11111111111010100101110010100010
00000000000011111111010011011111
00000000000111000011011101100011
00000000000111010111001001111101
00000000000110101111000110101101
11111111111110001101110001000010
11111111111110001101110111101010
11111111111111010010000011011111
11111111111111000111111110001001
00000000001001001011110000000101
00000000000101100101111100101100
00000000000100101000100010001010
11111111111010101000111010100000
11111111111111001000001111000101
11111111111111101100010000111101
11111111111110110000011111001101
00000000000000000101110010100100
11111111110111110000100001001110
11111111111001001001010010001011
00000000000010111011101011100000
11111111111100110001010000111000
11111111111110111110000010101001
11111111111000100111100000111001
11111111110110100011111000100111
00000000000000000100010110100110
11111111111101100100000100010010
11111111111100100110101100000111
00000000000000111101000100100000
00000000000110011011011001111011
00000000000010101011001011111100
00000000000001010010100101001011
00000000000001011010100000111101
00000000000100111011011010111111
00000000000110001111011110110111
00000000010010100110001100011111
00000000001110000001001000000111
00000000001101000110010001101000
00000000000101011011111110100100
00000000001001010100001111111011
00000000001011110001010000000010
00000000000011001111010111100001
00000000000110001010000101110110
00000000000011001111101010110010
00000000000110111110100110001110
00000000001000000011101010101001
00000000000001101000001101101110
11111111111100011000011111111110
11111111111000001111011001010110
11111111111011110110000110011111
11111111111110100110101111110001
11111111111011001111011111010101
00000000000000010010001000011101
00000000000010011010010110110010
00000000000101100100101010100100
00000000000011010111010000010110
11111111111110011000100010111110
11111111111101110001000110011011
00000000000010010011000110010111
00000000000111001100100001011010
00000000000001110110000010001100
00000000000001000010111000000001
11111111111110010100000001001001
00000000000111001111101110110100
00000000000100101100101000111001
11111111111111001110100111010111
00000000000001101000001101011100
00000000000011101101100000010110
00000000000101110110111101111110
11111111111010001111110011101111
11111111111100101110010000101000
00000000000001100111010010000001
00000000001101000011110010110100
00000000001001110110111000010000
00000000001111010010110100011100
00000000000011101011111110000001
00000000000011100101000110011111
11111111111111110010101000100001
00000000000000010101110000001101
11111111111011110110001000001101
00000000000001001111111000101010
00000000001000111001000010111010
11111111111100001100000101000101
00000000000010100000001101111110
00000000000110010010000011110111
00000000001101101110101111010110
00000000001011101100110001011010
00000000000100101010100001111001
00000000001000000101111100101001
00000000000101010010101011010000
00000000000011100010101010110100
00000000001000111100001100001010
00000000000100100010000111001100
00000000001010010000110110010100
11111111111011000101000101011011
00000000000001011111101000000010
00000000000110000000000111110001
11111111111110101010111011001000
11111111111011110100000111010011
11111111111001010000110110101110
11111111111100110011011110001110
11111111111010111100110000101010
11111111111010000111010011001110
00000000000001001000101011111110
00000000000010101011110000011101
11111111110100100111011011000000
11111111110111111101011001100010
11111111111010000011001111100101
11111111111101110100011000111111
00000000000010000101111001001111
00000000000111101111111110101111
00000000000001000110001100101000
00000000001001100101100001110000
00000000000100100011100010111010
00000000000011001000100010010001
00000000000100001000100110101111
00000000000101100101001001000010
00000000000110010011001111001100
00000000001001101101100001100101
00000000000000110110000011010100
00000000010000110010000001010100
00000000001001111001010011010010
11111111111111110000101000000100
11111111111001101110011100100100
11111111110001111001111110011010
00000000000010001011000110111000
00000000000110011101111010110101
00000000000000000100110010110101
11111111111100101101100001101110
00000000000000101101001110010101
00000000000010110011110011011010
00000000000010111111011110000010
11111111111111010100100001101010
00000000000000100110011110111011
00000000000101111100111110010010
11111111111111000111011000111101
00000000000010000000110100010011
00000000000011010010000001100010
00000000000101000100000011110000
00000000001000011001100010010001
11111111111111101111000011000100
11111111111110110100010101011101
00000000000100001001000000100111
00000000000110000000101110011111
00000000000101101011100001000001
00000000000011000111000011001111
11111111111001001000010101111111
00000000000100001001110111100010
00000000000000001011111101111100
11111111110010101010110001001011
11111111111101010011111101000100
00000000000000011111010110110001
11111111111110000110111000000111
11111111111000011111010101001101
00000000000100100000101110011000
11111111110010000001110001000110
11111111110011001010100001111011
11111111110101100000100101110011
11111111111001001011110011101011
00000000000001101000001010110101
11111111111000001010011000011110
00000000000010110100001011010000
11111111111111001101010100000100
11111111111011101011000101100100
00000000000010101010010100000001
00000000001011011001010000001111
00000000001011000101001111011111
00000000000110001111010100101100
11111111111001110110011010011010
11111111110010101100101110011010
00000000001010000101110111001110
11111111111101101110001010011100
11111111111011111110101110001010
11111111111110000000101111001101
11111111110111001010101110010001
11111111110011110101110100101001
11111111110100101100010000000000
11111111111101011010000001100010
11111111110101110001010000100000
00000000000100110110010110101000
11111111110000111110010010011000
11111111111011100011110110101110
00000000000000000100101111001011
11111111101110011011101011110100
00000000000011001010010010001010
11111111111000001110100011000001
11111111110111010101010011101011
11111111111100110001011010001011
11111111111001101000101111111110
00000000001010010011011110011000
00000000000000000001111100010000
11111111111100101110101010100010
11111111111011101111011010110010
11111111111101100001100101011101
11111111110100000011100111110001
11111111111100010100110000100101
00000000000110000010011000000111
00000000001100001000010001100011
00000000000101000011100101011100
11111111111010100001100100111011
11111111111101101010000011101100
11111111110111100001000101000110
11111111111000011011001000000010
00000000001100101100101010111111
00000000000011111111000000010110
00000000000011101000110010001000
11111111111100110101111111010111
11111111111010011110010111000111
00000000000001100000111000111001
11111111111010111100010110100010
11111111110101000000001010111011
11111111111110011010010111010001
11111111111111111001001111101101
00000000000011110100010001100001
11111111111111000000011010010011
11111111110101011110100111000111
11111111111000011100100000001011
11111111110111011111011001111111
11111111111100110001110111110011
11111111110011101011100101001011
11111111111011011100111100111100
11111111110110001001110111011000
00000000000101101111111110000101
00000000000100010010111101101101
00000000000101011101000010011011
00000000000000100010000000110111
11111111111100111110000100101010
11111111111111100100001011010100
11111111111110110010011101110110
00000000000001001000111110110110
00000000000110011000110011110000
00000000000100011010101010011001
11111111111101111110111111100110
00000000000010101100000101110001
00000000000110110011111001111100
00000000001000111010110111101001
00000000000101010110100111001001
11111111111111001001110101101101
00000000000001110011011101110011
00000000000011011011000011011110
11111111111110101011101001010000
11111111111100011110001000101111
11111111111111101001100010101101
00000000000010110011011111100010
11111111111010101111000110101010
00000000000100010000000101101000
00000000001010011110001110101010
00000000001100011100101110010110
00000000000101100111001111000100
00000000000001011111000001011001
00000000001001001110010001100111
00000000000000100100100110101111
00000000000101111101001101010010
00000000001111000010100010000000
00000000000001100001001100010100
00000000000010100100111101001000
11111111111001000000100011001001
11111111111000110110111110111001
00000000000010110010000110000001
00000000000100001001001100000111
00000000001000010111010110001101
00000000000011101010111110111100
11111111111111011101001011010100
00000000000100010001010111001111
11111111111110100001010100101001
00000000000011111000111011110100
11111111111111011111001010110110
11111111111000000001011111100000
11111111111010001000010011111110
00000000000000110010001100001001
00000000000010110100000001111101
00000000000011101011100001101101
11111111111100011001010011010110
11111111111001110010001011010101
11111111111101001101101000101010
00000000001001101110100101011011
00000000000010110111011010111011
00000000000101011101100111010000
00000000001010001110010101010010
00000000000100110101000110110100
11111111111111110001000100111001
11111111111111110000100001101100
00000000000011110110000011100111
00000000000000111011111110101111
00000000000011001111111000100111
00000000000111100100000100100100
00000000000110101111001100001110
11111111111110001000010101011000
00000000000100110000010111111110
00000000000011100100010011111000
00000000000011000111110101111010
00000000000110100000001101101011
00000000000100100011111010111100
00000000000111000100001010000100
00000000000010110011101011100011
11111111111101111011100100000100
00000000000000101101010011010111
11111111111111011100001111011111
11111111111010111001011011011011
00000000000110010101100111110111
11111111111011000110001100011011
00000000001101101100100011100111
00000000000100111000101000110100
00000000010000110110010010010110
00000000010000000110110011111011
00000000001001110011011010101010
00000000000010001110111110000011
11111111111100100011001000000111
00000000000000001101110010100010
00000000001001111111011101010111
00000000000111101111111100011000
11111111111010010111010011110001
11111111111010010100100000011010
11111111111111101100101101110010
00000000000010001110100110110101
11111111111110100111110111011111
00000000000000000100110011011011
11111111111111011010000111000011
11111111111111000111101111111100
00000000001010000000010100110101
11111111111000000111001000100000
11111111110000101000111000111111
11111111111010001011010100010101
00000000000011110110101110010111
11111111111111010010101101011101
11111111111100111100100100110100
00000000001001101000111110110101
11111111111100000110110010011010
11111111111111001111001010111100
00000000000101011100110001111011
11111111111101100101000101111110
00000000000010010110001100100010
11111111111001100100111110101101
11111111111010110000100111010001
00000000010101001100011000110010
00000000000100111000011110011110
00000000001101011011110111100101
11111111111100100011101110011010
11111111110011011111100100111001
00000000001110110011010110000111
00000000000100001101011100010100
00000000000110000101000100110110
11111111111100011011110001100010
11111111111111110111110001000110
11111111111101011011000010010101
00000000000010110100000000100111
11111111111001001001010111110001
11111111110000011000100111110111
11111111111110001101010000010001
11111111111100011100101000001110
11111111111101101110000100001011
11111111111100111100100010001011
11111111111000110110001110000011
11111111111100110001100100111001
00000000000010101111111110101101
11111111110100011111001000010100
11111111110110000000001110100011
11111111111010100101101111001001
11111111111010100000010011101010
00000000000110100000010110001001
11111111101111000000011110011010
11111111111111001010001000010101
00000000000110010000011111111001
00000000001010001110010110001001
00000000000100001110001000001001
00000000000010101000100100101010
00000000000110000111101100011101
11111111111111010111100001110001
00000000000110001101100111101111
11111111111010111010110101110100
00000000001000111011001110100110
00000000001010000001100010011110
00000000000101111000111011001100
00000000000000100101010000011011
11111111101010101101111001100110
11111111111011110010000011111011
11111111111010011111000000001000
11111111111101111101111010101101
11111111111100111100100100000100
11111111111100011011011001011000
11111111111101101011000110100111
11111111111111100100111110010011
11111111111001111011000111101011
00000000000001111111000111010101
00000000000100000010100100100101
00000000010001001011011001010100
00000000001010011011001011101101
00000000001000100001000110000100
00000000001011001111001100000100
00000000001001100110100111011000
00000000010110100100001000001010
00000000000011011101011111011000
11111111111110010010010011101110
00000000000010010110001110111000
11111111111011101011101101111011
00000000000011100011010001111110
00000000000111100111111010010000
11111111111100101011010000110011
11111111110110010001000101011000
11111111111100000110101000111111
