00000000000110011000111010100110
00000000000010000111100001001100
11111111111111101011110100101000
00000000000100100110110011110010
11111111111111011000001000000110
00000000000011111100000101001101
00000000001001101100001011111100
11111111111010110010110000000010
00000000000001001001100110000001
11111111111010010101001001100110
00000000000010001011001000101110
00000000000001111010111100001011
11111111111010010110001100110001
00000000001010111001110111101111
00000000000000000001111001100110
00000000000110101010110101100110
00000000000100101101010110101011
00000000000110110001110010100101
00000000000100101111011100010110
11111111111100011011000010111000
00000000000100001101001110100100
00000000001011010101110100100111
00000000001001101100111110101111
00000000000001001010100101111100
11111111111011011100001001011111
00000000000010101100000110011111
11111111111100100001101011100011
11111111111100111010001100111010
11111111111001111111111010011110
00000000000100101010000010000100
11111111111110101001001110010100
00000000000011001100110010001100
00000000001001111011011100110111
11111111110111110111001010000101
11111111111110010011111110000000
00000000000011010001101110011001
00000000001001010110110001101000
00000000000110000111100001001110
00000000000001101101000000110011
11111111111111001001001011010111
11111111111010011011100011100011
11111111111100011101110000010000
11111111110111101100001100001001
00000000000100000100010111100101
11111111111011010000010001101101
11111111111100101111010000001011
11111111111100001101110011100110
11111111111110000000100110011110
00000000000011101011001000100111
00000000000001101110101001101010
00000000000011101111101001100101
00000000000011011111011010110011
00000000000100010100011110110110
00000000000110100001011101100001
11111111111110110011000101011010
00000000000001100101111110011101
00000000000000111110110110111100
00000000000110000000101111000011
00000000000110011101001000000101
00000000000001110100111111101011
00000000000101001110100111010000
00000000000011101111101111100101
00000000001011111000001101011110
00000000000101001001000111111001
00000000000100100100000100100111
00000000000000110000001101100011
00000000000111001001101010011011
11111111111111110100001011111111
00000000000011110110000011110110
11111111111000100001001100111110
00000000000111000000100110111010
00000000000000011011000001110000
11111111110111101101001110001101
11111111111001101001110111100111
11111111110111001100100100000111
00000000000010010110001010100001
00000000000011100100100000100101
00000000000101000001101000111001
00000000000111101011001000110001
00000000000101111111100000011000
00000000001000101000111101001100
00000000000101101010101110011001
00000000000001110111111101010011
00000000000000100111001101011010
00000000000110100100101001111110
00000000000111110111111111101001
00000000000011000101011101110000
00000000000100100010100000100111
11111111111111010001100100111000
00000000000110001110100011100111
00000000000000000100001000001001
00000000000101110010100010011111
00000000000011111111110011010111
11111111111111101011010110001010
00000000001000001110110101110001
00000000000010100010001101111011
00000000000010011000000010111010
00000000000010110000001111000010
00000000000101110100111110100110
11111111111100000000100010110010
11111111111001000000001111111110
11111111111110010110101010101101
00000000000010111000111110010111
00000000000110110011011001101101
00000000001001011110101000001100
00000000001110110100000000011001
11111111111111000010011100111110
11111111111110101010010010111011
00000000000011000101011001100011
00000000000100011111111001001111
00000000000111111101010110000101
00000000000100011000011110111111
00000000000001001110011001100110
00000000000100100011001011100100
11111111111101110100111110110110
11111111111010111110110111110101
11111111111110010010011011000000
00000000000000001011001100011000
11111111110101000001100011100101
00000000000000000110011011000011
11111111111001111000010110010100
11111111111010000000011010010010
11111111110100100111011000010101
11111111111000001010100000001010
11111111111011010000000101010110
00000000000100011101001000100010
11111111111110100011110000001110
00000000000010011000111111010010
00000000001001110011100101011100
00000000001000000011001100111110
11111111111010111111001011100000
00000000000101100100000100000011
00000000000111101111011010110111
00000000000011101011010011101001
00000000000110111110100111000011
11111111111000100101111110011100
11111111111111101100001001010010
00000000000011011111111111100000
00000000001100000000000100001010
00000000000101010101110111101101
11111111111010100110111011101101
00000000000001011110111010000000
11111111111110101001110100110111
00000000000010100010111111110111
11111111111011001000110111100101
11111111111101001010001010100111
00000000000101001010100010100100
00000000000010010100001101010110
00000000000101100011110001011100
11111111110101010001101001000100
11111111111111100001011001100110
11111111111101100100001111001001
11111111111101101010000111011111
00000000001010110100010001100111
00000000010010000111100101101000
11111111111101011000101100101000
11111111110111111110010010000111
11111111111100110101010111111000
00000000001000111110011100100101
00000000000110100101100101000001
00000000000100001011110010000111
11111111110100100100111101000000
11111111111001110001101101110011
11111111111011000001010001000100
00000000000111110111010100001000
00000000000010100100110010010001
11111111110110011101100111100011
00000000000000100010011000110111
00000000000111010100110010100101
11111111111101001000111100100111
11111111111110100111101011101111
11111111111101111010001101010010
00000000000011001000100010110111
11111111111101100101010111000010
00000000000010111010001001111000
11111111110011110010110010101010
00000000000111111100111100111000
00000000000001101110010111100000
00000000001110011010010000110001
00000000011000101100001101001000
11111111111011000111010011010110
11111111111110010100110111000010
11111111111100000100000011011000
00000000000101111101000111010010
00000000000001111010110000100011
11111111111001011010000111111011
11111111111011101111011000110111
00000000000101011010011001110101
11111111111100110100110110111010
00000000000010100110101111111101
11111111111010101011100110101011
00000000000110010010000101101111
00000000000000010100101010111110
11111111111110000000111001010001
11111111111101111111101100001011
11111111111000010101101100000111
11111111110010001110001001010110
11111111111110110110001111111001
11111111111111011111111110011111
11111111110100011110000000000110
00000000001110110011100010101000
00000000000110110100010100100111
00000000000001001001101111001111
00000000000011011111101100011011
00000000000010100011111110011001
11111111111101000011111010011011
11111111111110011001101011100000
11111111111111100011001001111001
00000000001010100110000111011001
00000000000001100001110100000000
00000000000011111000101100101110
00000000001100110000011001011101
00000000000101011111011000100010
00000000000001100110101001000100
00000000000110111101111011011000
00000000000100100000111010001001
00000000001111001000011101111010
00000000000111110001001010100111
00000000000010001010010000011011
00000000000001011011010110111010
11111111111100000110000001100010
00000000000100111100101100110110
11111111111110000000111000110010
11111111111011011000111111000010
11111111110010010001101001000010
11111111111101000110000001100011
00000000000101100001000101000100
00000000000101000010011111000011
00000000000101110011110001001011
00000000000010011011100111101011
11111111110110000101100101001000
11111111111111011010001110001100
00000000000001111000100010111011
00000000001000101010101100000100
00000000001001110100011000011101
11111111111110010110111110011000
00000000000000100100110111011100
00000000000011011101010010010110
00000000001001111111110001000111
00000000000000101111010110110010
00000000000100101001101001011011
00000000000100000111010101011000
00000000000101010101010010001111
00000000000110001010111001101011
11111111110110001111111100111110
00000000000011101010100001000111
11111111111101110001010110101010
11111111111100110011010010101011
11111111111011011001010101010011
11111111111000110011011001000100
11111111111101111001100110111000
00000000000011101010100010000001
00000000000010000011001100001011
00000000000010001101101111110011
00000000000001111101011100010100
00000000000110110000010000101011
11111111111100000111000100001001
00000000000101000111001000111000
00000000000000000001111100011000
11111111111100110110000001101010
00000000000001100010011010100011
11111111111111011010001011010111
00000000000101111101010001001001
11111111111111110011011110100111
11111111111100110000000100010101
00000000000000001001011110011101
11111111111010110110011100100101
00000000000011110001001010011101
00000000000110110010111000001001
11111111111110111111100011010111
00000000000100010010101011010011
00000000000100111101001000011001
11111111111111001101001001110101
00000000000010100000100010011101
00000000000010011110011011000101
11111111111111000000000110001101
11111111110100101010010100101001
00000000000010110001001001101010
00000000000010110001000100010101
00000000000100101111101101000100
00000000001000101010111001010010
11111111111101110100001111001111
11111111111111010001011110100000
11111111111100100101111101010101
00000000000000111011111000001010
00000000000110010000110101011011
00000000000110010111111100011101
00000000000111000000001111000001
11111111111111001110001001111000
00000000000011001101001000011110
00000000000010111001111010010111
11111111111111101110001011011010
11111111111111111011000010101011
00000000000100011000010000000011
11111111110111010000101100100101
00000000000011111000011100011110
00000000001000001010010111110001
00000000001011000101001100010010
00000000000100111001101010110101
11111111111111011011101000111111
00000000000111011100000101110101
11111111111010100010101000011011
11111111111110111001001101110111
11111111111000001001101101001001
00000000000100111001101111011101
11111111110111010001100100101001
11111111111100011000011101100111
11111111111111001011111110000001
11111111111111001011100100111010
11111111111111101011011101000011
11111111111110110011011110111001
00000000000000101011010111010110
11111111111101101111001001001000
00000000001001010110110001101001
00000000000010011000000001010100
00000000001000010000110110000110
00000000000111011001110111110010
11111111111101010000110010010001
00000000000011110110000110000110
00000000000101000011100000010001
00000000001000001110000010001110
00000000001001010101111000001100
11111111111101101101010011001010
00000000000110001001110010100001
00000000000001110001001100101110
11111111111101001010110111101111
11111111111101100111110110011011
11111111111010001001000000111011
11111111111100111010000001010010
11111111111111000010000001100101
00000000000001010110010001001110
00000000000110011001110000111001
11111111111100101111001111110010
00000000000110010011011011000111
11111111110110000101111111000110
00000000000000011011111111000110
11111111111101111111100001101110
11111111111110000100000110100001
11111111111011101100101101110010
11111111111000011001010010000011
11111111111011010110000000001011
11111111111111100101110110010010
00000000000111010001001100101000
00000000000011001000111001010010
11111111111111101111111001101110
11111111111100000010000111001111
00000000000111111000001111100111
00000000010011011101010111110011
00000000000001001110100000100011
11111111101101111110000011101110
11111111110101101000100000111111
11111111111100101010110000111011
11111111111111001010000110101010
11111111111101000001100101001001
00000000001010001000110001101001
11111111110100000101000000101110
11111111111111100011100100011001
00000000000110100011011010001110
00000000001011101000001001100011
00000000000100010100001111000110
00000000000001010011111010101101
11111111111101011101011100110100
00000000000001001100000000001000
00000000000001010110110001100101
00000000000010000111001010110001
11111111111101010110101001111001
11111111111101010010000101011010
11111111110101101100111011010011
00000000000001101101100000110110
11111111111010001010011111110011
11111111110111011011100100010011
11111111110011100101100001111011
11111111110110111001000100111110
00000000000001101001111010010001
11111111111110110101110011010010
11111111110111101010100000111100
11111111110101111011111010001011
11111111111111101001011100001011
00000000000010010000001111001111
11111111110101000111110011000101
00000000000111101001000010110010
00000000000010001011111011100011
11111111111001100011100001111101
11111111111101010000100111011101
11111111111111101110000100100000
00000000001011001011111000111011
00000000000110111011100111100101
11111111111111100001010010001000
11111111111010110110010111101101
11111111111011100100111101001111
11111111111110011111010010100110
11111111111111010110101100011110
11111111111111100001101110011111
00000000000000011001011110001100
00000000000011101110100100100110
11111111111101010101111000001110
11111111111001111111100110001001
11111111110111100101010011111110
11111111111111111101000111100000
00000000000001010001100010110101
