00000000000000110010111011001000
00000000000011010000001001010011
00000000000001010110001111000101
11111111111100101111011001101101
11111111111001001111100000001100
11111111111010010010110110001001
11111111111110100110010111010100
00000000000111011001010010001001
11111111111110101111000100000010
00000000001000010001001011000011
11111111111111001001011111100111
00000000000001000100110110111101
11111111111101101110111011011110
11111111111100001001101101010011
00000000000001100001000011100011
00000000000010101000010100101110
11111111111011111000100111010101
00000000000011010100011110001010
00000000000001110100111001000000
11111111111001110000001101001111
00000000000001111010011110101001
11111111111100111110101111000101
11111111111100101001000011111000
11111111111111010010000101001110
00000000000001000111111110101001
00000000000100010011101111111101
00000000001000000110110001100100
00000000000011010101111100011011
00000000000010101001000111001100
11111111111101010111011010111111
11111111111111100111011000010100
11111111111101010001101011101101
00000000000001100111110101011100
11111111111110011100001001001111
11111111111101010110001110011110
00000000000101100100011011000101
00000000000001111111000011111101
00000000000000110011010111110010
00000000000101100010001110000110
11111111111100101101101100110011
11111111111110011110100010100010
00000000000100001001111111001100
11111111111100111110000011011110
00000000000101011010101000110110
00000000000110000111000101010001
00000000000001110110111100010101
11111111111111100011010101000010
11111111111010001110011011000101
00000000000001001101111100101010
11111111111101110011011011100011
00000000000110101101000101111100
11111111111100001101100001101100
00000000000010100001110001001101
00000000000001011100010110011000
00000000000011101011101101101000
11111111111100000100011011010011
00000000000010011101000100001100
00000000000100110001111100100001
00000000000111111100011100010011
11111111111110101110011110010111
