11111111111101101110100100000001
11111111111101000110101101111010
11111111111110000010100011000101
00000000000010100101110001101011
00000000000001011010000111001001
00000000000010111010111011011011
00000000000001100001100101010101
11111111111110111111100011110111
00000000000001000110010011010110
11111111111110001111001000111000
00000000000001111101110001100011
11111111111101011111011101001111
00000000000000101000111011001000
11111111111110110100101000000001
11111111111100001110001111110000
11111111111100110111010110101110
00000000000000011010110011010101
11111111111011100010111001010001
00000000000000110111010110011101
11111111111101111001011111110010
11111111111011110110111011010111
11111111111101010001111000111100
11111111111010001010011101101110
00000000000000110111011111101011
11111111111110101101011001000111
11111111111110000011010100111111
11111111111101010000011010011000
11111111111101011100010101010111
11111111111100111111000101111010
11111111111110001011101011010101
11111111111111001101011011110001
11111111111101100011010000011101
00000000000000001110001110011111
11111111111101100001100001110110
11111111111110000101100100001010
00000000000000000111001010011100
11111111111111010000011010101100
00000000000000000010101011000100
11111111111011001000010001011001
11111111111101010001100001100110
00000000000001000010011110010010
11111111111100001110000000110111
11111111111111110011000101011001
11111111111111101000011011101011
11111111111111010010101011110001
11111111111100110000101001010110
11111111111101100100001000000001
11111111111011101000111110110010
11111111111011101110100011111010
11111111111101111001001001011111
11111111111111011011000110000111
00000000000011100010101011101000
11111111111101001000010110011011
11111111111111101111111100111101
11111111111011011001100111010110
00000000000011101000010000001000
11111111111100100100000101110011
00000000000000000110111111111100
11111111111100100111011011111010
11111111111100001010110110110110
11111111111110101000111110000001
11111111111110111010001101010111
11111111111011001000011101111110
11111111111101101001100100000110
00000000000000111011111101101100
11111111111011011101001011110011
11111111111101110011010010010001
11111111111111000100100001001001
11111111111101000000111011010010
00000000000001001011011100010001
11111111111110011100100011110100
11111111111111001101011010010011
11111111111110100101111110010110
00000000000001001101111100011011
11111111111110000010111000001001
00000000000010110000010101110101
11111111111110100110111000110111
11111111111110110110100100101110
11111111111011010011001011010001
11111111111101010101000110111100
11111111111111001111110000011111
11111111111110111111010010011000
11111111111101101110001101011001
11111111111101100100100010011001
11111111111110010111101011111110
00000000000001111000000010000000
00000000000000111000000011101000
00000000000000010110011010100110
11111111111101001101110110101110
11111111111101000000101010101000
11111111111100111011000100011001
00000000000001001110001100100001
11111111111101100100011001110111
11111111111100011110111000111011
11111111111101011110000001100010
11111111111011100110000100110010
11111111111101001001110111100100
11111111111100110101001001010011
11111111111110001110010100110100
11111111111100001101010001010001
11111111111101100110111110101100
11111111111110010001101001111101
00000000000010000111100110011101
11111111111110010101010010011101
11111111111100001111001100011100
11111111111111011010001011111111
11111111111110011001111100101110
00000000000000010110100000110101
11111111111110100010001101010100
11111111111110100011110011001110
11111111111111111001110100011011
11111111111100001110010011111101
11111111111111011110100011111100
11111111111011010100101100100110
00000000000000001101100010000101
11111111111100010001011101100000
11111111111011111101101110010010
11111111111100000010110001100001
11111111111101010011011001000001
11111111111100111000101100111001
11111111111101100000110000100110
11111111111010111110101111010001
11111111111100100011001011111100
11111111111110111001001111011100
11111111111101011101110111111011
11111111111110110000011101000010
00000000000010110001000100110101
11111111111110110101100100101010
11111111111111111010101110001011
00000000000000100010100010110010
00000000000001011000101110001111
11111111111101101001110010100101
00000000000000100110001100001110
00000000000000000000100011000100
11111111111101000101010110010010
11111111111110110011111111000100
00000000000010101101010100010101
00000000000000011000110001100101
00000000000001000101010000100101
00000000000000110001001010101101
11111111111101001110000000110010
11111111111101100110110110000111
11111111111111101000011010111110
11111111111100111101011101100110
11111111111100101110101100101110
11111111111111100101101111100001
11111111111111010010110100000000
11111111111110111101000101001001
11111111111110011100001110111001
11111111111011110011111101010110
11111111111111110100010010000101
11111111111111011111101010000100
11111111111111111000010011111100
11111111111110000101110010110101
11111111111111011000011110010110
00000000000010000110001011110111
00000000000010001011010010110101
11111111111110101001011110110110
11111111111100111100011110100100
11111111111110111110000101111110
00000000000000101011000010001111
00000000000010001100010001111001
00000000000000110100110100110011
11111111111010111001011110011100
11111111111011110000110100111110
11111111111101011000111111111001
11111111111111100100010111101111
00000000000001000110110011101011
11111111111101010111100011100101
00000000000000110111111001011011
11111111111101110110001101111100
11111111111111110111001011101100
11111111111111100100110010111101
11111111111100011001110110101000
11111111111101001001011011110100
11111111111100100111011100100111
11111111111111101110001110000000
11111111111101110001001010000010
00000000000000001001011010010011
11111111111110111010100000111110
11111111111110101001101111010011
11111111111101111000100100001110
11111111111110001100100111110010
11111111111111010010100110110000
11111111111101011001000001001100
11111111111101001011110111100010
00000000000001000110111110100100
00000000000001010101111001110110
00000000000001100100100101011001
11111111111011100101100011011010
11111111111010111001010011111111
11111111111110111010111010000000
11111111111110010001100001001011
11111111111110011000111000000010
11111111111011110001000011001110
11111111111110010111010000110011
11111111111111010100110100000000
11111111111110001101001110001111
11111111111110000100101110000000
11111111111110100110011010110110
11111111111100011011000000011000
11111111111100100111010100101011
11111111111110110100011000101111
00000000000000110000010001100001
11111111111111000101000101110011
11111111111101101100110010111000
11111111111101110110010000101111
00000000000001101100010011101110
11111111111111111001101001001000
11111111111110111011001100000001
11111111111100101010001100011101
11111111111011101010011101001100
00000000000001110100100011101111
00000000000000001100100110010110
00000000000001100001001010011011
11111111111111101110101101110001
00000000000001001100010010001010
00000000000001111101011010111001
11111111111110111111000000110100
00000000000010100010001101111101
11111111111101100101111010100101
00000000000001111111110111001110
00000000000000101011101011010110
00000000000000111100110101100110
11111111111111111101010011001110
11111111111111100100000110000101
11111111111101010000110010100011
00000000000000011110011101010000
11111111111111101010110110000110
11111111111110101110000001101011
11111111111100101101001110010111
00000000000000001111101000010000
00000000000000011110011101100101
11111111111011111001001010010100
00000000000001100001101000010111
00000000000001010011110011011110
11111111111011100111101111100110
11111111111011101011110111000110
11111111111110100111111100011111
00000000000000001011011011001001
00000000000000001100101001001001
11111111111100111100011010000110
11111111111101000101001111001111
00000000000000111001101110000001
11111111111110111100000100100111
00000000000000101100101100010111
00000000000000110000100100111001
00000000000000001110101000101011
11111111111111101110101110010101
11111111111011110011011111011110
00000000000001000010011111100010
11111111111101101101111000111010
11111111111011010000111011011100
00000000000001001011001100001111
00000000000001010011010000001011
11111111111101100001100110011110
11111111111111000010011000010000
00000000000001010010111111100101
00000000000010000101111000110010
00000000000001101000100010011100
11111111111011100010010011111001
00000000000000010111010010001011
00000000000000110111101100110001
00000000000000110101001100000001
00000000000001111011111100001101
11111111111111111011011011100011
11111111111011011110001000111111
11111111111101100111100001101000
00000000000000011010011001010010
11111111111100011001001001110001
00000000000000111100110110000111
11111111111100000000100000001011
11111111111011011111010010100101
00000000000001000100001010011000
00000000000001000100000100001010
11111111111100111101100101001001
11111111111100001011010100110010
11111111111110111111000100000111
11111111111011110101010111111101
11111111111010010000111010001101
00000000000001111110001110001000
11111111111111110010100011111101
11111111111111100101011000100111
11111111111111101101010100101110
00000000000000111011010010010100
00000000000001101001011100011000
00000000000010101010010101100001
11111111111100011110111000001111
00000000000001001001010110111010
11111111111111101000011100010100
00000000000001011001010011111010
11111111111101011101010001111111
11111111111101011000111010111111
11111111111111101110110110100110
00000000000000111011110000111011
00000000000011100101000101001000
11111111111111110001011000010000
11111111111110001111100011110001
11111111111111101101101010010001
00000000000000011101011000001100
11111111111111000101001000001010
00000000000001010010110000111100
00000000000010010000010001011111
11111111111011111100111100011001
11111111111101000110011010100010
00000000000000011001110110100010
11111111111111010001010111010011
00000000000010010011101000101100
00000000000010001110110001101011
11111111111011011001100011111000
00000000000010100110101001101000
11111111111011100111001011111001
00000000000000101011111011101100
00000000000011001000110111111101
11111111111111111001111110011101
11111111111110101000111111010011
11111111111100110010111010010000
11111111111101001110001010101110
11111111111111001000100111110101
00000000000001101000101110010010
00000000000001101000101100101100
11111111111110111011110111011011
11111111111100000111001111111010
11111111111100100110010010010000
11111111111101001001000110011101
00000000000001101100000001000101
11111111111011000110010011011011
11111111111111101111101110011011
11111111111111001011000100000110
11111111111110011111011110110011
11111111111101111000111110100101
00000000000000010100010101110010
11111111111100111000111110001011
11111111111111001001110001011010
00000000000001101110101100010111
00000000000001000101101101010101
11111111111101111011010001000101
11111111111010101101101110100110
11111111111011011111101111100010
00000000000000000100001100100111
11111111111111011111101010110111
11111111111010111111001010111111
00000000000001011101001001011000
11111111111110100111101101100100
11111111111011110001101000100010
00000000000000101110000111011111
11111111111011101101011100000110
00000000000000110001000110101000
11111111111111110011111011111100
11111111111011011110000011110011
00000000000001101001001011101101
00000000000011000101100001101010
11111111111101000000001010010000
00000000000000110111111011111000
11111111111011110001100101100011
00000000000010111000101110101011
11111111111110100010011111000101
00000000000001000110010010100000
00000000000010001001110011000010
11111111111101111010111010000101
11111111111100001101111001100100
11111111111111110111110000000001
11111111111100100101101110000001
00000000000001100111110010110111
11111111111011100101010011111111
11111111111101100111111001001101
11111111111100101011111000001110
11111111111101011101101010100000
11111111111110011011011010111010
11111111111101001001010001000101
00000000000001110100010011000001
00000000000000000001010010101101
00000000000001001001111101110101
11111111111111011100001001100110
11111111111110111000101111111111
11111111111110101101001101100010
00000000000000010000110001000001
11111111111101000001010010010000
11111111111100110000100111111011
11111111111101011000010001111100
11111111111110010011011100100111
11111111111110010001010010111100
11111111111111001100000001111100
11111111111100111100111001111111
11111111111101000011001110101000
00000000000000110100111000100000
11111111111110000001100110110011
00000000000000110011111101100110
11111111111110100110111011011101
11111111111100110111011111011111
11111111111110011000110111111010
11111111111110111000111101010010
11111111111110000110110110000111
11111111111011110011010000011001
11111111111100110010011100111100
11111111111101110111110011001111
11111111111100100100011101110000
11111111111110011001000110111111
11111111111011010001000000000000
11111111111100110001100010010110
