00000000000001000011001110111111
00000000000000011001011010011100
11111111111101000011101001010100
00000000000000111100101010000000
11111111111101100010111001010111
00000000000000001010010100011101
11111111111100111010001110110101
11111111111110110101001100111100
11111111111110101101011000111110
00000000000001010011110110101100
00000000000000010111111101110110
00000000000000101001111000100110
00000000000001001101100011011001
11111111111100000011110001110101
11111111111101110110000111011011
00000000000001111100010000010011
00000000000000010110111110011101
00000000000000101111011101101010
11111111111101001010010101111001
11111111111111100000011101100111
00000000000000101101110011011110
00000000000001010010111011010000
11111111111100111111010011000010
00000000000001100010100010011111
00000000000000101000011001011110
00000000000000101101100010100100
00000000000001001010000100111110
11111111111101001011101100110000
00000000000000101111111011100001
00000000000001010000000100110100
11111111111101101010110000111110
00000000000000101010100001000001
00000000000000010101110001001100
11111111111110000001101110000111
11111111111111110000001001111011
11111111111101000010100100000010
00000000000001101000010111000100
00000000000010001001001000111001
00000000000010010100111011111010
11111111111110110001000101110100
11111111111111010001001011110100
00000000000000101000011111010111
00000000000001111011000011110100
00000000000010000110100100000100
11111111111111110101001100000001
11111111111110101010010001111000
00000000000001000111100000001101
00000000000001110111101100101101
00000000000001110110100101011000
11111111111101110011001010001101
11111111111111011000011010011001
00000000000010001001001111111011
00000000000000101010100010011110
11111111111100101111011000101100
11111111111101001111000000000110
11111111111110101011011111000100
00000000000001100111110101010001
11111111111101011010001100010110
11111111111110101100011000100111
11111111111110000110000111010110
11111111111101011000010000101001
11111111111100000101110010100011
11111111111100111001101001101001
11111111111111100010010010110111
00000000000001001000011010101010
00000000000001001110011010101001
11111111111101101001011100000011
00000000000000000100000001100110
00000000000001010100011000110011
11111111111100111110010111100010
11111111111100010110000110111111
00000000000010001111101011111100
00000000000001110101101100100001
00000000000010010010001111110010
11111111111100100101000011011101
11111111111110110000101000101101
00000000000000011010010111001010
11111111111110000110100101100101
00000000000001111110000101000011
11111111111100100110000101111100
11111111111101010110001100001100
00000000000001000011101100000001
11111111111111110001011010100000
00000000000010000011111010010110
11111111111111111000101001111111
11111111111110011001110010001100
11111111111110011011010101111001
11111111111110110111000001100110
11111111111111011101110111010011
11111111111100010001011011111110
11111111111110101010000000001111
11111111111111011100010011010101
11111111111110110101111101011111
11111111111100111001111001110011
11111111111101100010010101010011
00000000000010101100011110101100
11111111111101110100100101011110
00000000000001011000010111011000
00000000000000111111110011011101
11111111111111001010011111101101
11111111111110011101111111000110
00000000000001011111000110000010
11111111111110101010001011110000
11111111111110011100000010001111
00000000000000010111000101110001
11111111111111000001000111011101
11111111111111010011110100110100
11111111111111010110010011111101
11111111111101001001000000000011
00000000000001010111101001011111
11111111111111101010001101111110
00000000000001010001010110111100
00000000000001011110101110011111
00000000000000010111110100010000
00000000000000110110011010011101
11111111111101110111101010111101
11111111111101110110101111010001
00000000000001011000111001000110
11111111111101001111100111100111
00000000000001100111101110001100
00000000000001101000101000001110
00000000000001101111111111101100
00000000000001001110001100010010
11111111111100001100000101001011
00000000000000010000000010000100
11111111111111011011000000001110
00000000000001110000010101101100
11111111111110001111011101001011
11111111111101100111010111111111
00000000000001101111000011010000
00000000000001011000100110100111
00000000000010001101111000111011
11111111111110110011001010110011
11111111111101111110001000110100
00000000000001101001000101101101
11111111111110110100011001001101
00000000000000001101110100011110
11111111111110011000001010011000
00000000000001010110011011110110
00000000000001110010001101010000
11111111111111111111000111001011
00000000000001011000010001010111
11111111111111010101010100101011
00000000000000010101100101110111
00000000000000000011010001010011
11111111111101000010110101011010
00000000000010001100100100100000
11111111111110000100010101100000
00000000000000110011111011001100
11111111111110000001001000011101
11111111111101111110101010001111
11111111111100101001011011111000
11111111111110000110110110101000
00000000000001000111110010011111
00000000000000101101000001100011
11111111111100100011100000110000
00000000000001010011101001011101
00000000000001100111011101111111
00000000000001001000111101111100
00000000000010011111001010011010
00000000000001000000100010100011
11111111111111101001011101010011
00000000000001100111110001000111
00000000000011001010000111000010
11111111111110101111100110000101
11111111111100111100001010111100
00000000000001001000011111100001
00000000000000000101110111101111
11111111111101011010011111100111
11111111111110000011110101100100
00000000000001011000001011011100
11111111111100110011011000101101
00000000000000010101000110001001
00000000000001001001101101101101
11111111111110110001111100001010
11111111111111010100011100011011
11111111111101111110011010011000
00000000000000001111101111110000
11111111111111100001010111011101
11111111111110000101000111011000
11111111111100011100010000001100
00000000000000110110011011000000
11111111111111001001001101001101
11111111111110001100101110110001
00000000000001010001100110000011
11111111111101101101101111110100
11111111111110101001010011101101
00000000000001110100111000011001
00000000000001101011100100001001
11111111111101010010001111101000
11111111111101110010011011111001
00000000000000101101100001001000
11111111111111100000011011001100
11111111111100001100110001110101
11111111111101010111111110110111
00000000000000101010001100110000
11111111111100101011000111000111
11111111111110000001011000010011
11111111111101100111110001110000
00000000000000111111011110110011
00000000000000110001110100001010
11111111111101001000011010000010
00000000000010001111101010000001
11111111111110001110110011100111
00000000000000001101100010010001
00000000000000010011101100101101
00000000000010011001010010110010
11111111111101100110001100110100
11111111111101100001011010101111
00000000000000110111000111101110
11111111111111101010111010000000
00000000000000000111000110000000
11111111111111110011110101011111
00000000000010001111100010011100
00000000000010000101000100111101
11111111111111101001110111110111
11111111111111110101000101011101
00000000000010010010010100011110
00000000000010000101001001011000
00000000000010010110001111111011
11111111111111011010101011001101
11111111111101110101000000101010
11111111111100110110011010100110
00000000000000000111101011010101
11111111111100100100110011000100
00000000000000011010111000110010
11111111111111011100011101011000
11111111111111100000010111100000
11111111111101001010100111011000
11111111111101100001000010111001
11111111111111010010010011010011
00000000000001000010010101011110
11111111111100011101111011011011
11111111111111110011110101100100
11111111111100010010101010010011
00000000000000001101100010010001
00000000000000110001011111000110
11111111111110110001000111110000
11111111111101101010100100011111
00000000000000000000011101000001
11111111111100010011111110001100
00000000000010001100110000111110
11111111111101001000010011111110
00000000000010010110111010111000
11111111111101011100010000001000
11111111111100111100000111100101
00000000000000011001111010100110
11111111111101000101000001001100
11111111111100011010110000010011
11111111111111110001101100001111
00000000000001011000100100010001
11111111111111110000001001001110
00000000000001101001000011010010
11111111111100100100100001000011
00000000000001010110000011101110
11111111111101011110011111011010
11111111111101111110001010001111
11111111111100100010000111110000
11111111111101111111110011110001
00000000000000111010111110010000
11111111111110000011111011101011
11111111111101110000100100001010
11111111111100110001111000101101
00000000000001110001101101000011
11111111111101110110110100011000
11111111111110101000110100111001
00000000000001101111110111011001
11111111111101001111110010111001
00000000000001001011111010101011
00000000000000100000101111010100
11111111111110011010111101110110
11111111111111001011110011110111
00000000000000111111100100101001
00000000000010011001110100111101
11111111111110111010010111110000
00000000000010001110000000010101
00000000000001110000101111001001
00000000000010110001100011110010
11111111111111000000100110101111
00000000000000001100101011111001
00000000000001110100100110011111
11111111111100000011011010111011
11111111111111101110001110010111
11111111111110001100110101101110
11111111111100111000101010101010
11111111111111101100101100111100
00000000000000010011000101100100
00000000000000110010101100100011
11111111111111111100010111001110
11111111111111000011110110001010
11111111111101101011010011100010
11111111111111000101001100100101
11111111111111111110100111000100
11111111111110100100111010101111
00000000000001100111100101000000
00000000000001111100101010011011
11111111111111010110000001110100
00000000000000011100100100011111
11111111111101011000111111111110
11111111111100001011111101101011
00000000000000101111111000001010
11111111111110111010001011101000
00000000000001010010010101110111
11111111111100111110110010011110
00000000000000011011111101000000
00000000000010010111101111001011
11111111111111010001000101000101
11111111111111001011001001100011
00000000000000100101001010011110
11111111111100111101110111111110
11111111111110101101100110100110
11111111111100100100011101010101
11111111111101101100101010101100
00000000000001101001010010001001
00000000000000001111001000101110
11111111111101010011101110111111
11111111111101110110010110011010
11111111111110111011101101000100
11111111111100100101101001111110
11111111111100101011111111000010
11111111111101001000101000000001
11111111111101000001010100011011
11111111111101111110101001011011
11111111111111011001001011000010
00000000000010001100000000011101
11111111111111110101011011010101
11111111111100110110101000101111
00000000000000100101010101000101
11111111111110100101011100001011
11111111111101110000111011111000
00000000000010000010011100010010
11111111111111110111001111110111
11111111111100111111111110101000
11111111111101001010001000100001
11111111111100101110010110011000
11111111111110010011000000101101
11111111111101000010111110101100
11111111111111000110110001001111
11111111111101001000101111001000
11111111111101011110001001111011
11111111111101110111011101110101
11111111111110111100111111001100
11111111111100110011000101011111
11111111111111111101001011001000
11111111111111010011100000010111
00000000000000010100101011101110
00000000000001111000010110001010
11111111111100011111111010011101
11111111111111110001011101000111
00000000000000010011110110101010
11111111111101101111000010000011
00000000000000101110011100000111
11111111111110101010001000111000
11111111111111110001110111110011
00000000000010010100001101101100
11111111111111111101011010110111
11111111111111001101001110000011
11111111111110110100111001101000
00000000000000011101011111001110
00000000000001110001010101101111
11111111111111001001101000100111
11111111111110101001010101101111
11111111111110000000111010100011
00000000000010010000000110100110
11111111111101100001010100000010
00000000000001001011110011110111
11111111111110001000101000101111
11111111111101001001111010101110
00000000000000111101011111111100
00000000000000001100010110110100
00000000000011001000010111010110
11111111111101001001010101000010
11111111111111110000101100111110
00000000000001001010000101101101
11111111111111011010011011100000
00000000000001100110110101110111
11111111111111111110001100010010
11111111111100101010111111000001
11111111111101101101101101100101
00000000000000101001010110011000
11111111111110111001101011001111
11111111111110101110101100101101
11111111111110001100111110111111
11111111111100001110010001011001
00000000000001001010001011000110
11111111111101011011110010011001
00000000000001011000101101010010
11111111111110100100110011011011
11111111111101000110110010101101
11111111111111000101111101011001
11111111111100010001010010010011
11111111111100110000110111011001
11111111111100010010111001001111
00000000000001001100101100001010
11111111111100100100111100011101
11111111111100101100010100001010
11111111111110001001110101010110
00000000000010000101000100011111
11111111111110101110011100100010
11111111111100110100001100001110
