11111111110011000111111010100010
00000000001100000010100100100110
00000000010000100010110101010010
00000000001100001111111010100000
11111111111111111101110110011001
11111111110111010110111000101001
00000000000111010111100100100010
00000000000011110101100010010101
00000000000000000010101001001001
11111111110101011100110110100000
00000000000011111001111101010000
00000000000000110100011110000010
11111111110111110001000011110001
00000000000000000111101011100011
11111111111000001110010011100100
00000000001000111010110011001001
00000000000101000101000100010001
00000000000101011001011001111101
00000000000001010000100001011011
00000000000010100001001000110101
11111111111100101110011100100001
00000000000111100000100011011011
00000000000001000010001011010000
00000000000001111111001110100011
11111111111100011100100111000111
11111111110111011110111010111001
11111111110001000001110001010001
11111111110101001000101110001011
00000000001001111100001110111011
00000000000001111101010001100000
00000000000111100100100101111011
00000000000010010000100001010011
11111111101111110110000001100011
11111111111110100111001111000001
11111111111100000111001011001101
00000000000111111101101000100000
11111111111111011000000001001011
11111111111111011000010101100000
00000000000001101101000001111100
00000000000101011111101000100000
00000000000100111111000011000011
11111111111000011000000000110101
11111111111100110010100011011100
00000000000000101000010010010001
11111111111111111110001111000010
00000000000100100000010001101111
11111111111100111001011111000100
11111111110100101010111010110101
11111111111001111100110011000000
00000000000110011001010101100101
00000000000110001000101100110110
00000000000011101011111110001010
11111111111101011000110001011101
00000000000010101001100000100001
00000000000010111100010000011111
11111111110111001010101101000010
11111111111101010110010011010011
11111111111111011010111101110011
00000000000111000001100101011111
00000000000111001100001111100010
11111111110010100110101101101101
11111111111001010001111100110011
00000000000010011001011010111100
00000000001010100011101001110100
11111111111111010100111011010001
11111111110101001010110000000111
11111111111010010111100011111011
11111111111100110010111110101111
00000000000011101111101110010000
11111111111100110111001110000100
11111111111011001010000110110001
11111111111011010111010101001110
00000000000000010000011010001100
00000000000100011010110100111110
11111111111111100001100000110011
00000000000110000011100110011110
00000000000111110010110011010000
00000000000011111100001101010101
11111111111011001011000010100000
11111111111000100011010101100101
00000000000100011100111001010100
00000000000000000010001001011110
11111111111100010000011000111100
00000000000000000111111011001100
00000000000110010111001001100000
11111111110111110010011001000101
11111111111110100001111011100000
00000000000000011000111111000110
00000000000101011001010000010110
00000000000010101000111011011000
11111111111110100110111100001101
00000000000000001000001001100110
00000000000001100111001001110011
00000000000010101001110010111110
11111111111110111110111100111001
11111111111101110111110111010111
11111111111110100110111011000001
00000000000000101010010010110000
00000000000001011000111001011001
11111111111101000011111010110111
11111111111111101110001100011010
11111111111101110011110001100010
00000000000000001010101001101111
00000000000001110010110100001101
00000000000110101011000000110010
11111111111000101010100101100101
11111111111100110011000010101001
00000000000000110010111110001001
11111111111011011111111010011010
11111111111111100011100000111111
11111111110100001100101101111100
11111111111010011110100111010000
00000000000001011110000100111011
11111111111011001110011000100110
11111111111101110001000101111100
11111111111000011010101100101000
11111111111011101000100011010110
00000000000011110001111101011110
00000000000011011000110111010001
00000000000000001010101101010100
00000000000000101001100000001000
00000000000111000011110100101100
00000000000000101010101111000001
00000000000011000010000101010110
00000000000000001010011000010000
00000000000101011001000000110010
00000000001000001100001111110011
00000000000110010000010011110000
00000000000101111011000110000011
11111111110111111001100111101110
00000000000011010000111100110011
11111111111101011111110100101100
11111111111100011001110101110000
00000000000011100010100001001001
11111111111100110110101001000001
00000000000110100011010100011010
11111111111110011011110001011110
11111111111111000001001010111100
00000000000101110001001000000000
00000000000101001011001111010110
00000000000110101101101100011000
00000000000101001100011100111101
11111111111101110000010010011111
11111111111101101010111111110110
11111111110110000100110100001010
00000000000101101101110110110111
00000000000100011000101001010111
00000000000010011001111000111100
11111111111100101101011001110110
11111111111000101111110011101000
00000000000101011111100111000010
00000000000101110001110101011100
11111111111110010111010001010100
11111111111100001100101011101001
00000000000000100011111001000100
00000000000101001010110001101111
00000000000101101001000010010111
00000000000001001001001110100010
00000000000100011011001010000001
11111111111110100101010001100011
00000000000000010010100101000100
00000000000010001110011111010101
11111111111001010001001110011011
11111111110111110111110011101100
00000000000010110110001010000100
00000000001010001000001010011101
00000000000100011001100101101110
00000000000100001110001010011011
00000000000100010111000001000001
11111111111100011111000110001011
00000000001000001000011001000100
00000000000100000111100011010010
11111111111111110110010110110111
00000000000010110101111100010100
11111111110001001101001101010110
11111111111100101001001010101000
11111111111010001111101000101101
00000000000010001110111110110110
11111111111111010111110001001111
11111111110111000000001100001110
00000000000011000001101110110100
00000000000010000010000111100000
11111111111101101011000110101000
11111111111110111111001110010000
00000000000011001011101101010111
11111111111111011011100110101110
11111111111101110000110111100110
00000000000010111000101000010100
11111111111110011001110001111001
00000000000000100100110010101011
11111111111101100100011000011000
11111111111111111110110000010101
11111111111110111111100100010010
00000000001111000010000111101101
11111111111111101010000000001001
00000000000100000001111101010011
00000000000010111100100100001001
11111111111010101101011011110100
11111111111101110000010011101001
11111111111010000100010011011000
11111111110110000011110110111000
11111111111001100110010111111101
00000000000101000011100111110011
00000000001101111011011111111011
00000000011011100110101100011100
11111111110001100110100100000111
00000000000001001001001001110101
00000000000101110001000100011010
11111111111111110001111111010101
11111111111100101000101101111011
11111111110111100100001000010101
11111111111111001000001111001101
11111111111101000010111100100010
11111111110100001111111000111110
11111111100111110000111000101101
11111111111000110100011111101000
00000000000011111100000111000111
11111111111011001111011110010101
11111111111100100010001100110111
00000000001100011110110101111100
11111111111000111111010000100110
00000000000011000110001110011101
00000000000011010110111111100110
00000000000011011000110101101000
00000000001000000100001111111111
00000000000010000111000100101011
00000000000110101011010110000000
11111111111101110110011110111010
11111111111000011010000010110010
00000000000000010100111011011111
11111111111101100101101100100001
11111111111100101101001100000011
11111111111101000001001001111000
11111111111011011001101001011100
00000000000111100100000000000001
11111111111011011010101010001110
00000000000001101111100011110000
00000000000001111010111101011000
11111111111011110001011010001000
00000000000001010110001111101101
00000000000100100111001001001001
00000000001010100100110011010010
00000000000111011100110000111110
00000000000011111000001100110000
00000000000001110000100001001001
00000000000011110000101000111011
00000000001000010010010101000110
00000000000001100111010100001100
11111111111101101001001101000110
00000000000000010110000011011001
00000000000010101010001010100000
11111111110110010111011101001001
11111111110110110100011000101000
11111111111111010010100011000100
00000000001001100100101010011001
11111111110011100111100111110110
11111111110100000101100111110100
11111111110011110001110110010110
00000000000100011011010110101011
00000000000001011110001110001000
11111111110010010010110000010011
11111111110101111011111011010111
00000000000001000010011100100001
11111111111101010011110100110001
11111111111001010100111100101011
11111111110100101110100010011011
11111111110100110010110100011100
11111111111011101011110010101101
11111111111010110010010100101111
11111111110101111101010110011110
11111111110101101010101111011100
11111111111000101111100011001101
11111111111101110011101110111011
00000000000010101101110110111110
00000000000011110111101001010111
00000000000101111111011100100111
11111111111110110011100110001000
11111111111011010110111110100101
00000000000011001001110011100011
00000000000100001101001100110110
00000000001100111010000110010111
00000000000011001011110100110000
00000000000011001101011000101110
00000000000100100010110100101100
00000000000001110101111011101111
00000000001001000011101101010000
11111111111110000101001100110111
11111111111001111100101100010101
00000000000001011010000110111110
00000000000000100010001000111111
11111111111001010100010100110010
11111111111011011100001001010111
11111111111010101101100000111100
00000000000000011001111110011100
00000000000011110011101000001100
11111111111101111110011110100110
11111111111010001110010000001010
11111111111101110111001001100101
00000000000110111111101101011011
00000000000101110011000110011101
00000000001011101010010110010001
11111111111011110100111010011000
11111111110110000100110001010100
11111111111011101010111010011111
00000000000011101000001001000011
11111111110101001001010100001100
11111111110010000011011011100001
11111111111010011010011101011001
11111111111011001001110001101010
11111111111111111111100010111110
11111111110011111001110110111010
11111111110110001000101101011000
00000000001000100110010011101011
00000000000001011111101111101000
00000000000000001001100110000110
00000000001000101101011100100000
11111111111110010011010100001000
00000000000100110011010010000001
00000000000111011010101100101100
11111111111111101111111010011110
00000000001010011100011000011101
11111111111101101011111001101001
00000000000001110100010000111111
11111111111100001111110110101111
11111111111001111110110010111000
00000000001001100111101101000101
00000000000000010100100110110000
11111111111111000111100001010010
11111111111100111010111000101110
00000000000111100001010010100101
00000000000101100100100000100100
00000000001001001110111001101011
00000000000011010001111110101111
11111111111101000111111000000101
00000000001010101110100111001101
00000000000001000101000000110001
00000000000101100011101100101001
11111111111011110111100111110100
00000000000011100111000111000010
11111111111001110100101101100011
11111111111110001010001101110111
11111111111111000001110001111111
11111111111100111000000011100110
00000000000011100110111100001100
11111111111011000111101011101011
11111111111111100000111000001111
11111111111111001101100100010000
00000000000101010000011110110101
00000000000010111100010001001110
11111111111111001000011111011100
00000000000011101000001011111110
11111111111111101011101011100010
00000000000111010110001000001101
00000000001101000001111111010001
00000000000100110101111100100110
11111111110000000010101010011011
11111111111000101111100011101111
00000000000010000001111000110100
00000000001001000000101110101100
00000000000100001001100000001110
11111111101010111001100100011110
11111111110011000010010111101001
00000000000001100000011111011101
00000000000010110100110000111011
00000000000011111111111011101110
11111111101111000101110000011100
11111111101101110001000110011010
11111111110111101111011000010111
11111111111100110111100010011111
11111111111101001101101001111010
11111111110110100100100111000101
11111111110011100011001101101000
11111111111111010011111000111000
11111111111111010101110100101111
00000000000100011101111001001001
00000000000111001010011001001101
00000000000011011100101000011111
00000000000000011110111000110010
11111111111110100110101000110000
00000000000000110110111110110001
00000000000010111101110101101111
11111111111001100100000001110111
11111111111010101001110100001100
11111111111101111111010010010101
11111111111101001010110100101000
11111111111011000010011001110110
00000000000000111011110011001000
11111111111110101011110001011101
00000000000100110001000111000110
00000000001001001001011000100010
00000000000010111001101100110101
00000000000011000100000001110000
00000000000010111110100001010110
00000000000110001001011011001011
11111111111111100111110011000000
00000000000111111111101000011101
11111111111101000100001011110010
11111111111111001001100100100110
11111111111101110000100011001110
11111111110110100011010001111100
