11111111111110000011111111000011
11111111111101101000011101000111
11111111111110101111010110101110
00000000000000111100111000100100
00000000000000100101101000011010
00000000000000111000110001110001
00000000000010000111101110000111
11111111111111111011010110011101
00000000000000110011000000110110
11111111111100110101000000111001
11111111111100010101010111010011
11111111111111100000011000011001
00000000000000010001000101001000
11111111111101011000001100010000
11111111111100101001001110110111
11111111111101010000110101010101
11111111111101101000000111111010
11111111111111011001000100001110
11111111111101101000000011011110
11111111111111011000001010101110
11111111111101101111100010001110
00000000000000000011010100110001
00000000000001011101110010111011
11111111111111100010010010010010
11111111111111101111111101010001
11111111111111110011101010011110
00000000000000011000000011100000
11111111111101011101010101001110
11111111111110101110101011001110
00000000000010001010100011101101
00000000000001110111111101010110
11111111111110011001011111111100
11111111111100011001010000001011
11111111111101100001010110010101
11111111111101100110111001101101
11111111111100000101000110101101
00000000000001000101100111100100
11111111111100001011100110011001
11111111111111110111110001101100
11111111111100000101011001100010
11111111111101000101101111001111
00000000000010010100011001010010
00000000000001010100101101000011
11111111111101110011000110110011
00000000000010000101010110011011
00000000000001001011011111101110
11111111111101100101010000100010
11111111111110000010001111110110
11111111111100010100101001100011
00000000000010001100111100000101
11111111111100100010100101010011
00000000000010000000010101001000
11111111111100010000011100000101
00000000000010001001010011001111
00000000000000101111100010011010
11111111111111111111000001011000
11111111111111100110001111001100
11111111111111100110001001001101
11111111111100101001100001001010
11111111111111000101110100110011
00000000000001111110001101011011
11111111111100011101100000001100
00000000000001011010101110010000
00000000000001010110010101100011
11111111111101100001000010010001
11111111111101000101001000110111
11111111111111010001001001010011
11111111111111010100001100111000
11111111111100010000101011010001
11111111111101011010100000011100
11111111111111011100111000000111
11111111111100010001100000000111
11111111111100011000010000010000
00000000000000110101101001110110
00000000000000000111010010110001
11111111111100101011011011000000
00000000000000001111011110010010
11111111111111010100111101111111
00000000000000110110011000111000
11111111111111110101111101001101
11111111111100011100100110110010
11111111111110111000011011000011
00000000000000000110011000101100
11111111111101100100111001000010
11111111111110011001010101100111
00000000000010000111101101101101
11111111111101101001011001001111
11111111111101100111011100010010
00000000000001010001011011010111
11111111111110100110110000000111
11111111111101101010000100100100
00000000000001011001011001001110
11111111111110111011100010000010
00000000000001100000111100110111
11111111111111011010011101011011
00000000000001110101110100101100
11111111111110001111111001001001
11111111111100000111000110000001
00000000000000001001110011010101
00000000000001101011000010001011
11111111111101100111000100000110
11111111111111001001100010101100
11111111111100100111011000010010
11111111111111100001100001101000
11111111111111011111001010100010
11111111111110111111111110000010
00000000000010011001111101111111
00000000000010010110110110100010
00000000000000001110001010101001
00000000000000100111101110111000
00000000000001110111000101011110
11111111111111101110111101110100
11111111111111111001001011000101
11111111111111010100011110111111
00000000000001011000000110001101
11111111111100001001001011000101
00000000000000001010111110000010
11111111111101110110111010010110
11111111111101011010000010101101
11111111111111010110011100011011
00000000000001101111100101110000
00000000000001001010000001011001
11111111111100110000110111010000
00000000000000010111010010001111
11111111111100000100100110010000
11111111111101010001011011110110
11111111111100111011010110101111
00000000000000010001001111111000
00000000000010111000111000010010
11111111111101111010100100011101
11111111111111010100000101111001
11111111111101101111001101011010
00000000000001110000110111010101
11111111111101011111011000011011
00000000000001010110011011101001
11111111111111100100100110000101
11111111111101000110100011010001
00000000000000000110000010000000
11111111111101100000000010110000
11111111111100110011011100010010
00000000000010011001100110010110
00000000000001000011111111000011
11111111111110011100110100101111
11111111111111000000010101011001
00000000000010110000000100100101
11111111111100110001100000000001
11111111111110010000100110001010
11111111111100110001010111001000
00000000000011001010101000101101
11111111111110110001011001010111
00000000000001001001111000010000
00000000000000100001010110010100
11111111111111011011100000000011
00000000000000001101001100100101
00000000000011000110010000011100
11111111111110110000111100101000
11111111111110001011111000010010
11111111111111101111001001100101
11111111111111010001000001000000
11111111111110101101010001110011
11111111111100010110010000110111
00000000000000001000011001000100
11111111111101110110001111110010
11111111111111110110110101000011
11111111111110001111001110000001
11111111111111001110110101100111
11111111111111101011101010000010
00000000000001100011001110000100
00000000000000101010101010011100
11111111111111011110100110011001
11111111111111111000011000011100
00000000000010000101011000001100
00000000000010011011100111101011
00000000000010010110010000101010
00000000000001100110101011000101
11111111111101010001110011100101
11111111111100001100011101101010
00000000000001001010111010001100
00000000000000100100011111000100
11111111111110011011110111101100
00000000000000011101111110100100
11111111111101111001011100010001
00000000000000100001100010000101
11111111111101000101000011010110
11111111111110110000010000000110
11111111111111010001100101000100
11111111111100111111010101011111
00000000000001111010011010110011
11111111111101011011010011101001
11111111111110110110011001100000
00000000000001101000000001110110
11111111111101110110001110001110
11111111111100000101100101111111
00000000000001100010011100101001
00000000000001110100001110011010
00000000000001101001100111110001
11111111111110001111000001100010
11111111111110001101100100111011
00000000000001001111011010000100
11111111111101100000101010111010
00000000000000100011010001100111
11111111111110010010101001111101
11111111111110100011100111010100
11111111111110000010000100100111
11111111111101010011110000101010
11111111111111010001110111011010
11111111111110000101101111101111
00000000000010010011100011101110
11111111111101001001000101001010
00000000000010001011100000010010
11111111111101101111000110010101
11111111111111110000100011111011
00000000000001000010011111100111
00000000000011110001010110010000
00000000000000101100010101110100
11111111111111011101101100110110
11111111111101101110011100010000
11111111111110010011111011101111
11111111111111101101000110010100
11111111111111001101110111100111
11111111111110110100010010010000
11111111111110011111000011000111
11111111111100000110001101101010
11111111111111001110100101101101
00000000000001100010001111001000
00000000000000000010011101101011
11111111111100110101000110010001
11111111111110001110101100011111
11111111111101011010010100110001
11111111111101100111001001100110
00000000000001001010000001101101
11111111111110001001101111011011
00000000000000000111000100101010
11111111111111000101111110001010
11111111111110000010011011000100
11111111111110100111110010110010
11111111111111011110101101001101
11111111111110010100111000001101
00000000000001111100110100101101
11111111111101100101010101110101
00000000000000100111110001000101
11111111111111001000101011000010
00000000000010000001011010110001
00000000000000000101001001001000
11111111111110011101011101001010
11111111111100111101101110010101
00000000000000000100111010000100
00000000000001110001000111100001
11111111111111101101010101110110
00000000000000001011011011101100
00000000000001001101000100001010
00000000000001010010010001010110
11111111111110101000000101000010
11111111111101101011111010011010
00000000000010010101011111100011
11111111111101100011110111011010
11111111111100001111110101101110
11111111111101001000011111100010
11111111111110000101000000110001
00000000000000010110111001011100
11111111111101011011000110001000
11111111111111111111110101010000
11111111111110100110000100010011
11111111111100110001010000111001
11111111111110001010010011011000
11111111111110111000001001101110
00000000000000110110001001111000
00000000000000011110100001111000
11111111111111100000000101001101
00000000000001001000101001101110
00000000000010001010110001010000
00000000000001110001100100101110
11111111111101100110101010101100
11111111111100010110000011011101
11111111111110000101000010101010
11111111111110001111010000011111
00000000000000001110101001111111
00000000000001100110010010000000
11111111111111100101010101100101
11111111111110010101001100100101
00000000000000110110100110100111
00000000000010011100100011001111
11111111111110000011000001000110
00000000000000000000000001001001
11111111111110110100111110100010
00000000000010010001000111011001
00000000000000001101100100100000
11111111111101011001111101000110
11111111111111001101111011011000
11111111111100110100000111011110
11111111111110001110010101110100
11111111111101001101110001101110
00000000000000010110110101101111
11111111111111110001000100101010
00000000000001110110111001111010
11111111111111100001111001101010
00000000000011101011011111000000
00000000000010000111010101110000
11111111111110101011001100000000
11111111111100101110001101101101
11111111111110110111011000001101
00000000000000000010111111001010
11111111111111110000000100100001
00000000000000000000100101110100
11111111111100111000100101101100
11111111111111011001010011110101
11111111111100110101111101110111
00000000000010011001101111001101
00000000000010000001100110101101
11111111111111001001100110000010
11111111111101010010111010011110
11111111111101110101100010101111
11111111111110011010011011001110
00000000000000101011100111110010
00000000000000100100001001111010
11111111111110101001000000001110
00000000000001111001011001101111
11111111111110011000100111111000
11111111111101101101110011101110
11111111111100111011001101010011
11111111111110001101101001110011
00000000000000010000010011110001
11111111111111001100100111001111
11111111111100000100111001011011
11111111111111011011111110011000
00000000000001000011010011101000
11111111111111111000001100110001
11111111111111010100000001101000
11111111111101101000010100100101
11111111111110001000101100001110
11111111111110000100111111011111
00000000000001110111011011001111
11111111111111110011010100000011
00000000000000100111100110110101
11111111111101101010001001000111
00000000000001101110101001010111
11111111111101101010100001111000
11111111111101011000101100001001
11111111111100011100101111101010
00000000000000000011111011001011
11111111111100110101011110000010
11111111111100001010100001000011
00000000000010001000011110111011
11111111111101101001011000011101
11111111111100001010111010001011
11111111111110101001111001101111
11111111111100001001001001100011
11111111111111101001110111110111
00000000000001011011101100111111
00000000000010001001011000110100
11111111111101100111111010101111
00000000000001111101111101100011
00000000000000000111110110011101
00000000000000100100011011110110
00000000000000001011010001110000
11111111111110111111100100011111
11111111111110101011010010110111
11111111111101110110111110010000
11111111111111100110001101101000
11111111111100101100011101110001
11111111111101101111100001101110
11111111111110010010110000011001
00000000000000001110011111100001
11111111111101100110011100110110
11111111111101100101111001000001
00000000000001000110101100101110
11111111111101000100011001100001
11111111111111101001111000001101
11111111111110101101100110101101
11111111111101010001101101100010
11111111111110100101000010011001
11111111111101100110001110100101
00000000000001001101001111101100
11111111111100010011010001111001
00000000000001001011010101010000
11111111111100101001010100111000
11111111111100010001111011000011
11111111111101010010100001000100
11111111111101011001011100100110
11111111111110000111001110101110
11111111111111101111010001001001
00000000000001001101101011100110
00000000000001110110100110010101
00000000000000001001001110000010
00000000000000010011011000001010
11111111111110100010011111011000
00000000000001000101011111010001
11111111111110010111011011100110
00000000000010001000100111001000
00000000000010010001001111111110
00000000000011111101001101111101
11111111111101110101000011110100
11111111111101011110100011100001
11111111111111011000101111011100
00000000000000111010110110011111
00000000000001010100101100111111
11111111111110111101011110110101
00000000000000001001110000001001
11111111111100110111101011000010
00000000000001000100111111100000
