00000000001000100101111100011010
00000000001100000101000100010001
11111111111001100110101111011000
11111111111100100111000101001001
11111111111100001101110000010101
00000000001011010001001100111011
00000000000001100110010010111010
11111111111011101101000111010000
11111111111000100100101001001111
11111111111101100011100010110000
00000000000100000010010100110001
00000000000111000111111101100010
11111111111110100111111001010111
00000000000000100000001111000101
00000000000001010001111110011101
00000000000000100100011110000000
00000000000011110000001111101011
11111111111011100011010110010111
11111111111101000100111100011001
00000000000110000000100001111110
00000000000000111011111101011010
00000000001001101101001000011010
00000000000010110100110011001111
11111111111101000111100010001001
11111111111110101110001101101111
00000000000010100101010100010100
00000000010001001000111111010010
00000000010001010100101100000110
00000000010000001110001100101001
00000000000100110101111000001111
00000000000010011000000011011110
11111111111100111110001010000110
00000000000001001111101011111010
00000000000110110010100011100100
00000000000101100011100110000101
11111111111000001101110000010010
11111111111100100101001100001000
00000000001001010010001010101000
11111111111000010100110000100111
11111111111101101110011100110101
11111111111000000101011111111111
11111111110110101001010001100111
11111111111001110101011111111111
00000000000001010010100001001110
00000000000111101001010111101000
00000000001010101100111010001010
11111111111000010010111001011111
11111111111100111110101100111101
00000000000010111110111110000110
00000000000011111110010001101100
11111111111000010001000011000011
11111111111101001111101101001101
11111111111101001000110101111000
00000000000001100001111101111011
00000000000010011111100000111010
00000000000001111000000000010100
11111111111101100100010101010011
11111111111101010101011001111100
00000000000101001010100001011001
00000000000010101111101001001111
00000000000011100001011011100110
11111111111110110010111110110101
00000000000010101111101111100010
00000000000001001000110010010010
00000000000011111000010010101000
11111111111100101000101110101110
11111111111110101011001110001010
11111111111110011010110000000010
00000000000001111101010101001111
00000000000011100101100110101001
11111111111111011011111011010001
11111111111010101010101101100000
11111111111010100011101101010101
00000000000100011000010000010011
00000000000110100110111011001001
00000000001000011110100110010111
11111111111111110010011100100001
11111111111110010001101100100001
11111111111110111100000100011100
11111111111010101110001001010010
00000000001001011111101001111001
11111111111111101001011011011101
11111111111010101100111111110001
11111111111110101111011000100001
11111111111010001100011011111010
00000000000100001111000101111010
00000000000100011000001110101111
00000000000101010110101000101100
11111111111110001011100110100110
00000000000001101111111110000100
11111111111111010001110110010010
11111111111101100101111000001011
11111111111111101110001011001111
11111111111100000000010101000010
11111111111111101110000011101100
11111111111101110000011001000000
11111111111010101010111100000010
11111111111000100110000011000101
11111111110101110110101100001000
11111111111110001001100011110011
00000000000101111100100001011001
00000000000101000110010101001010
00000000000110110001101101000011
11111111111101001000011011000010
00000000000001100011101001000011
11111111111101111100010010100010
00000000001000100010001000011010
00000000000100010001100001101111
00000000000101110100111001101101
11111111110111011111110110011100
00000000000001011111000111011111
11111111111101011100001101001011
00000000000100010101001110010001
00000000001001001100010011001010
00000000000110000110111100110000
11111111110110011110000100010110
00000000000000000000010111000110
00000000000001010101110001000010
00000000000001100010000110100010
11111111111101100000010110011000
11111111110111011101100101011001
11111111111110101011011000100000
11111111110101110010101111110101
11111111111101011101010111001000
11111111110111010101011000110000
00000000010000100111100011011011
00000000000100101010011011011010
11111111110100001001110011001110
11111111110100101000011110110100
11111111110011001011010110110011
00000000000011111000011101011000
11111111111001100110001011011111
11111111111101011001000111100000
11111111111011111100100101101101
11111111111100011110000101101011
00000000000011100100010111111101
00000000000000010000001010001000
00000000000001110000000010001001
00000000000101100110010100111001
11111111111100001111010111101000
00000000000100111001110011110000
00000000000011101110000010101000
11111111111100100000010110010101
00000000000110111111110101010100
00000000000101110011011001001111
00000000000000110100100100100101
11111111111001010110100000110010
11111111111101001001110110001011
11111111111000110111011000110001
11111111111011100101000000011010
11111111111111000011010001100000
11111111110010110011100000101010
11111111110101101001011111010101
11111111110011001000100011101011
11111111101111011100011100110010
11111111111110110000001101101100
11111111111101100000011111011100
11111111111100011110010001000111
00000000000001110111000010110001
00000000000000111000100100011010
00000000000001110011001111101000
11111111111111100110001111100010
00000000000111011000010111001010
00000000000110000101000011111000
00000000000101111001100111000110
00000000000011110111101011100010
11111111111111100100011010110011
00000000000010001010001110101000
00000000000001001111100100100100
11111111111111011000001000101011
11111111111111100100000100110010
00000000000000110011101010011111
11111111111001001000100110111111
11111111110010001110111110101101
11111111111010000111100000111101
11111111110111110011001111000010
11111111111011010101001011110111
00000000000101101010100001101111
11111111111111100001001010011110
00000000001001000011011010111111
00000000000101110010111100010001
00000000000010001000110111001010
11111111111001110111001011101010
00000000000011100100110101001110
00000000000010011001110100101000
00000000000000000000010000110101
11111111111001111001111001111011
00000000000010100111101010011110
00000000001010011100110111000001
11111111111010100101010010000000
11111111111011000001111100101110
11111111111111011001111011111100
00000000001010011111010010111010
00000000001001010010110001011000
00000000001000111000000110101100
00000000000011001101010111000100
00000000000100101111101111100100
00000000001000111010010010100101
11111111110001110110101000110110
00000000001001111110011010001000
11111111111011101011110100011100
11111111111110101000000000000110
00000000001111101011011110101101
11111111111111011110110011010110
00000000001011100100011010110001
11111111111101100111100010111100
00000000000100101101111010001110
00000000001100011000101111000001
11111111111101110111000111011010
00000000000110011010010110100000
00000000000001000101111111000010
00000000000000010010100011010001
00000000000000111110001001100100
00000000000101001111011111110100
11111111111110011011111111000100
11111111111010111001011111011100
11111111111000011010111100000001
00000000001000011100110101001111
00000000001111000010111100100010
00000000000000000111100101111111
11111111110011100001110001100000
00000000000110100000100001010000
00000000001010000101111100011000
00000000001000000101011000011110
11111111111001111101100000000101
00000000000101101111110110010000
11111111111011110101101001011010
11111111111111100001011110010001
11111111111011011011010101110011
11111111111110110101001011001001
00000000001000011001000000010011
11111111111110111011110001110011
11111111111100111101101100011100
11111111111010101110010011001011
00000000000010101100000010100100
00000000000000001100011010110011
00000000000001011100010010000110
00000000000010101111001111010010
00000000000100110100000010001000
00000000000001010110011100011010
00000000000010111000100010100011
11111111111001101101011111111010
11111111111100011001010000010011
11111111111100111111000111101001
11111111110011011110001001111011
11111111111110011101010010001110
00000000000100000101101100100001
11111111111101011110011000100011
11111111110011011000101111001010
11111111111101010110011100000111
11111111111111110100101110000010
11111111111110110000110010000111
11111111111100111010101110010001
00000000000011010110110111111110
00000000000000111100110111111110
11111111111110101011110000011110
11111111111001111000000110000111
00000000000100110010000101000011
00000000000010101100000101000000
00000000000110101101010001001100
00000000000000111000011011110110
11111111111111101011001110010111
11111111111011011111111111010100
00000000000011110110101001011011
00000000000001101100110111101100
00000000000001111100100101001100
11111111111001101010110101000000
11111111110110100100000001001111
00000000000010000110001010011001
00000000000011001101101101001101
11111111111100010011010101001000
11111111110100110010110011010000
11111111111000011100110010101011
00000000000010001011011000111100
11111111111101110010111100010010
11111111111011011100000101010010
11111111111100011101110010000100
11111111110110111001010111110100
11111111110101011010011000011001
11111111111011100110011110011100
11111111111110011101001100101101
00000000000000011110100001010110
11111111111111110100001000011101
00000000000001000110100110011010
11111111110110000111010101111111
00000000000101100100111100010101
11111111111100011101000100000001
11111111111011010110001110010101
11111111111101100101001100001000
00000000000010110110000010010011
00000000000101000101000010000001
11111111111001110101000011110111
00000000000100111001001100101011
00000000000001001100101001000011
00000000000111010010111010111100
00000000001001111011111110010001
11111111111010110110001001011101
11111111111000001100000000101101
11111111111011001100100000100000
11111111111000110010100100100110
00000000010100100001100111010110
00000000001010010111100110000011
11111111111110100101110011110101
11111111111001101001101000010110
11111111111001000010000110110011
00000000000100110010110100010111
00000000000010001101101010001110
00000000001000110010001101111111
00000000000010011010001100100010
11111111111001101101001000110100
11111111111101100101001000111110
00000000000001100100101010011000
11111111111100101011011100111010
00000000000100100001111101100110
11111111111110111110111000011011
11111111110100100101001100111011
00000000000001101000000001110010
11111111111010000110001010110111
11111111111100111100101011001110
00000000000001101011100011111100
11111111101011010000011011010011
11111111101000001010100100101010
11111111111100110101101001000001
00000000001000100100000011010000
00000000000011000000110111110100
00000000000010000101001101110111
11111111110111010011111011110101
11111111110000010111100000110011
11111111111000110011101000110110
11111111111010111100111001010000
00000000000110011001001010001001
00000000000100110001100111100011
00000000000000100010100101001011
11111111110111101010000011101101
11111111111101111101101011000111
00000000000011010101011001101010
11111111111110110011000101001010
11111111111100000100010010111001
00000000000001101111011000110100
00000000010000010110110100000110
00000000001011010110111000011110
00000000000000010110100000001000
11111111111000100011010001011100
00000000000110011101110110011111
00000000000110001110110011111101
00000000000101111010011000010101
11111111111101001001101100100001
11111111110111001101101111011000
11111111110010010101100011000001
11111111101110100000011011111011
11111111110110100010001110010110
11111111111110011110010011100101
00000000000011110001011011000100
00000000000101100100111111001101
00000000000010011101011100000011
00000000000001100010100101011010
00000000000000000000110001100101
00000000000001011010010100101110
00000000000100010001001010011111
00000000000000100100101001010011
00000000001011001001110011101010
00000000000100011111001110010011
11111111111100111111110111010011
11111111111011110011110010001110
00000000000010011110101011001000
00000000000000000001001001111100
11111111110111011101000001010101
11111111110000111100100000100101
00000000000011110110101111101010
00000000000000111110101011111011
00000000001001100101000011001011
11111111111000111000011011111010
11111111111011100100101001110110
00000000000100110011010010011000
00000000000011011111101101101010
00000000001000010110101111011111
11111111111011010111100010011101
11111111110100000111001000011100
11111111101110100000101010001001
11111111110110011000110000101111
00000000000111001100011111011111
00000000000101101110110000110001
00000000000001110101000010110110
11111111111100011000100001011011
11111111111001110111101110000101
00000000000010000000001011110001
00000000000010101011111110111001
00000000000101010010100000100010
11111111111111011111000010110000
00000000000111011110010100100110
11111111111100101101100101011111
00000000000100110001001101001111
00000000000001010001011100111100
11111111111101111011101111011001
00000000001001011101100110010101
11111111110100111011000000010101
11111111110010000001101100111000
11111111111001011110101100011011
11111111110111100011011001011111
11111111111111100001111000001000
