00000000010000000111010011000110
00000000000010100010101001101101
11111111111010101100111011011001
11111111110000111111001111101111
00000000000001010111000110111111
11111111111100101011010110111100
11111111111100100001001111000010
11111111111000011100110100101111
11111111111011001100110110100011
00000000000010100010100100011100
11111111111101101110001011010100
00000000000001000111000011001100
11111111111110001110000110110010
00000000000001001100001000100011
11111111111111101010011100001111
11111111101100110110100001111111
11111111110100011000110010100011
11111111111111101100111100111001
11111111111011011011011001010001
00000000000101010101000100101011
11111111111101111110101010100101
11111111111100000000110100011000
11111111111101110000010100100011
11111111111110010110011111101101
00000000000111010111110101010001
00000000000000000001101111101001
00000000000100000110001111001110
00000000000110000100110110100101
11111111111110110010100111010111
11111111111110111110100001101110
00000000000110110001001100101100
00000000000110001111001011110010
00000000000101000111000001001000
00000000000000100011010111010101
11111111111010100001001010011001
00000000001000101110001011110011
11111111111101111100100011101110
00000000000100010111110110100110
11111111111101110100011011101111
11111111110101110010010011110001
11111111111101101100111110000101
00000000000101011111001111001011
11111111111111001101110011000100
11111111110110100111000111001001
11111111110101000010010011110101
11111111111001111011000011000011
11111111111010100111111011101101
11111111111001110100001110111000
11111111110111010011001010001011
11111111111011101110000111111010
00000000000010100111101111000110
11111111111110000011110001101110
00000000000001011011001001110010
11111111111110010101110100011010
11111111111110101010001000011010
00000000000000101010101001110010
11111111111110011011010001100101
11111111111011001010010111111101
11111111111011110000100111100010
11111111111100111001011010001010
00000000000110111000011111110111
00000000000000110000100000010111
11111111111101011011011101100101
11111111111101001101000110000100
11111111111011001110101110001010
00000000000110100010001011111001
00000000000110100110101100011000
00000000000001110001001110001111
11111111111011100001110110101110
11111111111101110000011000010111
00000000000011111010111100011001
00000000000010011101001111110001
00000000000001010000000110101111
00000000000001010100110101111011
00000000000000110011000011011001
11111111111000001011100000111110
11111111111011100111000101101110
11111111111101100000001000101101
11111111111010000011100000110100
00000000000001101110101000011110
11111111111010111110100100100110
11111111111011000110111110110001
11111111111011001001011101001001
11111111111101110010110110100101
11111111111101000011111101001100
00000000000000000100001111011111
11111111111101000110000010100100
11111111110111010010001000011011
11111111111000111001000001110011
00000000000010010110010011111101
00000000000001111000000101110110
00000000000101100010000100100001
00000000000100010101011011110010
00000000000110001110001001001011
00000000000101010100101110111010
11111111111111011000111001110001
00000000000001111001111011101010
00000000000001100111010010101110
11111111111110101010000101111101
00000000000101011100011111111001
00000000000011010110110100100110
00000000000001111001001101000101
00000000000000111000101000000011
00000000000001110100000000010001
11111111111101111011110111001111
11111111111111010101110110101000
11111111111111000100110011111000
11111111111111001100000011000100
00000000000011011011110011010000
00000000000011011101000001100000
00000000000110100011111100111101
11111111111100101110110110000110
11111111111010101100101000101111
00000000000000101010010011000010
11111111111110100010110100111100
00000000000011011111111011100100
11111111111111010100101011110010
11111111111101010000011011100111
00000000000010101100011101101101
00000000000001001000100001110100
11111111110110110011101000001110
00000000000000001011100010001011
00000000000011000101111001111100
11111111111011101100011110000001
11111111111100101111111000111111
11111111111110100101011010110111
11111111111100001111101100110000
11111111111001000101000100110011
00000000000001011010011000010010
11111111110101000011101001100110
11111111111100111101100100100110
11111111111111100011111010001001
00000000000000111000011001001101
11111111111100110011101000010011
11111111111001111001101100001000
11111111110011011100010110010011
11111111111011110000000000100101
11111111111000011101001100010010
00000000000010110101001111111110
11111111111111010000101000000100
11111111110110011001011001100110
11111111110110111001011110111001
11111111110101101110111111000011
11111111111100000010000000011101
00000000000100011101110010111100
11111111111111011001011010000110
00000000000000101011101111001101
00000000000110110100010000100111
00000000001000010000010000110101
00000000001110010011000001100010
11111111111110111001111111111111
11111111111101101010010010101111
11111111110110001011011111011001
11111111110011101101010011010001
11111111110101001101000101000101
11111111110110010100001010111100
11111111111001010110110100111100
11111111111101000100001010001010
11111111111100101010011111000001
11111111111110001110001100101000
11111111111101011111001011101111
11111111111111101000000000001001
11111111110111110011100111000101
11111111111110110010010011111000
00000000000100101101010110100010
11111111111001001110110000100010
11111111111111001110000110000100
00000000000101101101110010000111
00000000001010101110001110010001
00000000010000001100101001101011
11111111111110101110101010011110
00000000000001010101110110010010
11111111111111010011001011110110
00000000000001101001111101111001
00000000001100000000111010010110
00000000000010100010101101111001
00000000001011110111011110110010
00000000000110010100000101110110
00000000000010111001101101110010
00000000000010100010101110001000
11111111111000111010000010101010
00000000000101000111100001111100
11111111111101001110100101111111
11111111111101110010100101100010
11111111111101001110000101100100
00000000000000001000110011111100
00000000000011110110100100000100
11111111111101000101110000111111
00000000000001110111011010100000
00000000000001011101010100001010
11111111110100100011011010001000
11111111111111110101111011111101
11111111110111011001110000011110
11111111111100110011010100000110
00000000001010100000110100110100
00000000000001110010100000000011
11111111111110110110100110010100
00000000000101110111111000010000
00000000000000111000100110110110
00000000000100111000110001100111
00000000000110010110010101111101
00000000000100101101101110110110
00000000000000110100110101010000
00000000000111001100000001001011
11111111110100100101100010010100
00000000000001010100111001101100
11111111111100001010010101011010
00000000000000000010100110111110
00000000000101001110000001000010
00000000001000111110010110001100
00000000000011000010101001001011
00000000000010100000000101001011
11111111111111111000101100000100
00000000000011111001100101011100
00000000001111110100110000101000
00000000000001101011011000100000
00000000000101111100001010011000
11111111111101010000111011011000
11111111111101100011010100001111
11111111111000010100010100001000
00000000000110000011101110110000
11111111111111001110101010011000
11111111101111000000100100101101
11111111110000100110001001010110
11111111101111000100000111100010
00000000000001010001110010001110
00000000000100110011110010111011
11111111111110011110000001001011
00000000000001000010110010110011
11111111111001111010100100100101
00000000000011010011110100101001
11111111111100011010111000011101
11111111111011101010111010101010
11111111111111001001011010001000
11111111111111111100011000011010
11111111111110101111101101000011
11111111111111011011100100000011
11111111111100010111001001010001
00000000000010110000111101000111
00000000000011001011111011011110
11111111111101111110111111010101
11111111111010010100011010100100
00000000000101101010111010101100
00000000000000101101110100001100
00000000000100111000011001010001
00000000000000100010111111111110
11111111111101100111001001100001
00000000000010011101010010001001
00000000000001010111011101111001
00000000001001110100110011111100
00000000000000011001001010101001
00000000000110101111000010011110
00000000000110101000011011011111
00000000000000011011100111110000
11111111111010001000011111000010
00000000000101111010011010011000
00000000000001110001000000100001
00000000000011101011100101011001
00000000000110101010111000111101
00000000000000110000010101000101
00000000000010111010100101000100
00000000000001101101110110010000
00000000000101000001110101100101
11111111111110010110011010000011
00000000000100110011111011111011
00000000000101000000101000111000
00000000000011110100010110011011
00000000000011101101110001110101
11111111111110010101001000000010
00000000000111100100101111010100
00000000000100010001010100010110
00000000001000010010110101101101
00000000000111111101111111100011
11111111110111000101001001110101
11111111111101111010100000000100
11111111111011110010110100100011
00000000000001100110100000101111
00000000000010101001000000010101
11111111111110100011101110110000
11111111111010110101010110100000
00000000000111000100100000000101
00000000000111011101111110010111
00000000000000110000101110111011
11111111111110110110100001011100
00000000000000101100110101001100
11111111111100110100100111100110
11111111111101111011100000001111
11111111111101000111001111001010
11111111111110000000000001111111
11111111111111000110001111011101
11111111110010110001101100001110
11111111111111011001111000000010
11111111111000010101000100111000
11111111111011100011111100001100
00000000000001101010000111110000
11111111111100011111101001111011
00000000000011110100011101100010
00000000001000001101110001110111
00000000000010101101001001001011
00000000000100100011111011100100
11111111110111001101110010000001
11111111110111111110010101101000
00000000000100100010000100101001
00000000000001111100100010111011
00000000000000100101100100000110
11111111110010000001011110011100
11111111110111001101010000100000
00000000000111110100101101000011
00000000000001011011100001110101
00000000000110101111011110000001
00000000000001010001110100111111
11111111111001111101001011011101
11111111111100110000011011011011
11111111111011100110001100010001
00000000000010110111100010000110
11111111111111001101011101001110
11111111111111101101010110000101
00000000001000000101101000011101
11111111111011000001101101000101
00000000000000011111010101000111
00000000001000111111001100000000
00000000001010000110000011001010
00000000000001111110001010001011
00000000000000011101000101011100
00000000000101111001010100111101
11111111111010001011010110010011
00000000000011001001101110100101
11111111111110010101010111001111
11111111111110110000000101001100
11111111110111000001100001011010
00000000000110010100111101111111
00000000000000011110111000101011
11111111111010100101101000100101
00000000000010110011010100000001
00000000000000101011101010001000
11111111111100100101111011011110
00000000000010101101100111110001
00000000000110100101100010101111
11111111111100001110100110101000
00000000000001000001100010001100
11111111111100001101000010010100
11111111111100110000111100110110
11111111111101000111011000000010
00000000000100110100100011001100
00000000000110110110100001110011
11111111111010110011111110110001
00000000000001110111101001011001
00000000000100011111010110010111
00000000000100110010111110001111
00000000000101101000000001100001
11111111111111100111011100111110
11111111111001010110000101100101
00000000000010001001000100110100
11111111111110000010011000011111
11111111111010010001011101100000
00000000001000110001110110100010
00000000000101010101010111000001
11111111111111010010001110001010
11111111111100101011001010110110
11111111111010110100001000011111
00000000001001101110101110110000
00000000000101110100100101000000
00000000000111000010101011111101
00000000000001110110000110110010
11111111110111100110010101010001
00000000001001111001111111000000
00000000001111110101101011011110
00000000000111011000101011011110
11111111111100111111100101000011
11111111111000100011110001011001
00000000001100001110111111110011
00000000000101110111110000010000
00000000000010000110010010010101
11111111110111010000000100111100
11111111110110110011001000111010
11111111110111101110000111111000
11111111111101010110010100001110
11111111111100111010111110010110
11111111111010001001100111001001
11111111111001110001010101010010
11111111111001010111000111110000
11111111111111101011001101001011
11111111111110101110110100110100
00000000000000011000111010000100
11111111111011000100110100111101
11111111110101111100101110010000
11111111111010111011110100101100
11111111111101010001110010010101
11111111111010010011101001000110
11111111111111100101111010100110
00000000000100001111011111101011
00000000000010001101001100110001
00000000000010100101001010001111
00000000000001100101011111111001
00000000000100101111001110001011
00000000000001101110100101001110
00000000000001100111111010010111
00000000001001000100110011011011
00000000000100110110100001100100
00000000001101101101001010111111
