00000000000001110100000110110011
11111111111011010110101011100010
11111111111100111001000000001010
11111111111011111010000100100100
11111111111101010100110011100101
11111111111011101011100110011111
11111111111010110100100111000101
00000000000010100000000101000010
11111111111110111011110011110111
11111111111110111000010111001101
11111111111111001011001110001011
00000000000001110111111001111010
11111111111110001011001011111111
00000000000000111000001110000011
11111111111100001110000000111010
11111111111111101101100100101110
00000000000000000100000110010111
11111111111100000101111100000110
11111111111110000100100100110000
00000000000000111010001111111111
11111111111111101110001000110011
11111111111101111101101001100001
11111111111110010100100101111111
11111111111011110001001100100110
11111111111110010100110011000001
11111111111100001001011110001010
11111111111101101100001010101001
00000000000010001100110010110011
11111111111101000100010000110011
11111111111110111110100000010100
11111111111101000101000101100001
11111111111100001110100101101110
11111111111100001001001111010000
11111111111110111010010010010001
11111111111110111100111111010011
00000000000001010111011111100111
11111111111011111010101111010101
11111111111100001101011101111101
00000000000000110001111111000010
11111111111011101110100010100011
11111111111101111000101000101000
11111111111011011100101000101110
00000000000001100011011010001111
11111111111111111111101111110000
11111111111011111011110010011010
11111111111101111111100111110100
11111111111111011011011100000010
11111111111110110011010011110010
11111111111110010101010001100111
11111111111110110110111110110101
00000000000000001100001011000100
00000000000000000001001011101111
11111111111101110111100010110010
11111111111011010110101101111000
11111111111111110010000010111000
11111111111011010001010100010100
11111111111111111100001100001000
00000000000000000110101101010010
11111111111110101101010000010111
11111111111011001010010100001111
11111111111100001011000000001000
11111111111110101001100100111111
00000000000000001100100100110001
11111111111100101000100001011010
11111111111100100001011110110101
11111111111101010111100100100100
11111111111100000111001111001010
00000000000000111100001011110100
11111111111100000110111000010000
00000000000000000001010100110000
11111111111111100100101011111001
11111111111010101011010001010110
11111111111100111110110100001011
11111111111100001000000000101111
11111111111011100111100000101011
00000000000000011000111011101000
11111111111100110011100111011111
11111111111110100011000010110011
00000000000000010001001001011100
00000000000001000011111111010110
11111111111100101110100110000100
11111111111110000110101011100110
11111111111100010100001000010101
00000000000000000000001111111110
11111111111110111001100111000010
11111111111111000101010111111001
11111111111101000111011111111110
11111111111111001111000100011110
11111111111110000011110010011100
11111111111111011000110101010110
00000000000000000110001100011010
11111111111111101010000011000101
11111111111011100110001100101111
11111111111101100111111011010011
00000000000000100111011000000100
11111111111011011100000011000100
11111111111100101100010010101001
11111111111110110010100010111010
11111111111100000100111101010110
11111111111110100101110100100100
00000000000000000100010101011000
11111111111100110110011010010001
00000000000000110010100000110100
11111111111101011001011001110011
11111111111101100110111001010110
11111111111011100010111011101101
11111111111100000000100010000111
11111111111110110110100001001100
11111111111110011001100100101001
11111111111111101101001101111011
11111111111010111001111001001010
11111111111101100111100110001001
11111111111100111011001011000110
00000000000000111100010000111100
11111111111111100001100011111110
11111111111110100010000111010111
11111111111101000001000111110011
11111111111111101101110110011001
11111111111101101001110001010000
11111111111101010100101110101111
11111111111110111110111110010110
11111111111101000101011101110011
11111111111100001010111001011000
11111111111110111000001111000001
11111111111101101110010000100010
11111111111101000001111111100011
00000000000000001011011100011010
11111111111101011100010001101011
11111111111110011111010010011000
11111111111010101011111110111001
11111111111111100101101111011000
11111111111101011111110000101100
11111111111101111000010101000101
11111111111110010111011101111001
11111111111010110111001100000111
11111111111111111100110111000111
11111111111110101001101101001101
11111111111101111000011101110001
00000000000001000101000010000011
00000000000000010111101111101001
11111111111100000110101100001100
11111111111110100111010110110010
11111111111111010111101111010111
11111111111110011101000010110011
11111111111011100101110001111110
11111111111110000001111111000000
00000000000000001001101001100011
11111111111110011100101110101010
11111111111101101111101001011101
11111111111110101110011101011100
11111111111110100011001011101010
11111111111100110001010001111111
00000000000000100101000110011000
11111111111100111111111011001001
11111111111011100011011011000111
11111111111110001001110011110110
11111111111111110000111001101001
11111111111110101111110011000010
00000000000000111111000011001001
11111111111111010010101110010011
11111111111111000000010101100001
11111111111111110011100100000010
00000000000000100111100101111110
11111111111100100100101000011100
11111111111001011010110000100110
11111111111111000101011011001001
00000000000000010101110110100101
11111111111100101111011000110100
11111111111101111101110011001011
11111111111100100001110100111100
11111111111101100011100100100111
11111111111110101011011010000110
11111111111111001100000110011110
00000000000010010110111011111111
11111111111011110100011001101100
11111111111101100001001100100100
11111111111011000011100110010000
11111111111101110101000000001100
11111111111100111101110110001010
11111111111111110101110001111100
11111111111001110110010010001011
11111111111100100010111101110111
11111111111111100000100101011101
11111111111100111001111100110111
11111111111110110011100000111100
11111111111110110011101000100111
00000000000010000011111110000111
11111111111100111000111101111111
11111111111110100000001011110111
00000000000000100111110111001110
00000000000000110100001000010100
11111111111111011011010111011010
11111111111110010000100011101001
11111111111110001101110001110110
11111111111111110010001011001011
11111111111001111001101001111011
11111111111110001001110001110101
11111111111110001011011000111110
11111111111011010111000101111011
11111111111111001111100000011001
11111111111101101100000011111110
00000000000000010110101011010010
11111111111001101111011100001110
00000000000001010111001001011001
11111111111110000111000111111110
11111111111110010010111100111111
11111111111010000111110001100101
11111111111101011010011111001100
11111111111010011001010111001110
11111111111100000101010010010010
00000000000000001011010000101000
11111111111101011111100000100110
11111111111111001110100101001100
00000000000000101111101010101111
00000000000001100000000011000010
11111111111111100000000111011111
00000000000000101000101101111001
11111111111110100100001000000100
11111111111111101110110100001011
00000000000101100000100100111100
11111111111101111001110111101000
00000000000000010001011001110111
00000000000001100000110100000011
11111111111111011011110010111101
11111111111011110111011011011110
11111111111111111010100000010000
11111111111101110001011100111011
00000000000000010100111010101010
00000000000001011011011110010100
00000000000001100111101110001000
11111111111100100011000000110001
11111111111101000000111001100101
11111111111011001011111010000111
11111111111110101010110100100100
11111111111111101100011100011001
11111111111111101101100111001001
00000000000001010100011001011100
11111111111101011101100100100001
11111111111101000000100010110010
11111111111101000101101100000100
11111111111101100001100000000001
11111111111110010001110100001001
11111111111010111000011010001110
11111111111111110110100000110110
11111111111111111110001110000000
11111111111110010111011000100111
11111111111011100100010001101010
11111111111100001111010010001000
11111111111101011101000101111001
11111111111101000101101100100101
00000000000001001000010111111011
11111111111100010001001001000010
11111111111101010011100001110000
11111111111100111001110000011111
11111111111101001111111000101101
11111111111111110001111100110100
11111111111110110000011000010111
11111111111010100001010010010001
11111111111110011110000000011001
11111111111111110001100010011001
11111111111111101000000011101001
00000000000000101011110010101011
00000000000000010000101101011000
00000000000000101001011111110110
11111111111111111110111011101100
11111111111110000101111001000101
00000000000001000111111001100000
00000000000000010100010000010111
11111111111110111001101100111101
00000000000001001111100110001111
00000000000000110111000001011111
00000000000000000100010100010100
11111111111110010111101001111001
11111111111101011010111011000110
00000000000001100001110001110001
11111111111100010010001000000011
11111111111110111110011000111001
11111111111101010111010110110101
11111111111100110010011100100001
00000000000000010001101100100101
11111111111111111111000111100101
00000000000001110011001100010111
11111111111101010010101101001110
11111111111100110011010101000101
00000000000000000010011001111010
11111111111111111100011101001001
11111111111101001110100110111011
11111111111101100000101100101110
11111111111111110010011001011111
00000000000010000110111011010111
11111111111111001001000000010001
11111111111100100011110000010001
00000000000000011100010101101100
11111111111101111101100110101110
11111111111010111101001110101001
11111111111011011101111111011100
11111111111010100101011001011011
11111111111011000001010011000101
11111111111101111000100010111110
00000000000000100111100010010110
00000000000001101110111001011010
00000000000001001001110101011001
00000000000000001010100001001111
00000000000001010110000010001110
11111111111111001110111101110000
00000000000000111111111010011100
11111111111110100100001101001010
00000000000001010000010001101110
11111111111101010101111100110001
00000000000001100111001010011011
11111111111011000001011010000011
11111111111011100110110001111110
11111111111101110111111001100100
11111111111011010000101001001111
11111111111100011110001010000101
11111111111010100000111001000001
00000000000000000000001111110101
11111111111110101011111111000001
11111111111110000100000100101001
00000000000001101100010111101111
11111111111110110110101010010111
11111111111111110110101010110110
11111111111110101010000011000011
11111111111100011101100111001101
11111111111100001111011100110101
00000000000000101100001011110000
11111111111101010100101100001101
11111111111100010010110000100011
11111111111011001010011111011000
11111111111110001111001110001100
00000000000010011010110101111001
00000000000001001000110000000100
00000000000010011000011110111011
11111111111110100110110000000100
11111111111011111100110100100110
11111111111011110111010001000101
11111111111011001001001100000010
11111111111100110000001101000100
11111111111111011111011010100000
11111111111101000101011100100110
11111111111101111011110001000001
11111111111101000110110100110101
00000000000000011001100111000111
11111111111110011110000000101000
11111111111100100011100110100110
11111111111101110110100111010100
11111111111110001100001100010001
11111111111111110111100100111110
11111111111110100010001000001001
11111111111111110110010100011010
00000000000000100010100111101010
11111111111101011101100110110001
11111111111101101001100101001111
11111111111101011100100111001101
00000000000001010111010000011000
00000000000001101101000100110111
11111111111110000110111100111010
11111111111011011001010001010000
00000000000000000011011101100011
11111111111100000100111100001000
00000000000001111011111111110000
11111111111101010100000001000100
11111111111110010000101000011110
11111111111110010001010011011110
11111111111011010000010000110111
11111111111010110001000010111110
11111111111010101010001100111001
00000000000000111010110110110100
11111111111101100000001110011000
11111111111101100110001000110111
11111111111110110110001001011000
11111111111011100100101111110110
00000000000000101111110101011111
11111111111111000111110110111101
11111111111110010101101001010100
11111111111101011101001011000100
11111111111101101011111001100101
11111111111100000111000011101110
11111111111100101100110000011101
11111111111001010010110100001110
00000000000000000010010010101011
00000000000010000111001001000011
00000000000000001000001100111010
11111111111100001100001110001101
00000000000000111001011100110100
11111111111110011000010101100011
00000000000001000101110101101100
11111111111101001000101000110100
11111111111101100110101010001100
11111111111101110001010100001010
11111111111111100001110100011011
11111111111101001100000010100011
11111111111110101110000101100101
11111111111110001010000101101110
11111111111110000000100101000010
11111111111100111011101101000001
11111111111110110000011111111110
11111111111111001100001010110100
11111111111101011111101001100011
11111111111101000111111011101000
