00000000000000110010001001100010
00000000001000011000100000111001
11111111111011101101111101010111
00000000000000110100101111001001
00000000000000100100100001101101
11111111111110101111011110101000
00000000001010000001110101010101
11111111110110100011001000011001
11111111111110001001011011110111
11111111110100011111111110000110
00000000000110111011110010000010
00000000001110100110101011011001
00000000000100000000001100000001
11111111111110001000001100001011
11111111110101101101010011110100
00000000001101011110111100111100
00000000000111011100011111011101
00000000000100110000100000111001
00000000000001111011111111011111
00000000000000100001000000101001
00000000000010001111001010010100
11111111111100000111101101011100
00000000000001110000110011110101
11111111111111001001001000000101
00000000000100000000110011100001
00000000000111101101101000100100
00000000001001001000011101001110
00000000001010011101110010010100
00000000000110001101100111100011
00000000001011000100000110000011
11111111110111010110111110111001
11111111111001001011011100100011
00000000000010101110000100010001
00000000000001010000001000110101
00000000001100111000001010011101
11111111110000101110110111011101
11111111111010010100011101010111
00000000000000010101101001001101
11111111111111000011100111000010
00000000000101000100100011001101
00000000001011100010010101011000
00000000000110010011011011010111
11111111111111100000100110111101
11111111111101001110011010010010
11111111111111001111001101100000
00000000000101101110110000101110
11111111110101111001000110111111
00000000000101001011101011000000
11111111111001100101011110001100
11111111111001011011100100001001
11111111110100110001011010011001
11111111111101010000111001011010
00000000000010001110011011010000
00000000001000010100111111111001
00000000000110101011111000001100
00000000000011110110110110010001
11111111111101110001110001110001
11111111111110111111001001110001
00000000001010011000000111011011
00000000000100011100110101101110
00000000000000111101100011000000
11111111111110011110100001000110
11111111111111010110100101010010
11111111111101010001101010100110
00000000000000111110011000001000
00000000000101111011101100011111
00000000000110110000111001001011
00000000000000011010110100000001
11111111111010110110100010111110
00000000000001000110001110000100
11111111111111010110011001000001
00000000001010000011000000111001
00000000000001001111100110001100
11111111111100000001011000111010
00000000000110000110010101101111
11111111111011110111100111110010
00000000000000001100101001011001
00000000000011101111011100111101
00000000000101010001110101111010
11111111111100010011001110011110
00000000000111100110110001101010
00000000000000101111111001100010
00000000000010001111001001111110
00000000000000011000101001001010
11111111111111111000100000110100
00000000000111001111001000101111
00000000000100101010000100111000
00000000000010101111000001110110
00000000000011011111110100100001
00000000000001101001101001000100
11111111111111010000101010001101
00000000000001110010011110000011
00000000000010111000011100011010
11111111111100100001000000010111
11111111111100010111110001000001
11111111111011110011001101100010
11111111111111101100000000101110
00000000000011101001111111001011
11111111111101110110000011111011
11111111111010111111101011010010
11111111111011010100100010101000
00000000000000110101110001001100
00000000000100100010010100001111
00000000000001111111000100100010
00000000000000001000110101110000
11111111110111111110111110001110
11111111111100011011101111000101
00000000001001111010001001100000
11111111111101001001011100001001
11111111111000001000000101011100
11111111111010110011101011100010
00000000000000001101111001110101
00000000000100111000110010010010
00000000000100001110101110101110
00000000000011100111100101001001
00000000001100001011011100111101
00000000001010111111101000101000
11111111111111010011111101111101
11111111111111101000001010101011
00000000000010011000000110111011
11111111111110100001101101110001
00000000000110100001000100100111
11111111111000110001001111110100
00000000000000000110010010110001
11111111111010100111001010110111
00000000000111101001101010000111
00000000001000101000011011011010
00000000000110110010000111011101
00000000000100000001101011110011
11111111111010011100100011110100
00000000000110101011101111000011
00000000000000000001001100010110
00000000000011010110100110000000
00000000000001010000111011011000
11111111111001001100110000110011
00000000001101001001111111011000
00000000000111100010110000110000
00000000001011110100110100010011
00000000000011111011000110111100
00000000001001100011100100101100
00000000000101011001001101110100
00000000001010111100100001110001
00000000000100111111010101110100
11111111111010110000000110001111
00000000001000001010110000010010
00000000000010101101011000011110
00000000000001101000110101101111
11111111111011110111010100011100
00000000000000101100001101001000
11111111111011001110000111110100
11111111111101010010000011110000
11111111110110111110111101001001
11111111111000111010011011000101
11111111111001110110101011110011
11111111111011011101111111100110
00000000000111001101100111101000
11111111111111001101110100110110
11111111111010010110010010001001
00000000000001110001110100110111
00000000001000100111000110010000
00000000001001010111110110011100
00000000001000101010110001111000
00000000000100111011010000001000
00000000001000010111011110010000
00000000010100011010010101011110
11111111111100100010110111011111
00000000000100101010001111011001
00000000000011101010001010110010
00000000000100000000000011101001
00000000001110101101111000010111
11111111110100011010011101000001
11111111111110010101010101110000
00000000000100011111101101011111
11111111111010100111110000100011
00000000000100011000011011010100
00000000000000001000101000110111
11111111110110100010100110110100
11111111111011110001111110010010
00000000001011100001001110000010
00000000001010000000001111010110
00000000010000000010110000110011
00000000000001011000011000110100
00000000000000010111110000101011
00000000000101011011011010110011
00000000000000111000010000111100
00000000000011011110111001100011
00000000000011100010100100000000
00000000000101010101010010010101
00000000000110010001100011111001
11111111111111010110010011001101
00000000001001001111001000101101
00000000001101111010110000001011
00000000000101010101110001001001
11111111111011100001000001100110
00000000011010001100100101000100
11111111111101010001001110010010
11111111111100010100001010100111
11111111111110001101011001011101
11111111111100001000111001011111
00000000000101100110001100111011
00000000000000110000110100010100
00000000000001011011111101011100
11111111111111001110101110011111
00000000000000100010100111011011
00000000011010100011101010101011
11111111110110100101100111101011
00000000000011110010101011000101
00000000000101010110011000111010
00000000000000100011100010000011
00000000001001000001001010011100
11111111111100111111000111010100
11111111111101111000000011001100
00000000000100011000100100110001
00000000000011101001111110100000
11111111111000010011100011010011
00000000000011101011100001011101
11111111110110110101011000001000
11111111111110111100010001000000
00000000000101110110001010111010
11111111110001011111111100111000
00000000000010100010100110000100
11111111111011001011010011110010
11111111111111100011111001100111
00000000000100001101001101111000
00000000000110001100111111101110
00000000000111000111111110111100
00000000000000011011010000000010
11111111111110101111010110000100
11111111110100100001000100110011
00000000000001011000001110000000
00000000000100001101100111100110
00000000000110111100010110101100
11111111111000010010101011001110
11111111111111110000101111100000
11111111111101110100001100110011
00000000001110111101100100110101
00000000000110111110101011011100
00000000001001001001001000100011
00000000000100111100101010011111
11111111111100000010011010100100
11111111111110110100111100001101
00000000000010110110101010101011
00000000000000100111010110000110
00000000000011101110110000011010
00000000000100101111010101011111
11111111110101101110010000000000
11111111111000010010000101011100
00000000000000010011010111000100
00000000000001110010100111100011
00000000000110011010111101110000
11111111110110011101010011110111
00000000000100010100001111111101
11111111111111001100000111111111
11111111111011100011001000101100
00000000000011101011110010100000
00000000000110101000001000110111
11111111111110000000101000100110
11111111101011010000001100100010
11111111111001100110001010001001
11111111111101110000000000001101
00000000000111101001000000110101
00000000000001110110100101011100
11111111111100110101101100101001
11111111111100010010000011010101
00000000000001101111000111110111
00000000000101011101110001000010
00000000001011010101011110010101
11111111111100101111001101000000
11111111111001110110000001111000
00000000000010111010111001001110
00000000000000110111001011011101
00000000000001001110111110001001
11111111111001100010110111011000
11111111111101000100000010101101
00000000001001101101001111100001
11111111110011010000001010011011
00000000000010000101111100101101
11111111111100011001100010101011
11111111111001111001000111011010
11111111111000100111001101010100
00000000000001111100100010110110
00000000001001011010101101011101
11111111111001100101110000111001
11111111110110010010111010111100
00000000000010010110010000011100
00000000010001110001100000010011
00000000000011000110001011100100
11111111111101010101000001111100
00000000000011010011001001001010
00000000000010001001101110011111
00000000010001101110111001111011
11111111111110110111111000111111
11111111111011111100001101111010
11111111111000010001011111000010
11111111111001101110110100001010
00000000001000000001010101110011
00000000000110110010111111111010
00000000000000011101100000001000
11111111111100010100100000011000
00000000000001111011010111111100
11111111110100001101010001110010
00000000011100111111110101001000
00000000000101100011111110100111
00000000000011011011100111011010
11111111111000011100010001011110
11111111111111011000110100000000
00000000001011010001000111011110
00000000000010111111011110111001
00000000000100001101001100000010
11111111110110010101101000011010
00000000000010101111001101110100
00000000000111011101011110011000
00000000000010100010110101001011
00000000000100000001111001110011
00000000000010001111101111111100
11111111110111001110110000100000
00000000000010101100111011011101
11111111111011110010001010010111
00000000000011010011000100111100
00000000000100000101101111101111
11111111111000000101111000101100
00000000000000011111111101010111
11111111110001110100011101100011
00000000000110111101000110000010
00000000000111000011100011100011
11111111110011110011110011101110
11111111111010000001001011110100
11111111111010101100110111111010
11111111111011100101110111101000
11111111111101011011100011001011
11111111111111111101101001110110
11111111111100001000100110001001
11111111110100011010101101010100
11111111111101100001010100000010
00000000000000110010101010111001
00000000001010001010111100110110
00000000000101011110000000011001
00000000000001101011001001110110
11111111111110011100111111111100
00000000001001010110010000001100
00000000001001111010110011110100
00000000000101111111100111010011
00000000000110101000011101000100
00000000000011111011010011111100
00000000001001101110111110000011
11111111111011011111001011100000
00000000000000101001111111110010
00000000001011011000001101011010
00000000000100000001110101010011
11111111111000010101100011111010
11111111111010101100011110100010
11111111110111101001101100010100
11111111111101011100100100100001
00000000000010100011101111000111
00000000000111001110111101110100
11111111110010100111110101010110
11111111111010011110111001101001
11111111111110010001000111010101
11111111111001001101111001100010
00000000001000001000001101010110
11111111110000111011100101010100
11111111110111110110001001010011
11111111111011110101011011111110
11111111111110010001011001010000
00000000000001111000101111000000
00000000000001011101100100000100
00000000001011000000000101101001
00000000000010000000100000010011
11111111111101111100101001101000
11111111111000101000001110110101
00000000000111001000111100001100
00000000001001011100101010001101
00000000000100010110000011011010
11111111111111011001001101111111
11111111111100110001100100111111
00000000000100100000001110011100
00000000000011000011101101011101
00000000000100001000010100110011
00000000000000001111010000001101
00000000000010001011111100111010
11111111111111001101011110111010
11111111110111110010110111100110
11111111111101010000100001010110
11111111111001000000011100011010
11111111110111101011100110101001
00000000001011101101010000100101
00000000000100001100101101100101
00000000000100001101000010100001
11111111111100010101111101111010
11111111111110110001101101111110
00000000001010111101000010010011
00000000000110001101101000111000
00000000000110001000010101001101
11111111111111001111001100010111
00000000001100110101000110100001
00000000000010011100011000011011
11111111111101101001011010001011
11111111111100101100110100010110
00000000000111100110111101101010
00000000010000111101001000111100
