11111111100100111101000001101010
11111111111010110011010111010001
00000000000001101011001101010011
11111111111111001001011010010100
11111111111111100000101101010101
11111111111111010011010110111110
00000000001000100101110110110110
00000000000100010111110110000011
11111111111100000101100100000101
00000000000001111010000001010101
11111111111100100001101010000100
11111111111011110000001100110111
11111111111110001011001111001010
00000000000010001111000101111000
00000000000101111010000100101000
11111111111011110110111111100001
00000000000000001101011111000011
11111111111111111100001011111111
00000000000011000111011101011011
00000000000110011100110101111001
00000000001011001001110010101001
00000000000111000000001001000000
11111111111010001010001011100001
11111111111110100111110001010001
11111111111001011010000011011011
11111111111011111110011010100110
11111111110001110001100001111001
11111111111011000110111101000000
11111111111111001001110101001010
00000000000010010110010111100000
00000000000101110010100101111010
00000000000010001110001000000111
00000000000000011100010101100100
11111111111101110101010101111001
00000000000100101110010101011101
00000000001001100101010010111101
11111111111101010100110001100110
00000000001001110001100000100001
11111111111010101111001000100111
00000000000010101001100010111010
00000000001010111110000000110001
11111111111101100001010010101001
00000000000001111000000111100111
00000000000010100001100100110001
00000000000010100111010010000000
00000000000111000010010010011011
11111111111011111011000010000111
11111111111101111110101011111100
00000000000111000011010011101101
00000000000011001010111110010011
11111111111011010001110000100011
11111111111101010101001000101111
11111111111101001110111110100011
00000000000000110101001010111110
00000000000011011100000001101000
11111111111100101011001110110111
11111111111111001010000100100101
00000000000101000010110000000110
00000000001010111000001110101001
00000000001011001101000101110010
00000000000011110111110101101000
00000000000011111010110011010001
00000000000000100111110001010110
00000000000011111010001101111100
00000000001000100111111011100110
00000000000011110100010010100111
11111111111111000111100110100101
00000000000000011100000111001110
11111111111010101110100111001110
00000000000001100010100010111000
00000000000010101000111010001000
11111111111100111010101001110011
11111111111000110111010100011011
11111111111000110010000010100110
11111111111111000110100100001000
00000000000000111000001100001010
00000000000001000100010111111101
00000000000010111001111011000011
00000000000000010111110011010011
00000000000101110110001111001100
00000000000011010100001111111100
11111111111111101100001111011101
11111111111111110111010011110100
00000000000100011001110000111100
00000000000111110110111010000010
00000000000001100000011000110110
00000000000010011110010010110010
00000000000001100100010011001010
00000000000101010111111010110101
00000000000000011010000111001110
00000000000000111001001111001010
11111111111111110001011110111111
00000000000010111000100011000101
11111111111111101100001001101100
11111111111011111001101000100111
00000000000111100100011110100111
11111111111110110100100110100101
11111111111000010001010000010110
11111111111101000000111101000111
11111111111111001101110101000110
00000000000001000101100101011101
11111111111110101101010011110000
00000000000000111011001111011001
11111111111101111110011101011010
00000000000011110001111101111110
00000000000100100010111000011000
00000000000000010100011000010011
11111111111111111010011111100111
00000000000000001111110001111101
11111111111111110010100100111101
00000000000100011011111100100000
11111111111110010010100101110010
00000000000101011010101001101000
11111111111110010001011110000101
00000000001001010000110111110110
11111111111100001010111011000100
00000000000001000110100110011110
00000000000000110100100111111001
11111111111111010000010000001100
00000000000101111000101001000000
00000000000100111000001100000110
00000000001101100000100101010100
00000000000100111011001011011101
11111111111111110010001101011110
11111111111101111001100001111010
11111111111011100010101111000001
11111111111100111101011101101101
00000000000011001000101111000000
11111111111011101011111010011000
11111111110110101110011101110000
11111111111100101101110011111001
11111111111011000110100001000101
00000000000001010001111101001000
11111111111111110110100011000011
00000000000101101011101111011110
00000000000010110100001111111101
11111111111101001101111101000010
00000000000010011010001110010001
00000000001000001011011100001101
00000000001010100101011100111011
00000000000000101111001110101110
00000000000000001011101000110000
11111111111110000001111001011110
11111111111110101101001101111001
11111111111010100110100011111100
00000000000000100110100010001001
11111111111111110011101100010001
00000000000000010100111010100010
11111111111100110001100101011111
11111111111011000000001101001010
11111111111111010001010010100010
00000000000100111111110101001010
00000000000110000101110000100001
00000000000111001111011101011110
00000000000101100010100011001101
11111111111010010010010000100101
11111111111110110000111001000010
11111111111110110011011011101011
11111111111110011010010011100101
11111111111010001100001100000110
11111111111011111000101110110101
11111111111001011011000010111011
11111111111000000110001101110010
11111111111000110000001001001100
11111111111001011000100001000110
00000000000001010100010100001110
00000000000001110111111101100010
00000000000100101001111001111011
11111111111101110011001000011010
11111111101010111010000010110000
00000000001110101100011011101101
00000000000001100011000010001000
11111111110110110110111011010000
11111111110011110011001001010000
11111111100100100001000011110111
00000000000001011110110001010110
11111111111110011111101000010001
11111111111100010101000100010100
11111111111101000100101010111100
11111111101101010110000001000111
00000000000101101101111110100001
00000000000001000010111001100000
00000000000010100000011001001010
00000000001000111111110100001111
00000000000000101100100111011001
11111111111010110111111010101111
11111111111101010100110111101011
11111111111110010000101010100000
11111111111111110111010011100100
00000000001010100011000110000011
11111111111100011011011100111101
00000000000000010001000001100010
11111111111011110010101110000010
00000000001100001101110100011110
11111111111110100011000100011110
00000000000011010111101011001000
11111111111111101110100001111100
11111111111011111010000111011001
11111111111110101000101001100001
11111111111001011110101111101010
11111111111001010001011011011110
11111111111000100010010100000011
11111111111010000111010001001010
11111111110010010010101000000110
11111111110111111000000111000010
11111111111111011000100110010011
00000000000010110111100010101101
00000000000010101010111000011010
11111111111011110001100000101101
00000000010000100001111000111011
00000000000110011011010111000100
00000000000110000101111001111110
00000000000000010000011111000010
00000000000100011111111110000000
00000000001001101110111010010100
11111111111110100100110011101011
11111111111100100100110011001111
00000000000010110001000010010110
00000000001010000010011010010000
00000000010000100000110100010001
11111111111101101100010011101001
11111111111110011111001110001000
11111111111101011010100110111110
00000000000101011110101011000011
00000000000101001011010000101101
11111111111011110111000100111000
00000000000000111101010001100100
00000000000111011000100101011010
11111111111100110001111010010111
00000000001000110101111001010111
11111111111111111011010100011010
11111111111100011001000000011010
11111111111101010001110110101000
11111111111000100011101110101000
11111111111011111001111001001110
11111111111011010010100011000100
11111111111110011010101111111111
00000000000000011000110101101001
00000000000001101010011000111111
00000000000000001011001101000011
11111111111011011111011001001001
00000000000000010111000001100101
00000000000011110101101000011001
00000000000101000000000010100100
11111111111101101110110111001000
00000000000011110011111000010101
00000000000100000111001010011010
00000000000001011111010010001100
11111111111111111000111100011000
11111111110101000100111111000100
11111111111111010101110010101111
00000000000100100110100111101011
11111111111101110000100001010010
11111111111110100110111100111011
00000000000001110101011000111010
00000000000010011100000100111100
00000000000010001110100101110011
11111111111100000111101110101010
11111111110111101001110101001011
11111111111001011110101000011110
00000000000011100101000011110100
00000000000000101010111101101101
11111111111101001111011000000110
11111111111000000101001010100100
11111111110101010010110111110100
00000000000000010001011110110001
11111111110100010011010010110001
11111111110111100110101000010000
00000000000000101111011101001100
11111111110101111001111010001100
00000000000001011110101010010110
11111111111110001001001100011010
00000000001010000001001000011001
00000000001001010011100100011000
00000000000011011000111100001100
11111111111011101100010100000010
11111111111100010111100001111111
11111111111010100010001001000100
11111111111011110000101001111110
11111111111011101100010000000110
11111111111101101101011001111111
11111111111111110011110101011001
11111111110111010010001101000110
11111111111010100111110010111110
00000000000000000001011110011001
11111111111000000001100010001000
11111111111110000000011011110000
11111111111101011011110001001011
11111111111110011110111010101110
00000000000100000110001001010101
11111111111110000010111111001110
11111111111101011000010111110010
00000000000100101101001001111111
00000000000000111001101111010000
00000000000101101100111001001101
00000000000011111011110111010110
00000000000110000011101110000100
00000000000000100111101101001011
00000000000001111111111101111110
00000000000010110001101010000110
00000000000101011101001110001100
00000000000100100010010100011010
11111111110101100110101010101100
11111111111111010001011001010010
00000000001001000101100001011111
11111111110001011101010111001011
11111111111110111110111110000100
11111111111111110100010101010110
00000000000101010101101100101011
00000000000100010100001000110011
00000000000000010100010110011000
00000000000001001011111000101111
00000000000010111100011101100010
00000000000111111001110001100001
00000000000001111010110101010000
00000000000110000001110110000100
00000000001001010000110001111010
11111111111010100101111000100110
00000000000000100100001100111011
11111111111111001101000000101111
00000000000111011001001111111011
00000000000001011010001101101010
11111111111100001000010111001111
11111111111000001100010000100000
11111111111011010001011001100101
00000000000000110111011111110000
00000000000000111011111111100111
11111111111111001011010101010001
11111111111100001110000100100010
00000000001000001111100011001010
00000000000001000000000000010110
11111111111010111000011100110011
11111111111011110110110100000110
11111111111111101101111100001110
00000000000001111000001111011010
11111111110111110110110000010001
11111111111110100010000100001000
11111111111100011000001010001001
11111111111100100111100100101111
11111111111010011011001010000000
11111111111001011101100000101101
11111111111001111000001010100000
00000000000100011101000110011101
00000000000000001111010000010101
11111111111101000011011101011010
00000000000011110100000010011001
00000000000001011101001010011100
00000000000110101111000110000100
00000000000010011001101001000110
00000000000000110011110100100110
11111111101011110000010001010110
11111111110011100101100111000111
11111111110100100100011111011110
11111111111110011000100001010000
00000000000101111001000010100000
11111111111010110100101100110011
11111111111001100011010100101010
11111111111110110100001100011000
11111111111111010011010100001111
00000000001010111011101010101100
00000000000100011110010011100001
00000000000000110111111101010101
11111111111110001100001000000111
11111111111110101011010000001100
00000000000101110010111010110010
00000000000010010000010111111001
11111111111111000011011110001111
11111111111110011101011011000111
00000000000000111100111101111101
00000000000011010011100000110111
11111111111101111001100100111001
11111111111100101100101010111101
00000000000001110110110001000111
00000000000111110100110010011000
00000000000011010111011100010010
00000000000011001010110011011010
00000000000011011000000001000111
00000000000010011101000001010100
00000000000111000000101111100000
00000000001001010100111011000000
11111111111111100010110001011001
00000000000100010000101001001000
00000000000101010010111101100101
11111111111111010010011110111001
00000000000101010100110011101101
11111111111110101111000000110100
11111111110110100000100000011110
11111111111100000100011101001100
00000000000001100011011010111011
00000000000001000100011101010001
11111111111111011011001110010000
00000000000000011010000000001111
11111111111011011010100011010011
11111111111000101100100110000000
11111111110111010111000100111110
00000000000001000101011111001100
00000000000101011111001001101101
11111111111010110011010001111100
11111111110101111101001011100100
11111111110000010110100011111110
