11111111110110010011010111100011
11111111111110111000000111000101
00000000010010000010111001000111
00000000001110001011100110001000
00000000001011100011011111111001
00000000000001100110100111100110
00000000000111011001010111011100
00000000000111101000010011010111
00000000000010101101100001110001
11111111111011110111110000001101
11111111111011100010010110000100
00000000000101010110100010000110
00000000000111011110001010010000
00000000000100001010110011010110
00000000001000010011101110111001
00000000000001101000010101100110
11111111111011101010101011100010
00000000000000010101000101100110
00000000000111011100000100111000
00000000000000000100000110000110
00000000001011010010000100100100
00000000001010101110010010001100
00000000000100010000100110100010
11111111111100101100010111111100
11111111110111101010111111101101
11111111110110010110100001101101
11111111011110101100000010100001
11111111111111010010110000001101
00000000000001100111111110001101
11111111111101110000010110111100
00000000000101010100001100100000
00000000000011001010110011100100
11111111110110101001111101001111
00000000000011111110000011010001
11111111111010100011100110000011
11111111111111111110101101001000
11111111111111100111100111010001
00000000000011011101011011011000
11111111111001010101111100110011
11111111111110011110001001100110
11111111111110101100001001100001
11111111110010111110010000000000
00000000000001100001000000000000
00000000000000010110010101000001
00000000000000100011011111010100
00000000000000100101100011110110
00000000000011111110101000010100
00000000000011001000010010001111
00000000001011111011100010000000
00000000000101101001111111110100
00000000000101110111110010011111
00000000000010000011101110010100
11111111111011011100100010101110
11111111111001101011101101001100
11111111111101100011100111000110
00000000000001100000110111000010
11111111111011011101011110000101
11111111111111011001101111101111
11111111111111100111011101001100
00000000000010101000001101100010
11111111111101001001111010111110
11111111111111111110010100110010
00000000000000110010101011111001
11111111111111100011101111000101
00000000000100000101011101011100
11111111111000110101101100101001
11111111111101010111101111001100
00000000000010011111110001001010
00000000000001100010011000110010
11111111111010111111000101010001
11111111111010001010110000101100
11111111111001100000001010100010
11111111111010111000110011111110
00000000000000111000010100010010
11111111111101000111000111101101
11111111111111100001011000110110
00000000000000101010011010000100
00000000000011010110000111100011
00000000000100100011110001010000
00000000001001000101111011110111
00000000000001000100010100001011
00000000000010110011001111000100
00000000000010010010101100111000
00000000000010001111011010010111
00000000000011010010101101001011
11111111111000110110011000101100
00000000000001100011000110110011
00000000000010100111110000001011
00000000000001000010010101010111
11111111111011011101011010010001
11111111111100110010000111001010
11111111111001101010100000111111
00000000000011001101101100010111
00000000000100111100011001110011
11111111111110010000010101010000
11111111111100110010100101101001
11111111111011101001110011111110
11111111110100110011010010000010
11111111111010101011000110010110
11111111111000100100101101000100
00000000000000000111011101100010
00000000000010000101101100110010
11111111111110010000101110010101
11111111111010101111101101011001
00000000000010011010101101101101
00000000000011001001010100001001
00000000000000100000101110100110
00000000000010111011001101001000
00000000000001010100000010100011
00000000000110001111010100001100
11111111111000110110001011110101
11111111111110010011110011100100
11111111111111110011000111000010
00000000000001001010000010000001
11111111111110101101110010001001
11111111110100111000100111010011
11111111111010101111011001100110
00000000000000110000110010001011
11111111111110010100110001111111
00000000001011100101001100011101
00000000000111011001110101000011
00000000000111000001110010010101
11111111111001111110010111100010
11111111111000011010101111101001
11111111111101001010110110000011
00000000010100110010100000000111
00000000001111111001100111000110
00000000001010100110010101110111
00000000000110100011001010101101
11111111110011000010001101001001
00000000000100111100111101000001
11111111111110111010011001100010
00000000000100111010010111110100
00000000000111001010011001000001
00000000000100000101010000001111
00000000000010110011000111110011
00000000000100010111000011011101
00000000000110100000011101111011
00000000000100010011001100110001
00000000000010101000100000001111
00000000000010110001101000001100
00000000000011110110001111001011
00000000000010000101011011110110
11111111111101000001011010111000
11111111111011011011111001110010
00000000000101111101100000110100
00000000000011111100011000111010
00000000000000000010001001101110
00000000000101100101001111001010
11111111111101001111000101110110
11111111111001111111010001001110
00000000000011111101011000001100
00000000001100011011001010111000
00000000001011000010011000010101
00000000000110000101100010110100
11111111111110010001110000010101
11111111111100110100111110101101
00000000000101010000101111001100
00000000000111101001110100101101
00000000000000100000110100001011
11111111111011110001011101101010
00000000000000011000110111101110
11111111111110001101110111110111
00000000001000001011011010111001
00000000001000010001001010010100
11111111111101000110111101100110
11111111111110101111111110101010
00000000000101101011000011011011
00000000000011110011101000100110
11111111110110010111001001010000
00000000000011010011111111010011
00000000000001101110101011110010
11111111111001110100101000100101
11111111111001011000011011000110
11111111100111001110010100100010
11111111111011110011010011101100
00000000000001110101010110010000
00000000000001001100100110010010
11111111111101101100001111000101
11111111101111111100000000101100
00000000000000000110011010011110
00000000000101100010011011101010
00000000000100000000001111101101
11111111111110001100111111011000
00000000001000010110100011000111
11111111111011100110000010000111
00000000000011111010001000111010
00000000000011011100010100111000
11111111111111011100100010101101
00000000001110111010000011001101
11111111111101011000101110001010
11111111111101010110011011001110
11111111111101111101010111000010
00000000000100001000101100111001
11111111111011100001000000111010
00000000000110010110001011010111
00000000001110110010010111101111
11111111111111111111010100111111
00000000000001110000101110000000
11111111111111101100111010101001
11111111110111101111100001001010
11111111111010001011110011001011
11111111110010110011001110001100
11111111110000111111110101101000
11111111101010011010000010001001
11111111111101011101101110110110
00000000000001111000010000010100
11111111111101111010010001100001
11111111111000000001011100100001
11111111110110010100111001000010
11111111111101100001101011010011
11111111111011100110100000110010
11111111111111001111010110001100
11111111111001011001101001111011
11111111111100001001101110011010
11111111110100100100000011010100
11111111111100100001111110101111
11111111111101011011001111110101
00000000000011101010111001000101
00000000000011011101111000001011
11111111111001111011100100110000
00000000000101001001011000000110
00000000000100001011110101100000
00000000000011101010000011111001
11111111111001000110011011010000
11111111111110111111000001101111
00000000000001010010110000100111
00000000000110101111011001000011
00000000000101111101000000110100
00000000001000000011101000000000
11111111111111111101111110110001
11111111111111101111111010001100
11111111111110111111010101011011
11111111111110001000101111010011
11111111111111010011011011111101
11111111111100000011100011000101
00000000000001010010101011011000
00000000000011100100100101110111
11111111111000011000001000000010
00000000000110011100011011010001
00000000000011010110001011000010
11111111111110001011011111000110
11111111111011010000110101100011
00000000000111110101000100010111
11111111111101101111101101111011
00000000000110011000010110000010
00000000000110100110010110000010
11111111111111010010110100010110
11111111111000010111110111101000
11111111111000000001000101111110
11111111111111100011101101010101
00000000000010011010010011100111
00000000000010011100000101010100
00000000000010100001111100001001
00000000000011001000110110001011
11111111111000110001010111100010
00000000000000011011100111100011
00000000000001001101101110000010
11111111111001100111110011001011
11111111111000010000000111110100
11111111110110100100101011111100
11111111111101111010010111011101
00000000000101000001111000010111
11111111111100011101000011010111
11111111110111010101110010110110
11111111110011111101111000000100
11111111110011101110110001111101
11111111111110001100011000000111
00000000000010011001101001000001
11111111111100111100101010100000
00000000000001101101011101101011
00000000000001110011010111100001
00000000000111001010111110111111
00000000000011000000110111001110
11111111111111000011101100101110
00000000000011011010000001001111
11111111111010000110111000000000
11111111110110101101101111111001
11111111111010011101011111100100
11111111111101100100100100100101
00000000000011100101000011010110
00000000000011011001011000100110
00000000000001010101100011110111
00000000000101110010101001100101
00000000000110101000011111110101
00000000001000010011100100110111
00000000000111001001001110111010
00000000000101101010001111010101
00000000000011101001101110111001
11111111111010111110111100100000
00000000000011100011001111110000
00000000000111001000111010110100
00000000000001100111111111010000
11111111111010001111011100010100
00000000001001101111111010101101
00000000000100010101011011001101
11111111111101100110101000110111
11111111110111101001111001101101
00000000000001100010111011011110
11111111111011010111110010100011
00000000000101001101001010010000
00000000001100110000110110110001
11111111111100111011010001001101
11111111111011111100110111000001
00000000000100011011001010001111
11111111110111010100010001011110
11111111111100011111111111010001
11111111111101100011110000000000
11111111111011111001001100010000
00000000000111100010101101011110
11111111110111010000011001001000
11111111110101101000110001101001
11111111110101011000011000001110
00000000000010001000100000001110
00000000000011001100000001000010
00000000000110111101111101011110
00000000000010010100010111011100
00000000000001110101110111100101
11111111111100011100000011010110
00000000000101000100011110111111
11111111110101100100010101011001
11111111101110000101001100011000
11111111110110000011010100010001
00000000000000010101111010000000
00000000000000111010110111101010
11111111111111011000000110110110
11111111111110100111110000100111
11111111111101001011010010000100
00000000000001010110100010101010
11111111111111100100110101111110
11111111111111011101101100010111
00000000000101101110010100001001
00000000001001011011010001001111
00000000001000011011100010010101
11111111111011111101101000100011
11111111111101001101001110111100
00000000000001000001101011010010
00000000001001110000110010010010
11111111111101101000000001000110
11111111111000001000100100010100
11111111111111101110000011100110
00000000000011111110011011100001
00000000000011111100000110101011
00000000000100100000010110100101
00000000000000001000101011110011
11111111111111001011001011001011
11111111111101111111000000100100
00000000000001111101101001000111
11111111111011100011101111101111
11111111110001100000110100010001
11111111110000000100000100010010
11111111101000111000101100101100
11111111110111100001111100011011
00000000000001111011110100111000
11111111111100011110101011100000
11111111110011011100001010101101
11111111110101010000100101110001
00000000000111000010110001100001
00000000000001110001001100101010
11111111111111111011110101110110
11111111111000100100010101000001
00000000000000110011100111100010
00000000000010101000111011001100
00000000000001100110101101111111
00000000000001100110000000000000
11111111110101000110110011110100
11111111110110011110001011110110
11111111111010101111000000100100
11111111111101110000001001011011
00000000000000001110111011000010
11111111111010000110000011101101
11111111110111000110101100110100
00000000000010101111110110110001
00000000001000100011000010110010
00000000000100001010010100000010
00000000000011000110100100100101
00000000000010011101010011110111
00000000000100101111010110001001
00000000000100100001000100001001
00000000000001001011110011001010
00000000000000111000010111011010
00000000000101001000010011001100
00000000001010011110100000100011
00000000001001000111001110011100
00000000000111100000000110110100
11111111111001110000110010000100
11111111111000111011101000000110
00000000000010010100101011000100
00000000000000100111100000010000
11111111111101101100010000011101
11111111111101110010010011100100
11111111111111010011000010111111
00000000000001011000000001111001
00000000000011101011010100110011
11111111111110101000101110101101
11111111111101100110111110011001
11111111111001010010010010011110
11111111111110100011010011110100
11111111111101010110010010111010
11111111111010111111000100010010
