11111111111110111011111111111110
11111111111011011101001111100011
00000000000110111000010001010011
00000000001000011001110100011011
00000000000110001001000000010110
11111111111100110000010110011110
00000000000101011111001011100100
00000000000110010001110101100001
11111111111011001000111011101100
00000000000100000000101000110111
11111111110110010010000011011111
11111111111011011010101001000111
00000000000110011010100111000110
00000000000111000001111101110101
00000000000001110010101000110111
00000000000100100001011101110010
00000000000000110010100110110011
11111111111011110100110010011001
00000000000010000001001011101101
11111111110111110101101110101000
11111111111101001010001011000010
11111111111111111001010010000100
11111111111111100101010011111101
11111111110111010100001101001000
11111111111010000101101011000000
11111111111100011101101001111101
00000000000011000011110101111001
11111111111010001101011010000000
00000000000100011010110001010010
00000000000101101100011111001110
00000000000110111000000011001001
11111111111110011111101110100010
00000000000000011111001110111011
00000000000000101000000001010111
11111111110111001010001000001000
00000000000000000000010010011101
11111111111111110110000010001101
00000000000101100101010111001111
00000000000111101111010011001001
00000000000010001110100000001010
00000000000111000101101111111111
11111111111101010010001101100010
00000000000111010101111110011100
11111111111101001101001000010100
11111111111101010110111111111010
00000000000011000001110111001100
11111111111111100011000010101100
00000000000100001111111100100101
00000000000100011011001001110110
11111111110011101011010101010011
00000000000101001111100100010001
00000000000101010010100011111111
00000000000000101000111000000010
11111111111111010100100101000111
11111111111011101011111110110011
00000000000000110110101100110010
11111111110100000100000011111100
00000000001011000010000000011101
11111111111101011001111000011111
00000000000001011110101110101111
11111111111110110001110111000000
00000000000010111000000100010011
11111111111100010011000101001111
00000000000101100000100111101111
11111111111011001000001100100001
11111111111010010000110011100000
00000000000111000110010001011101
11111111110110011001111001110011
00000000000011000000100111001010
11111111110111011101101101010111
11111111111100101101111010100111
11111111111101000100010001101111
11111111110111110000001110000101
00000000000100101001111010001111
11111111111010110001001111111011
00000000000100100000101011000000
00000000000000010111010011001000
00000000000000001011001010100111
11111111111110111110110000111000
11111111111000101001011100010010
00000000000111111011110101101100
00000000000000100010010010011011
00000000000011100111001110100111
00000000001101000001000000110101
00000000001111011011111101101011
00000000000001111010001110100001
00000000000100011001110000000100
00000000000011110011010010110101
00000000010000100000010101111001
11111111111100001011110101001111
00000000000010000101101101111101
11111111111101001011100011011100
00000000000100111100001001000100
00000000000011010101011111011101
11111111111100011101100010000111
00000000000010011010000001011111
00000000001010010010101001111101
00000000000111111010101100000010
00000000000001001100010110001101
11111111110001011111000101011010
00000000001000101010010101100001
11111111101011110110110111010111
00000000000110011001100001101000
11111111111111100010010000110101
11111111111001100001000001000101
11111111111011000101110111000011
11111111111100000011110001101101
00000000001010101011011010000110
11111111111101011000011010011010
00000000000000000010010111101010
11111111111111011011100000111011
00000000000010000111111111100011
11111111111110100011101010000001
11111111111100101010001000011110
11111111111101010100011110001000
00000000000011010000100110000111
11111111111010110110110000010010
11111111111110001100110011011110
00000000001001100101110000111110
00000000000000111110101000000000
