00000000000101100010001011011111
11111111111111101110011101110101
11111111111000101111111001001001
00000000001001101000011001110000
11111111111100010111110000110010
11111111111111100100101000010011
11111111111111101101110110011001
00000000001001011010011110010000
11111111111101110110000001001011
11111111111101100011011110010011
11111111110100010110100011110010
00000000001110111001001101101010
00000000000000011101011101110001
00000000001000111010111000111011
00000000000101001111111001111010
11111111111100100111101101011110
11111111111010001101010111100111
11111111110110101111000000101110
11111111111111001100011011100110
11111111110100011011011010001010
00000000000101001001001000010001
11111111111010111100000011010010
11111111111011101111010111110010
00000000010010100011100000011111
00000000000011110111111110111100
11111111111111110001011101111011
11111111111011100000000110100010
00000000000011110010111010111100
00000000001000001110110100111101
00000000000000110000110000000011
00000000001001011101001110110111
00000000000001011011001111101000
11111111110100000110011110111101
00000000000100010100100111110111
00000000000000001110001000100101
00000000010110101010001111110101
00000000000101010011010001101001
00000000000111011101010000100101
11111111111110010000101000100001
11111111111001100111001110100101
00000000000101100000001101100100
00000000000101111111000010011100
00000000001010001011011101001011
00000000000000001011101100001010
11111111111101111001010010101000
11111111111011001101101101100001
00000000001001001010000100001100
00000000000101011111111010101111
00000000000011110101001011100010
11111111110001111001011011110011
11111111111100010000111001000011
00000000000000101100001111001010
11111111111111011001111100010011
00000000000100000011011101010010
11111111111011100000000111011010
11111111111010011001000110100011
11111111111110100110111011001110
00000000001011000111111111011001
00000000000001101001000100010000
11111111111110011101111101110011
11111111111110101100100101111000
11111111111110010010111000011001
11111111111000101001111100010010
00000000000010101110000111000001
11111111111111011111011000101101
11111111111001001110110010011011
00000000000001100011110010100110
11111111111011100100111010101011
00000000001001000010010011001010
00000000000000000111110100001010
00000000001011010101110011100000
00000000000001011111011110011111
00000000001011100011101100110001
11111111111011110000001111010101
00000000000010000111100010101101
11111111111110100001010010101110
00000000001011000011010100001111
00000000001000100000111111001000
00000000000111111100100110010111
11111111111101001111101100110100
00000000000001011100110110010100
11111111111101101110010110101000
00000000001001011001100000000110
11111111111100110011100101111110
00000000000110001111001011100101
00000000000110101100010000011111
00000000000001000100101001010001
11111111111001111100010101000101
11111111110100110011001110111110
11111111110111010110001101101001
11111111111011101010101000100111
11111111111110000110001110011111
00000000000001110110110110001100
11111111110110011110000011101110
11111111111011011111010000000111
00000000001010101111010110101101
11111111111010001111110010110011
11111111110101100010110101100011
00000000001000100000000001111000
00000000000111110100000000010100
11111111111110111001000100011111
11111111111011000111011110100010
00000000000010100110111100100101
00000000000100100100001011110101
11111111111100100010111100011101
11111111111011010101001110011001
11111111110111111110010000001111
00000000001001100011011011011111
00000000000100111001101101010011
00000000000101110111000101101011
00000000000101101010001101000000
00000000000111101001000111011011
00000000000100001010100000000010
11111111111111101110001001110111
11111111111010101001011001001000
00000000000011001001011010000100
11111111110010011001001110101101
11111111111110101010100000101100
11111111111111101001110001010000
11111111111110101101111111110101
