00000000000100001000101101100010
11111111111010001001110101111011
11111111111010000101000010000101
11111111111100101111101100011011
00000000000001010111011000000111
00000000000100001110010011010011
00000000000001011111111101101100
11111111110111101001010100001010
00000000000011001001101101101011
11111111111101101111111000110110
11111111111100110110101011001000
11111111111001110001110001011110
11111111111011000100111101001111
11111111111001110101000000010000
00000000000001101100000101010000
11111111111011111111010110011000
11111111111010010110100110100110
11111111111111001011101110110011
11111111111011110000000010110101
00000000000010100010100010010101
00000000000100111111011110101011
11111111111010100011111101110100
00000000000010110011000001111110
11111111111101111101110111101100
11111111111001000110011101111010
11111111111001001000110000000100
00000000000001101100101001011101
11111111111110111100011011000011
00000000000010101100101110101011
11111111111110001110011111100111
11111111111010110000101000101000
11111111111010000100111100111001
11111111110111011011101101100110
00000000000001111100000100101001
11111111111100101000010100111001
00000000000001101111011101000101
00000000000100010010010011101010
11111111111111101111001100111100
11111111110111010111110110011010
00000000000010001011000010101110
00000000000000100001010100110110
11111111111100010010110000011100
11111111111001011010101101101110
00000000000100101000001011101000
11111111111111100101001111011011
11111111111011011100110010001011
11111111111010111010100000000001
11111111111110110111001010011011
00000000000001101101010100001011
00000000000000011110011101111000
00000000000100111111001010001001
11111111111100000010111101111110
00000000000001010010000110110010
11111111111010100011100000101010
00000000000101010101111110001000
11111111111010110110000101100000
11111111110111110100010110101010
11111111111011000111000011011110
11111111111011001100001000101110
11111111111010000101110000101000
11111111111101111111111111101000
11111111111010000111001011100010
11111111111111101111101101110011
11111111111011110011101100100010
11111111111111100100010110000010
11111111111101000111110001001101
00000000000000100000000000000101
11111111111110011110110000001011
11111111111100011110110011100110
11111111111110001011111001100101
11111111111111010100011101000111
11111111110111111000110110001001
00000000000001011110111101101110
11111111111100011011100011010011
00000000000001100000001011000001
00000000000001000001010100111111
11111111111011111011101110101111
00000000000000011111000001101011
00000000000001000011101011001001
11111111111101010100111101100110
11111111111001100110011111111101
00000000000011010010000010001111
00000000000101010010001001111001
11111111110111110001001010011001
00000000000001010100001111100010
00000000000011011110111010111111
11111111111101001011110101101000
11111111111110000111101001100000
00000000000011111000001100111111
00000000000001010001100001101010
11111111111100110001000010110010
11111111111110011100010001010110
11111111111001100110001100000010
00000000000010000111011000110110
00000000000100100000000001001010
11111111111101010010111100001010
11111111111100010100010001000110
00000000000000110011010111111000
11111111111110010000110110001111
11111111111101111011011000011001
11111111111011001111000000110000
11111111111011001101011000100111
00000000000101000100010001011010
11111111111010101011101001011111
11111111111011110000010010010100
11111111111011110101101000101101
11111111111010101011001011011100
11111111111111100110001100111000
11111111111011011101010101110000
00000000000100001000000001101010
11111111111011000111010010110110
11111111111111010101111010000011
11111111111110101010111000111111
11111111111010110111011001001111
00000000000010110011101010110111
00000000000000010011001101100010
11111111111000010011101110001011
11111111111100101101010100100000
11111111111111001101100100111010
00000000000001110011001001001000
