00000000000100110000100011110110
11111111111110000101101100001010
11111111111110100010011011110111
00000000000001110011001101001101
00000000000001011101100001101001
11111111111001010111100011110001
11111111111100101001001110110010
11111111111001111101000011100000
11111111111010111010111011011111
11111111111110001011010100010001
11111111111000101111100100111100
00000000000000000110101110101001
11111111111110000001110100000011
11111111111111011111110001001101
11111111111101011101010101110111
11111111111100010001100000000110
00000000000010011011000111101100
11111111111110111000011111000101
11111111111101010110000111011111
11111111111111111001011011011001
00000000000011110101000100110110
11111111111111100001000100001000
11111111111111011101001111010001
11111111111100111000010101010110
11111111111011001011110101111000
11111111111111011111111100101101
00000000000010100100100010010011
11111111111100100111100111000101
11111111111011101100101110101111
11111111111001011011100101001111
00000000000000101110011111001011
11111111111101100011001111010110
11111111111100111001111010010001
00000000000100101110011110011110
11111111111011001110011100010100
00000000000011101011011100001110
00000000000100111001010100101010
11111111111111001000001111100101
11111111111101111001111111010010
00000000000001101010011111101110
00000000000100100001100111001011
00000000000011011110100011000110
11111111111100011111010010011100
11111111111001001111010010101011
11111111111101101110111100101111
11111111111101110000110111110010
11111111111100001011100010101000
00000000000010001110010010100111
11111111111011100111101110010101
00000000000010100000100010011101
00000000000100101010101111100110
00000000000000001000110100111100
11111111111011111000000101001000
11111111111010001101110001010001
11111111111111000111000011100011
11111111111011011111011101011000
00000000000101000001010111100000
11111111111111001001101011000011
00000000000010001101011110011011
11111111111010000000000010000011
00000000000011011010001001001101
11111111111101100100101100100010
11111111111110110110110110001101
11111111111110001011001011111010
00000000000100100001011110000000
11111111111100010011111011010010
11111111111100111101111001001111
11111111111110010000000110011011
11111111111000001110110010001111
11111111111001101101010001111000
11111111111001100000011001010110
11111111111101111110001011000101
00000000000000001101111010100110
11111111111110101101101001000111
11111111111111110010110001001110
11111111111110110110100011010010
00000000000010100000011001111110
11111111111100110110010100100000
11111111111011100110111111011110
11111111111001000111111111100000
11111111111101001110010110110101
11111111111010101101010001010001
00000000000100110011100010010111
11111111111110111001011110110011
00000000000011001010000001111001
11111111111000100110001010101111
00000000000101101010111100001100
11111111111110000011111111001111
11111111111100001101110100010000
11111111110111111111101101111110
11111111111000101111111110000011
11111111111111010101001101001010
11111111111010010000000001011101
00000000000000011001011011011111
11111111111111111100101101001011
11111111111011100111111111010011
00000000000000111010101101011100
11111111111010101101110100011100
11111111111101011010011100111011
11111111111100100111010110101100
00000000000100000100101111010111
00000000000001110001010001010001
00000000000101001001000010111001
11111111110111010001010011110110
00000000000010011110010001110001
11111111111011111001000011001110
00000000000000011101001111000111
11111111111110001011000001110101
11111111111100101001101101010011
00000000000010001100100111100101
11111111111010011101001111010100
00000000000010111111000111010101
00000000000011001110010100101011
11111111111110101111011011101011
11111111111110111001000000001100
11111111111000100100111011101111
00000000000010001011010111010101
00000000000001100010101111111011
00000000000011010111011101011110
11111111111010000011101110000110
