00000000001010110001100111111010
11111111111000011010010010111000
00000000001001100100001101011010
11111111111011001110100111010001
00000000000100100101000101000101
11111111111010001011000101000100
11111111111100000100100110000001
00000000000001111000111101010001
00000000000110000111011100111011
00000000001100111010101100110011
00000000000100101001010111101100
00000000001100110011110011011000
11111111111010010101101001101110
00000000000000011101001111110111
00000000000001011010111101001100
11111111111010001110000010101100
00000000000101000010011100111111
00000000000100101011010101110110
00000000000010110010110110001000
00000000000011110000101100110101
00000000000010001010001111010111
11111111111010001101010100001100
11111111111011100111001101000111
11111111100111100111011100100111
00000000000011010000001110110111
00000000000000101011000011011111
00000000000001100001101000111011
00000000000101010001000101101001
11111111110010010001111110010100
11111111110110000101101010110101
11111111111110000111110110010011
11111111111110110110100111101011
00000000000000110011110101110000
11111111111110010001000100001001
11111111111101100001101010000000
11111111110100010011110000110010
11111111111011101011110001101010
11111111111100000000100000000110
00000000000101101110110101011000
00000000000111111001111000001010
00000000000010001100101111110010
00000000000110101001110001111111
11111111111111001001101001000101
11111111111110011111000010100010
00000000000101100010100011110100
11111111111110100100001010000011
00000000000001000101110001011010
11111111111001010101110000101001
11111111111101111001011001011001
11111111111100110100101110000011
00000000000110000000011111110011
11111111111100011010010011101101
00000000000101110110111001111001
11111111111100100100111011011000
11111111111111010010110001111111
00000000001000100110111000001001
11111111111111110110010101110110
00000000000000001000001011011101
11111111111001111110001101110101
00000000000101001001001010100001
11111111111110101000010011111111
00000000000110111011111001001111
00000000000101010001011100001100
00000000000000010111111100000101
11111111111011110010100000111010
00000000000010110110100101000001
11111111111010000010001001000000
11111111111001110011011101101001
00000000000000001111110010111011
00000000000011001011000110110110
00000000000111001101101001101110
00000000001000110110011110101110
11111111111111111110110100010101
00000000000011100110010000100110
11111111111110011101111110010001
00000000001001100000110011010110
11111111111100011010001011000110
00000000000000101100010001100111
00000000000100000000011011010011
00000000000010010000110101011011
11111111110010101110110001010111
00000000001011111010110000000100
11111111111011101010110111011011
00000000000110110011001101011110
11111111101100101000000011110000
11111111111001111000110010101101
00000000000001111111101010011111
00000000000100001011110010101000
11111111111100111111000001101001
00000000000001000111000101010001
00000000000100001010010010000010
00000000000100111000011010010111
11111111111000011101011011000100
11111111111011100000001001110000
00000000000011000011101111101011
11111111111100110101110010000001
00000000000011100011011000001000
00000000010001011011011011001011
11111111110111000000100100100011
00000000000111000000000100000100
00000000000000001001110010001001
00000000000110001110110101111001
00000000001011011110111101110000
11111111110111101101000110010010
11111111110011111010011100111110
11111111111101101101010011110011
00000000000000100011000111001100
11111111110111100010011110000000
00000000000010010100101101101110
00000000000001100001111001101101
00000000000100001010010011011100
00000000000011111010110100101000
11111111111000011010100001110001
00000000000001011101100110000111
00000000000100110000100110001001
00000000000011001011100101101011
11111111111110101110111000100100
11111111111110111001001011100111
00000000001000000011011001101010
00000000000111011011101100010011
