11111111111001010010011001001000
00000000000101011011010100101011
00000000001001101100011101001010
00000000000110000100101010000011
00000000000100011101011010100110
11111111111010100011110001000001
00000000000010001100001000101010
11111111111110011010011001110010
00000000000010011000101111101011
11111111111101100110111011000101
11111111111000101000010101111100
00000000000010001011111100111110
11111111111111110000110101001011
11111111111111101111011010001100
11111111111011100001111111110100
00000000000010000011111101100100
11111111110011000010110110000111
11111111111001011001111101011000
00000000000101100001101100100010
11111111111111110011100011111111
11111111111001111110001010100001
11111111111101110101001111000110
11111111111111000011111000010010
11111111111101010100010011101101
11111111111111100110011010100001
11111111111011110001000000000110
00000000001000011100001001111010
11111111111111100001001110000001
00000000000011000011001100100110
11111111111101001011011001101100
11111111111111110000101011000000
11111111111111100001010001010010
00000000000100011110000010011011
11111111111011100110110001110011
00000000000011010110110110001011
00000000000100011000111011000100
11111111111011100100111000100110
00000000000111110111011000100111
00000000000001100000011110110011
11111111111000110111101101111000
11111111111110101111101001000011
11111111111000101101010111000111
00000000001001111110101100011011
11111111111111110101011011000101
00000000001010111111010011001000
00000000000011110110001100001010
00000000000010010110011011001000
11111111111111000000011010001001
11111111111110100110011110000101
11111111111010010001010110001001
11111111111011110111000101001111
11111111111100111001111110101000
00000000000100110000111110011010
11111111111111000000000010001010
00000000000011100110010110110101
11111111110111111001100101010110
11111111101110011011010010000011
00000000000101101111111010100101
00000000000100010111000001000110
11111111110111010110000011001000
00000000000010100110001100000100
11111111111010101000000010010001
11111111111010001111110011101000
00000000001000111100101001011010
11111111111010111110111001011011
00000000000011111110000001101001
00000000000111110110000010001000
11111111111101100010010101011101
11111111111010111110101010111100
00000000000011010101110101101101
00000000000111010101011001001101
11111111110010101100011001001111
11111111111101111111011011000011
11111111111010011111111011101001
11111111111001000011000011111111
11111111111001110010011100001010
11111111111000000011100001011001
00000000000100111010000010101010
11111111111100111000001111010110
00000000001001100111000110110011
00000000000001010011111111101011
11111111111011111101101001001100
00000000000111111011011100001000
00000000000001001000010000000000
00000000001110001101010010001001
11111111111001111010001001011111
00000000000010110101101100011100
11111111111011011000111111110010
11111111111101010100110010100011
00000000000001110001100101110110
11111111111110000010001000011100
11111111111100110010010111001000
00000000000100100110000110110001
00000000000110011001100011001001
00000000000000001111010111100110
00000000000110001011001001000000
11111111111111111000010110111001
11111111111001100000101011100000
00000000000110100100110011000110
11111111110011110000110111011101
00000000000010111101111100100101
00000000000010010001110001000101
11111111111101001001110101111010
00000000000000001100010101101110
11111111111010101001101101011000
11111111111011101110101111100111
11111111110011111000011001101110
00000000000101001100100101011100
00000000000101010101010011000100
11111111111000110011000011000101
11111111111111101000101101000101
00000000000101111100001001110000
11111111111110100010011111011100
00000000000011001110001000100100
11111111111011111011000100001001
00000000000011110101001001000001
11111111111000100110101000001100
00000000000101001100111001001010
00000000001110111010111100111000
11111111111101000010010110011010
