11111111111010110010101001101011
11111111111101110000101110010000
11111111111100111110101111101100
11111111111011010000011110100111
11111111111110110111000100100111
11111111111101011001110101010000
11111111111011001100001111011110
11111111111001101010111101010010
00000000000001101000101101111001
11111111111100000111111001101010
00000000000000000100000011100110
11111111111100100110001010100100
11111111111011100110100000110111
11111111111100010100000010000111
00000000000000111001100110100011
11111111111010101111100110101011
11111111111001110111000101100011
11111111111110000001010011010000
00000000000000001011100100001001
00000000000001001110101110110101
11111111111101010110000001100111
11111111111100111001111101000010
00000000000101100101110001011111
11111111111100110000111101100011
00000000000001111001010111000010
11111111111111011011100010100100
00000000000001001010001100000001
11111111111110110100110111101101
11111111111100101011100000111011
00000000000000100100100000111111
00000000000001101111010101101000
11111111111000100110010010000110
11111111111111111101110010100100
11111111111011010100110111110110
11111111111011101001100111001000
11111111111101010001100100011011
00000000000000110101100011100010
00000000000010001101001001101000
00000000000010011000101111001010
00000000000101110010101110101110
11111111111111010101111100001000
00000000000010010101100101010100
00000000000010000001101101101111
11111111111111000110110101111011
00000000000011010011001010011111
11111111111010111100000111111111
11111111111111100110111111010001
00000000000010101010011101111111
00000000000001110001000110010001
00000000000010001011101110110110
11111111111101010100110010110101
11111111111100111111000001100110
11111111111001011000001110001010
11111111111101011101000011000011
11111111111100101101110110000010
11111111111011110100101100011111
11111111111101101001000010100011
11111111111111011011011111111001
00000000000000011111000110111111
11111111111010010010011000000001
00000000000101110100011011110101
00000000000001011100101101011100
11111111111110000110010101101010
11111111111011001011001101100101
11111111111011110000000011001001
00000000000001100010000111111011
00000000000010000000110001111011
11111111111010001010000101101100
11111111111011000101111101101110
11111111111100100100010110111001
00000000000001110101100110100010
11111111111010010110111111101010
11111111111010000110101101000000
00000000000000000111111000000110
11111111111111110111010000000101
11111111111111110111110010100101
11111111111011000011110110011010
11111111111100111001100111110011
11111111111011010010000000010110
11111111111010010000100100101100
00000000000001100110001100010101
11111111111100011101110000010000
11111111111010101111101101101010
00000000000010110001011000110001
11111111111011111011000011111111
11111111111001111110100111110111
00000000000001110110011111011100
11111111111101000001001011000100
11111111111100101000001011011011
00000000000001100000000001100000
11111111111110100001111100010010
11111111111110101100110100010111
11111111111110010100010110011101
11111111111010111011101010010000
11111111111111110111101100100110
11111111111101111110110110101000
11111111111100100111111011111000
11111111111100010110001111111110
00000000000000110001010011101100
11111111111110010000010110000100
00000000000011001111000100001011
11111111111111000001100000110100
00000000000010010000101010111111
11111111110111111000110100100100
11111111111101001110011001011010
00000000000010101000010111010010
11111111111101000100101001011000
11111111111001100010101001110001
11111111111100101110110100001010
00000000000001000101111000110111
00000000000000000100110101001000
11111111111011000001000111000000
11111111110111011101001011110010
11111111111111010000110010001111
00000000000001000101101110110000
11111111111111100101010101010101
11111111111010011000001100110001
11111111111101000110010111010110
11111111111000011001101111001100
11111111111000110100001010101111
