11111111111010000101110101010100
11111111111010110101101010110000
11111111111101000100011110000000
00000000000010100110110100010100
00000000000000001001010000011000
11111111111010001100111010000111
11111111111110000101011110011000
00000000000011110011000001001010
11111111111101011101110000010011
11111111111100110001001100000011
00000000000011100100000111011000
11111111111010100001110111011111
11111111111000010100101111011010
11111111111110111010011101101100
11111111111110011000100100001110
11111111111101100000111100100100
00000000000010001110101010000010
00000000000001101110110011111101
00000000000001010001100110000001
11111111111011010010111000100101
11111111111011001111000101000101
00000000000010100001011000111010
00000000000100110011001001000011
11111111111100101101110110001101
11111111111010000111000111011100
00000000000001100000100011110011
11111111111111010110001110001000
11111111111100000011110101101100
11111111110111011110011101110111
11111111111101110101010100011011
11111111111010000011111010111000
00000000000001000101101110010011
11111111111001101001010100000101
00000000000001010100101100010101
11111111111101100111100000001000
00000000000101111001000111101100
11111111111100010101001011100010
11111111111100011000010011111000
00000000000000110001111001001101
11111111111111010101001001011100
00000000000100010010110110101110
11111111111010011011100000101100
00000000000001111100001110100100
11111111111010000011010011111001
11111111111110100001011101000000
11111111111101110100010010000010
11111111111010001001001100010100
00000000000011010111010101011110
11111111111110100111111001011011
11111111111101100000101001010001
11111111111111000111001110000100
00000000000001111100001010001000
11111111111111111000100111000110
00000000000011100011000110001110
11111111111010110101011010101010
11111111111000111111101101001100
11111111111000010000011010010101
11111111111001011000001100110000
11111111111111011000111010001011
11111111111001101001111001000001
11111111111011010111001111010011
11111111111100001111001101100000
11111111111100011001001010010001
11111111111010000000100100101001
00000000000010100000110110110111
11111111111010001111110001110101
11111111111000011100001100101010
11111111111001001011100000111101
00000000000010111111111110100010
11111111111010001001110101000011
11111111111001011111000000101101
11111111111001000100001101011101
11111111111010100100000100010010
11111111111010001111111100100001
00000000000000010100110001111000
00000000000010111010011101100101
11111111111101101111111111001000
11111111111011101100010101011000
11111111111000011000001010000010
00000000000100001000101000111101
11111111110111100001001111010010
11111111111001010100111100111110
11111111111000100001011010111100
11111111111101110110100110100010
11111111111010000100010100111001
11111111111101111100100010111000
11111111111011110001001110111110
00000000000010110101110000001110
11111111111011001111101001011101
00000000000011101110011110101101
00000000000011100110111111100000
11111111111011011111001000111001
00000000000000110010111101000011
11111111111111111011010111000001
11111111111111101110010011111010
11111111111011111011010100100100
11111111111100011100101000011110
00000000000010011001001010101111
11111111111111000100000100001101
00000000000000010001001011010110
00000000000010101110010100100010
11111111111011010111101100101000
11111111111010110101110000001001
00000000000010111111001010001110
11111111111000110011001000010110
00000000000101000011100101001001
00000000000010010001001011011100
00000000000100100111000110011110
11111111111110000111101001110011
00000000000001110011000110111101
11111111111110100100010100111011
11111111111100010101100100001110
00000000000001010010010011001111
00000000000101101101100001100110
11111111111001000100111011010110
11111111111011101110011100110001
11111111111100001010101011011011
00000000000001110010111110001001
11111111111100010101000110001111
00000000000000010011000011000011
