11111111111101000111000001011100
00000000001000011111110110001001
00000000001100010111101001011011
00000000000010101011001001110001
11111111111011000100001111000000
11111111111100010111011001000001
11111111110101110101101000110100
00000000000101011110110010101000
11111111111011010000001101001110
11111111111111000011010010100001
00000000000111100010001111010001
00000000001100011111010101101110
00000000000101010100100001100100
00000000000111110001101101001101
11111111111001101001000011110010
00000000000011100110011110010100
00000000000110001100011111000101
11111111111001111010100101111100
00000000000100101011100010001101
00000000001011100101011011010001
00000000000110101101111011110010
11111111111011001101110111000010
00000000000100011001110011101000
11111111110101001100111101011101
11111111111100010010101100110001
00000000000010111111110111100011
00000000000011011111011011011000
00000000000000000111000000000011
11111111111100100111010110000111
11111111111111110100110001110101
00000000000010101010110011100001
11111111111101000010111000100000
00000000000010010111100000001100
00000000000101000011101010011100
11111111111010101101110111011111
11111111110010010001000100110001
11111111111111101011110111001010
11111111110001111010011110001011
11111111111100100001010100010000
00000000000010110000111001011010
11111111111011010101101001100100
00000000000001001010111101010101
00000000000010111010010111010001
11111111110111101100001011010001
11111111111111110001001011010111
00000000000001001010010011110100
00000000000100010101011110011100
00000000000111010100100000100100
00000000000110100111000101110111
11111111110100110101100000000101
00000000000101101111000111100111
00000000001100011111110101000001
11111111110110100110111000111000
00000000000101000011100001001001
11111111111011000011110010110111
00000000001001011011010011011110
00000000001001001011111000010101
00000000000111000010000111100110
00000000000111110100001100011000
11111111111100011000001010101011
11111111111011001000111100011000
00000000000010001001101100101001
00000000000010010001001110000100
00000000000101000100010010010110
11111111111101011100001010101011
00000000000101000100100001000111
11111111111101010001010100101010
00000000000010100110110010001110
00000000000010011100010011011000
00000000000000000110101001001100
11111111111111001011011100010100
00000000000101001110011100011100
00000000000010000111010010111000
00000000000111001100000010010101
00000000000100011110101000011110
00000000000111010111110101100101
11111111101100011001101111100011
00000000000100010001111111000011
00000000000011101000001001000000
11111111111101011111100100110001
11111111111111100001100100111111
00000000000101101100100101011010
11111111111110100111110111100001
11111111111010000010101101001010
00000000000010000101001011011100
11111111110110001110011001011110
00000000000100001001100110000000
00000000000100101110110111110110
11111111111111001100001001010100
00000000000101100010110000011101
00000000000011010100000111001100
00000000000000010110111000011111
11111111111011011011011000000000
11111111111111010001011000110101
00000000001101000100111111001011
00000000000001000100111110000111
00000000000001100000111001110110
00000000000110011110110000010001
00000000000101100110011001101011
00000000000011010111000010010110
00000000000011001101101000111100
11111111111100100110010110010110
11111111111001000110001110101101
00000000000000011010000110100101
00000000000111000001110111010101
11111111111111100110111011011000
00000000000011111111110010110100
11111111110010101111100101111010
00000000000000101100000111010111
11111111111100000000010111001010
11111111111000101011010010101101
11111111110001001011001101010100
11111111111100110010001010000001
00000000000011010001101011100011
00000000000111011011110100010101
00000000000100100111111111010101
11111111111110000100101010001100
11111111111010010001110000000010
00000000000110011110111100000010
00000000000100001000101111000011
