11111111110101110101101000000101
11111111111111100110101000000000
11111111111010000000100110000000
00000000000011000000010110011010
00000000000110101010110000000111
11111111111101110000111010110101
00000000001001110011110001100111
11111111111110001110101000110001
00000000000101100011110001001110
11111111111001011110000100100010
11111111111000100011010110000011
11111111111010001110111000100110
11111111111101000001010010110011
00000000000110101001110010100001
00000000000111110111100010111000
00000000000000111011011001111000
11111111111100010101100011110010
11111111100111100011000011101100
00000000000011000000011000100010
11111111111101110101101100111011
11111111111100010001111001101100
00000000000010011110000001010111
00000000000101100010011111111110
00000000001000110011110001110110
00000000001000100100111101100101
00000000000100000011100110100111
00000000000101000011010100110110
11111111111101001001101010011011
00000000000100111011110110111111
00000000000111011110100100000101
00000000001000110000100011011111
00000000000001011100100010101101
00000000000000111110110110001001
00000000000000110110100100000000
11111111111110010010000110011011
00000000001100111010010011011100
00000000000001110110001100011001
00000000011000011000100001011111
00000000000011010100110011110010
11111111110011001011011011110010
11111111111100010111011110011010
00000000000000011110111011001011
00000000000011000111010011101000
11111111111101110110001010011100
11111111110100111000000000010000
11111111111111110011111011011011
11111111111101111010100000000110
00000000001101100011111000110010
00000000000100100010110101111000
11111111110010100100001011000111
11111111111111110111000001111111
00000000000001001001001111001111
00000000001110011101010010111010
00000000000001110111100111001100
00000000000001000111001101001010
11111111111001011111110010100010
11111111101100000000100011111010
11111111110101010001001011100001
00000000000111111011001001100000
00000000000001000001100101010010
00000000000001100110001010110111
11111111111010001001000001011011
11111111111101100000110101111111
00000000000111100111101100100011
11111111111100110110100010100100
11111111110011011011111111010111
00000000000100000111100011110111
11111111110111001001111101100001
00000000000001000001100111001111
00000000000111111010000110111111
11111111110101101001001110110001
11111111111100000101011000100001
11111111111100100101100000001000
11111111111010111011101100101111
00000000000001111010111000111001
00000000001111010001100111011100
00000000000111111000010000000110
11111111111001110011011100110011
11111111111010001101101110000001
11111111111010011010100010001011
00000000000001101110100000000100
11111111101111011010111000000100
00000000000010111111011001100100
00000000000001001110110110011101
00000000001110101001011001111010
00000000001000100000001010110110
11111111111100001100010110011011
11111111111001001111101101011100
00000000000100111100101100110100
11111111111101010111000010001100
00000000000101000110000111010010
00000000000100001100010010011011
11111111111111110001011101001001
00000000000000011000111010100000
11111111110110011101000110111100
00000000000001101011010101000100
00000000000011000111110110001011
11111111111011100111010010011110
11111111111101000111110101101111
11111111111011110000101101011111
00000000000000000001101101100000
11111111101110010001100001100101
11111111110110010010110111100011
00000000000010111110110001101100
00000000000001011010011100100110
00000000000001111000000001011000
00000000000100011101010010001011
00000000001000100000110100101000
11111111111101101110111100100111
00000000001001001100001001000110
00000000000101101101110100110010
11111111101111001010111010101111
00000000001010000011001100000010
00000000000010100000100000011100
11111111111010011000101000101000
00000000001011111110011101001101
00000000001010001111000011000010
00000000000101110001001011101010
11111111101101100000001010010000
00000000000010001000100100111001
