11111111111010011111001110101110
00000000000001001001000110100001
11111111111110011101011100111110
11111111111111100011011001011110
11111111110111010011001011100100
11111111111111100111111010100101
11111111111101110011101001100100
00000000001001101001001010000101
00000000000011000001111100110001
00000000000000111010000001000111
00000000000110100010001100100100
00000000000111101100011011010101
00000000000100000011001100001111
00000000000010000011000000111100
00000000000101100010011001110001
11111111111010111101110110110001
00000000000001110001100100011110
11111111110001100001111101010000
11111111111101101010110111010000
00000000001011100101110100110000
11111111111101111011100101110011
00000000000101001110011101000101
00000000000100110101001100000000
00000000000111010100111001000010
00000000000011001010011010001111
11111111111110010100110110110100
11111111111001100110101010011111
00000000000100101100011011101100
00000000000101101011001001111011
11111111111110010001001000011010
00000000000110010000001110110111
11111111111111111011011000100011
11111111111000111011100110101000
11111111111011000111000011111010
11111111111111100001111011110101
11111111111101010100100010100110
11111111111010001100011001111011
11111111111110011001111110111101
11111111111100001100110011000110
00000000000000001010110000011011
11111111111110100101100010111100
00000000000100000110111110100110
11111111111011100011111010000101
00000000000111001011110100111010
11111111111011111111010000001100
00000000000001010100001011000001
00000000000101000001111101011101
00000000001001110101111001000010
00000000001000101000111100001101
11111111110100101101010101100011
00000000000101011110111010001011
00000000001001101001000110101110
00000000000001011111001000001010
11111111111101101000111011001010
11111111111100011111011000011011
00000000000011011011000001000011
00000000001010011001110000000110
00000000000101101011011111010111
11111111111101110100100011110010
00000000000101100101101101100111
11111111111101010010011101010111
00000000000111011101011100011111
00000000000001000101010000000000
00000000000000010110001000110101
00000000000010101011000101101111
11111111111000010000100100110110
00000000000000011000001000010110
00000000000000010110100000111011
00000000001001010001101001001010
11111111111110011000101001001101
11111111111010101111001010111011
00000000001001101111110000100110
00000000000110001001100011110010
11111111111110101101011111111110
11111111111100101001111110001001
11111111111011111111110001010111
11111111111001101010100100000110
11111111111111001000100110101110
11111111111101110001010001110100
00000000000011001011001010010101
11111111111010111111100111000111
00000000001000010101101001010001
11111111111100111001101110010000
11111111111001101101101010011010
11111111111101010000111010000101
11111111111111000010110100100101
11111111111111000010011000100010
00000000000100011101000110011111
00000000000100011101010001110011
00000000001000100010000010110111
00000000000000101010001100100000
11111111111111100011011011001001
00000000000001001010011001011100
11111111110100011100111011010001
11111111111110001001101010011000
00000000000110011000011101010111
11111111111010110110011100001101
11111111111110110110001100001000
11111111111100010010101001000101
00000000001001101101000100000100
11111111111111101111111111001001
00000000000001001011011001110101
00000000000101110110100101001110
00000000000110011101001000111111
00000000000110100110001100110110
00000000000001111011011101100011
00000000000110011111000000011110
11111111111100000100011101010000
11111111111100011100001001110000
00000000000111101000000011101001
00000000000000001110111011001111
11111111111101100101011100001101
00000000000001000010011011100001
00000000000010001001011110010100
00000000000111001011101101101101
00000000000110110100110010100000
11111111111101000011111111101010
00000000000011101100010001011110
11111111110110111001001101001001
00000000000101100101000111110011
