11111111110010110101100110010111
00000000000101001001001001100110
00000000001011010000001111001001
11111111111111001111101111110100
11111111110001110000111110000101
11111111110011100111000110111001
00000000001000101110101110001101
11111111111110100010111110000110
00000000000001000100011110001101
11111111111011001000101001011001
00000000000011101100010010111000
11111111111001001100000101110000
11111111111110110110011101000001
00000000000000110101110110011011
11111111110001011010010111011101
00000000000010101101000000000110
11111111111001010100100000010101
11111111111000000100110100111011
00000000000100011000011011011111
11111111111100100001000100101110
11111111111111010101111000011011
00000000001010010000111110101010
00000000000010101010000001000100
00000000001110110001110010010100
11111111111010011100111111010100
00000000000010110100011001100001
11111111111110011110000001101000
00000000000000100100001101001110
11111111111101110101110110110001
11111111111011110111101111000001
00000000000100010001100100000000
00000000001010010011111101001001
00000000010010101011011110001111
00000000000101011110110110110110
00000000000111011110101001010011
00000000001001000011100110111101
00000000000000101001101000001010
11111111110100010001011000110010
00000000000101001000110011010110
11111111111000011100110101100000
11111111111100000110100111111111
00000000001001001001111100011100
00000000000101001111000101010010
00000000001011100011111110111111
11111111111010110010101100001010
11111111111010011101011100000000
00000000000111001101011000111011
11111111111111000110010001111101
00000000001000011000101110101011
11111111110110111110001001100111
00000000000101100011001111001000
11111111111110001010011110110001
00000000000011100100101100110001
11111111110010110111100101000011
11111111111010010110111010110110
11111111111110001111101110110100
00000000001001001110110000010101
11111111111100001100011010001001
11111111111110000000101010101000
00000000001001011001100101011111
11111111111011111111101010001001
00000000000011000111110110000111
11111111110111110010100110101101
00000000000010000010001011100011
00000000000000010000011001001111
11111111111010000101101100000101
11111111111010001101111100001010
00000000000111110110010001100101
00000000000010000011100110000101
00000000000011111111100001110001
00000000001110110101010011010111
11111111110110100110100110010011
11111111111111101010001101111011
11111111111101111101101001110010
00000000000101100001001100110110
11111111111011101101001101001100
11111111111100011001100010110110
00000000001000000101011100110100
00000000000010001101000111111111
00000000000001100000011111100001
00000000000101111111101100101010
00000000000011011011001011000010
00000000000001001010010100111011
11111111111110100101101011011001
11111111110100111000111010001101
00000000000000010010011001110110
11111111111111011110010111111011
11111111111011101010010000000011
11111111101010110101110011010101
11111111111110100000001001111100
00000000000011001101001000011101
11111111111101001101100111111011
11111111111100000101110011011101
00000000000000101100001010101111
00000000001010110011100011011100
00000000000010010011111001100000
00000000000000000100100000111101
11111111110100001000000000010111
11111111110111101001000000010111
00000000001011000011111101111010
00000000000000011001101010110111
00000000000111000100010010101110
00000000000000101001001110001110
00000000000110010000000100111000
00000000000110011010110100101010
00000000000100011110011101001111
11111111110111100111011011100100
00000000000100111011011011100110
00000000000001101110001011011001
11111111110110111011010101100111
11111111111111111101101111001110
00000000000110010111111100001010
00000000001100110011011110000001
00000000000100001100000101010100
11111111110110101011010001111000
00000000000100010000001011011110
11111111111001011011100001101000
00000000000001111100000111011110
11111111111011001110000011100001
00000000000000001110101100110101
