00000000000000000000000000000000
00000000011111001111001111011011
00000000100010111001100000010010
00000000000000000000000000000000
00000000000000000000000000000000
00000000000000000000000000000000
00000000000000000000000000000000
00000000000000000000000000000000
00000001000110010000011000001010
00000000000000000000000000000000
00000001100000110000101101010010
00000010100000000000100110101000
00000001011010000001110101011100
00000000101111101001101000010011
00000000000000000000000000000000
00000000010100110111110010000111
00000000101110101001001010110100
00000000010101110001000000111101
00000000000000000000000000000000
00000000000000000000000000000000
00000000000000000000000000000000
00000000000000000000000000000000
00000000000000000000000000000000
00000001101010111110001011000100
00000010100110011101011110000000
00000000100101110100011111101011
00000000000000000000000000000000
00000000000000000000000000000000
00000000000000000000000000000000
00000001001001111101001101011110
00000000000101010111001100001110
00000000000000000000000000000000
00000000001100110001110011111110
00000000000000000000000000000000
00000001010100000001001101100110
00000000000000000000000000000000
00000000000000000000000000000000
00000000000000000000000000000000
00000000000000000000000000000000
00000000000000000000000000000000
00000000000000000000000000000000
00000000000000000000000000000000
00000000000000000000000000000000
00000000000000000000000000000000
00000000000000000000000000000000
00000000000000000000000000000000
00000000000000000000000000000000
00000000000000000000000000000000
00000000000000000000000000000000
00000000000000000000000000000000
00000000000000000000000000000000
00000000001110001000110001100001
00000000000000000000000000000000
00000000000000000000000000000000
00000000010110100111000010011011
00000000000000000000000000000000
00000000001010001011111101001001
00000000000011000001100110001110
00000000000000000000000000000000
00000000000000000000000000000000
00000000000000000000000000000000
00000000000000000000000000000000
00000000000000000000000000000000
00000000000000000000000000000000
00000001001001110010111000110110
00000001010110001001010001000000
00000001101111110101000111010000
00000000000000000000000000000000
00000000000000000000000000000000
00000001000000111100011000010000
00000010001011111011110010101000
00000001111111100101101100100010
00000000101001101111000111010110
00000000010000111100100011101110
00000000000000000000000000000000
00000000010100111001100010011100
00000001001001011100011000010110
00000000111100111100010111111001
00000000000000000000000000000000
00000000000010001111110111000101
00000000000000000000000000000000
00000000011000000101100101100101
00000000110011010100111111100111
00000000100001011100011101100001
00000000000000000000000000000000
00000000000000000000000000000000
00000000000000000000000000000000
00000000000000000000000000000000
00000000010100111100111011001011
00000001011111001000111001111100
00000001010110010010000001100100
00000001101110110000110100001100
00000001101111111110000100101100
00000000001010100001110000001100
00000000111000101000010001011100
00000000111101110011011100000101
00000001111000100101001010000110
00000000000000000000000000000000
00000000000000000000000000000000
00000000000000000000000000000000
00000000011001011010111011100101
00000000101100110101110111001000
00000001001100111110100011100100
00000011100001010011010111110000
00000000100011110111010011000001
00000000000000000000000000000000
00000000000000000000000000000000
00000000101110110101111010100011
00000000110001110010011011011100
00000000110110101110111011001110
00000000000000000000000000000000
00000000000000000000000000000000
00000000000000000000000000000000
00000000000010111001000101000111
00000001110010110100000111010110
00000000001101011110010001111011
00000000010110111000100010000001
00000000000000000000000000000000
00000000101110101000111111001111
00000000000000000000000000000000
00000000000000000000000000000000
00000000000000000000000000000000
00000000000000000000000000000000
00000000000000000000000000000000
00000000000100110000100111111001
00000000000000000000000000000000
00000000000000000000000000000000
00000000000000000000000000000000
00000000000000000000000000000000
00000000000000000000000000000000
00000001111011010110001111000110
00000010100000101000110001000000
00000010010110001001001101000000
00000000000000000000000000000000
00000000000000000000000000000000
00000001100111011101000111001010
00000000010000110111001100000001
00000000000000000000000000000000
00000000000000000000000000000000
00000000000000000000000000000000
00000000000000000000000000000000
00000000000000000000000000000000
00000000000000000000000000000000
00000000100011101011010001111011
00000000010000110010001011010110
00000001100111100000011010000110
00000010001101100111101111010100
00000010001110111110001100001000
00000010111000011110101101111100
00000011011001010010011000111100
00000001001000100100100001010110
00000001101000101100000001000000
00000001100110111000000010110100
00000001011011110110111010110110
00000000111110100000011110101110
00000000000000000000000000000000
00000000000000000000000000000000
00000000000000000000000000000000
00000000000000000000000000000000
00000000000000000000000000000000
00000001000000111110010110111110
00000001111101101100100011011100
00000001110111001111110111101100
00000000111101011001110101010001
00000010010110100011000100100100
00000000100001011110101000000010
00000001100110011100011011001000
00000000010110011000101111110111
00000000000000000000000000000000
00000010000100000110010110011000
00000001001010100000001000100010
00000010000001100110110010100100
00000000000000000000000000000000
00000000000000000000000000000000
00000000000000000000000000000000
00000000110110001100100100001010
00000000001110010001101111010100
00000000000000000000000000000000
00000000000000000000000000000000
00000000000000000000000000000000
00000000001000010111110111010101
00000000000000000000000000000000
00000000000000000000000000000000
00000000000000000000000000000000
00000000000000000000000000000000
00000010000001001010110100001000
00000000000000000000000000000000
00000000000000000000000000000000
00000000000000000000000000000000
00000000000000000000000000000000
00000000000000000000000000000000
00000000000000000000000000000000
00000000000000000000000000000000
00000000000000000000000000000000
00000000000000000000000000000000
00000000000000000000000000000000
00000000000000000000000000000000
00000000000000000000000000000000
00000001100111111000101101011110
00000010100110110011110110001100
00000000111111100010000110001111
00000000111110110010111000011110
00000000000000000000000000000000
00000000000000000000000000000000
00000000000000000000000000000000
00000000110010000001101111011101
00000000000000000000000000000000
00000000001111110110011010101000
00000010011111110110100011100000
00000000000000000000000000000000
00000001010111011101011000001000
00000000000010010111000011011010
00000001000010100110000010100110
00000010000000100101000010001000
00000000000100001000110011100101
00000001011101000000001110101000
00000000000000000000000000000000
00000000010011110010011111001110
00000000000000000000000000000000
00000000000000000000000000000000
00000000000000000000000000000000
00000000000000000000000000000000
00000000000000000000000000000000
00000000000000000000000000000000
00000000000000000000000000000000
00000000000000000000000000000000
00000000100011010111101100010100
00000001101101011110011100111110
00000000000000000000000000000000
00000001011011101100001000111010
00000000000000000000000000000000
00000000000000000000000000000000
00000000000000000000000000000000
00000001000101001000100111101110
00000000000000000000000000000000
00000000000000000000000000000000
00000001111110010110111111100010
00000000110000010100000101111101
00000010010010000110001011010100
00000000101110100110101111000001
00000001001000100000100110000000
00000000001010011111000101100111
00000000010101100111001100101000
00000000000000000000000000000000
00000000000000000000000000000000
00000000000000000000000000000000
00000000000000000000000000000000
00000000000000000000000000000000
00000000010001000000011011010011
00000000110100100000110100001111
00000000000000000000000000000000
00000001101101001010011000101110
00000010100100110101101100110000
00000000001001011000011010000001
00000000000000000000000000000000
00000000000000000000000000000000
00000000000000000000000000000000
00000000000000000000000000000000
00000000000000000000000000000000
00000000000000000000000000000000
00000000000000000000000000000000
00000000000000000000000000000000
00000000000000000000000000000000
00000000001010110100011101101011
00000000000000000000000000000000
00000011011011011010101000010100
00000001111100110101000000111100
00000000000000000000000000000000
00000000000000000000000000000000
00000000000000000000000000000000
00000000111101010001010010000000
00000000000000000000000000000000
00000000000000000000000000000000
00000000000000000000000000000000
00000000000000000000000000000000
00000000000000000000000000000000
00000000000000000000000000000000
00000000000000000000000000000000
00000000111010111011111111110110
00000000000000000000000000000000
00000000001000101000110000111111
00000010000010010100010011110100
00000010100010101000111001011100
00000000111110011101101110010010
00000000000000000000000000000000
00000000000000000000000000000000
00000000000000000000000000000000
00000000000000000000000000000000
00000000000000000000000000000000
00000000000000000000000000000000
00000000000000000000000000000000
00000000000000000000000000000000
00000000011010110010100010110011
00000000001111111101111001000010
00000001011111011000010111100110
00000011010011111010010010101000
00000100010111001010111000101000
00000011011100101110001111000100
00000010001010101100001011011000
00000001000111111110110110110110
00000000011001000001010110011011
00000001010110001010111000101100
00000000000011101001000100011100
00000011100000010011110011101100
00000000010001100101011101110001
00000000000000000000000000000000
00000000000000000000000000000000
00000000000000000000000000000000
00000010110000101011101110111000
00000001010101111101010110010000
00000000000000000000000000000000
00000000000000000000000000000000
00000001000101111001111011011000
00000010011101110010001001010100
00000000110011101100011100010110
00000001011110001101001111101110
00000000000000000000000000000000
00000000000000000000000000000000
00000011000111101000100011101100
00000011011011100010100001010100
00000011000011010101000110011100
00000000000000000000000000000000
00000000000000000000000000000000
00000000000000000000000000000000
00000000000000000000000000000000
00000000000000000000000000000000
00000001001001111011000101101100
00000011110110010000010011000000
00000001111100100100001111001000
00000000011101000001010110010101
00000001000100100001000001111000
00000011110001101000010110111100
00000010101010000000010010000100
00000000000000000000000000000000
00000000010010111001101011001111
00000000000000000000000000000000
00000001011010010100100000100110
00000001110011001101001100010010
00000001000011001000001010001000
00000000100011101110101101001100
00000000101111011110110101001110
00000001100111010110111010000110
00000011001000010100010111011000
00000000111000001000101000101100
00000000100110111100011101010100
00000001010101011110010000000100
00000011111001100101011111010100
00000011001011111111001111100000
00000000000000000000000000000000
00000000000000000000000000000000
00000000000000000000000000000000
00000000000000000000000000000000
00000000000000000000000000000000
00000000000000000000000000000000
00000000111110110101111111101101
00000000000000000000000000000000
00000001001011011010110000100000
00000000111000110111111101011011
00000000000000000000000000000000
00000001110101000111010011010000
00000000000000000000000000000000
00000000000000000000000000000000
00000000000000000000000000000000
00000000111001100010111111010011
00000010100100110111001001111000
00000000110101011110110110111110
00000001110100001110010100001010
00000000111101100110100011100000
00000010000110001000010101011000
00000000000000000000000000000000
00000000101011111000100100000100
00000001001111001010101111100110
00000001100000000010001000000100
00000001010101010001110101111000
00000000000000000000000000000000
00000001010100001010000110110110
00000001000011000101000001000110
00000010011100000010010111111000
00000010100011101110010110101000
00000000011111101100011110011001
00000000110101101000101010001001
00000001001010000101000000000110
00000000000000000000000000000000
00000000101001111011101100011110
00000000110000101100000000001100
00000000000000000000000000000000
00000000000000000000000000000000
00000000000000000000000000000000
00000000000000000000000000000000
00000000000000000000000000000000
00000000000000000000000000000000
00000000000000000000000000000000
00000000111101011011111010001100
00000100001111010001010000000000
00000100010111100001110110111000
00000001101111111100010010111110
00000000101000001111100100101101
00000000000000000000000000000000
00000000000000000000000000000000
00000001101001101101111011110100
