00000000010111101001111110101011
00000000011001011100011001011011
00000000001000010100000000001100
00000000011010000010000101001100
00000000001110011101100101110100
11111111111110010110101101001000
00000000001100001001101000111010
00000000010011010100100110010011
00000000000100010001010110110100
00000000001010000100111110101011
11111111111010011010011011011010
11111111111011100010100100100101
11111111111110011100000001011101
11111111111011001110100011001001
11111111111110001100000000100101
11111111100101111111100100010101
11111111100001100100001000111010
11111111100011000001111100000001
11111111101100111101110100010010
11111111111011011000101101000101
11111111110111001011100011001000
11111111111011001010000000100010
11111111110011010101001001111110
11111111111111111001101100001100
11111111111111110011101100101000
11111111110111100011010101111111
00000000000100110011010000001001
11111111101110001101000110010111
11111111110001101001000000011110
11111111111010100010101001011110
00000000001010110100111111100110
11111111111101111111010000011010
11111111110111101000100010110001
00000000000110100100000011101010
00000000000101100010011010111000
00000000000101101111010000011100
11111111111010110101011011100100
00000000010100101110000101010010
00000000011000011010101011100001
00000000010000001100010100011100
11111111111101111010101100010010
00000000000101111011101011110010
00000000001011100011100001100011
00000000010011011011011000100001
00000000000000110001110101101000
00000000000010010000001110110111
11111111111011010101111011010100
11111111111110101000111010111110
11111111111110111010000110100100
11111111110001011100001100001100
11111111111111100000101110000101
00000000001010110101100110001110
00000000001000101100011010000001
00000000000000110110110011001001
00000000000000000101110011001011
00000000001111011100011011010011
00000000001010110010011000100001
00000000011100110000110001011100
00000000011011011101011010010001
11111111111011001000010110000100
00000000001100011101111000010101
00000000001110001000101100001000
00000000010111100011010011101010
00000000010010111111101100010100
11111111101100011100011101011111
11111111111011001101101010011110
11111111110000010110011111101111
11111111110110000100000011011000
00000000000001100111001010011010
11111111110100010000110011000100
11111111111000111110001010011110
11111111100110010000001101100110
11111111111100111100101111000110
11111111111000110111010011000101
11111111111010011110100011011100
00000000000100111010100111001011
11111111101101000111011100100010
11111111100100011110101101101000
00000000000010001100010111111101
00000000001011001000101100000100
11111111110011001000111101000001
11111111101101010010011001110101
11111111101010011101100010001111
11111111111110001010101101101101
00000000011010110011010100100100
11111111010101101101001111101110
11111111101010111000010011111000
11111111110011010001111110000001
00000000001101110011001100111110
00000000010100100101100001011101
11111111101110101010111100100000
11111111110010011011100110010100
00000000000000001110000110010111
00000000000110100101000100110011
00000000011010110011001010110011
11111111101011010111111000100011
11111111110010100100101010010000
00000000010001010100010001110010
00000000010000110011101010011111
00000000001011011001011100001101
00000000001100101011110001011110
11111111110111100111110111001110
11111111110000000110110110010011
11111111011001011111111011111010
11111111011100010111111011111100
00000000001101100001111101111010
00000000001101100110100100001010
00000000000100110100101111001111
11111111101000100111010110011000
11111111101000100000001100111101
00000000000101001100100010101100
00000000010010100110010100011110
00000000011000001100011011111101
11111111110011001001011100000011
00000000000110011110001001001010
11111111110000101010101010111100
11111111111101111010001100100011
00000000000011111010010000000000
00000000001000111000111100010101
00000000011001101101110001101110
11111111111100001110101010110010
00000000000010001101000000000011
00000000010111101111110110110100
00000000010111010101010101000110
00000000010001010111111101001111
11111111111010011010001011101011
11111111111001110111010000001001
00000000000100110111100111100101
00000000000110000010011100000100
00000000010000000010110110110011
00000000000100111000100110000110
00000000001010110101010011011111
00000000010001000000000001110101
00000000010011001010110100100110
00000000001010001101111100000111
00000000000011011110101101111110
00000000000011010101111010100000
00000000001101111111111010110101
00000000000101001011101011101011
00000000001111010000101011100000
11111111111100011100011000011100
11111111110111010011101011011100
00000000000010111011110001111110
00000000000011100110111100111011
00000000000010110000001100010111
11111111101100100010011000111001
00000000000100011010100101100010
11111111111011011101010011111111
00000000000111101110000110000110
00000000000110001111011100000011
