11111111111111100011111111011010
11111111111010000101110110000101
11111111111111001001011000000110
00000000000010000110001101100011
11111111111110110001100010000101
00000000000101101100011011110101
11111111111001000110001110110010
11111111111001000001101000010100
00000000000111111000010111010110
00000000000011010001010100010010
00000000000101001001111011100111
11111111111111000101010110011110
00000000000000001111000001000011
11111111110110101000100110010110
00000000010011100001011110000001
11111111111001000101100000111011
11111111110110011010110011000101
00000000001000001100101000010000
00000000001011110100010100100011
00000000000010101101101101011001
00000000000100101010001001111101
00000000000111011111111101101101
00000000000001011101100101011011
11111111111010011110100011001111
00000000001101111110100010111100
00000000000000001000110110111110
11111111111111100110100110110000
11111111101101111100010001011100
11111111111100110001110110001100
00000000001100101111111001101101
11111111101010000101001101001011
11111111101000011100010111110011
11111111110100101101001110111010
11111111111010000011001001110010
00000000000010011000100011011101
00000000000010011000011100011010
00000000000010110111000111011010
00000000000111011111110011000000
00000000000100010011110111110001
00000000001111011111101101100010
11111111111001011011000001101101
11111111101111100011100000001111
11111111111001111101110010101110
00000000000101100011001010110010
00000000010001000000100110001110
11111111111001100101110101101110
11111111111100100010000101011001
00000000000111001011110000001100
00000000000111000110010101011010
00000000000100011001100001101001
00000000001000110001011010101110
00000000000000010000001010110000
00000000000111101111100110010011
00000000000101011110011001001110
11111111111011011110011010011100
11111111111010101001010111011100
11111111110101101000101000100100
11111111111110000101000101001000
11111111111100100111010011110111
11111111111001100110110111111110
