11111111111110011000101011000000
11111111101011111110111011101010
00000000000010111000111100111011
00000000001001000001100001011000
00000000000111110001011000111001
00000000000001000110010010011011
00000000000010100010111110100110
00000000000100100100001111101100
00000000000011101101111001010011
00000000001011100010100101100001
00000000001000000100001011000011
00000000000010100011101110010111
11111111111011100001111011100001
00000000001110110000100010001000
00000000001100010111010011011111
11111111110011101111000110101000
00000000000011111101101010110000
00000000000100010000100011001010
00000000000000011000011101001000
00000000001010000111001111000010
11111111110010110000110110000100
11111111110100110011111001000010
11111111101010111110101110010001
00000000000010100000111111110001
11111111111110011111101111100011
11111111110011111101100010100101
11111111111000011110111110111111
00000000010010001100101100011111
00000000000011010010100111111110
00000000000000010001111010001010
00000000001011111000100100000011
11111111111010110111110010100101
11111111111001011101000011110100
00000000000100000011000011111001
11111111111011000111100000110010
00000000000101010101000010010100
00000000010011101001110110011111
11111111110010001111011110000010
00000000001110011011010110001111
00000000000000110101011100000110
00000000000001000110110111100101
00000000000111100000010100011110
11111111111011011011010111110011
00000000001000101100101111110100
11111111110111011110110110011101
11111111110001011011000000010010
11111111110110110100011100111010
11111111111111001001111101100000
00000000001100011111001001001000
00000000000000100110000011101101
00000000001000101011111001100100
00000000000101000001111101010001
00000000000111000000011000100001
11111111111010011010101110110000
00000000001100011110011000001000
11111111111000010001010101000000
11111111110001110101111001100110
00000000001000101000010011100010
11111111101110001000110000111000
00000000000011001110010111110011
