00000000000110101011001100101110
11111111111010100100101110010011
00000000001101110010011110011000
11111111110001011001011001111101
11111111111110011100001110101110
11111111111001111101000010111101
11111111111101011110100011110101
00000000000010000110001101010110
11111111111010110010111010110100
00000000000101110101111000100111
00000000000000010111110101100110
00000000000001111001101001000010
00000000000000010010110001000001
00000000000101000110110111110000
00000000011001001001101001011000
00000000000000010101101010000110
11111111111010001000011110110010
11111111111100010110111100101011
11111111111000010000010010011111
00000000000111101100101101011100
00000000000110100101111011100001
11111111110101100001110101110111
00000000000100000100011101111110
11111111111111100100111110010111
00000000000010101101111000101111
11111111111110010011000000011100
11111111110111111001111100101100
00000000001001111110101111110001
11111111111100001001111010010111
00000000000110011111110001000100
11111111111100101000110101101100
11111111111011010100001110001001
00000000000010000001101011010001
00000000001000100101100011010011
00000000000011010011111100001111
00000000010010010011101011101010
11111111111010001001001001110001
00000000001101010111110100100101
11111111110011010100010111011011
00000000000010110011100110011010
11111111111000111100000000111000
00000000000000011100100010110010
11111111111101111011100101101101
00000000001001110001000101110110
11111111110010010011101001000001
00000000000101110010011000011010
00000000000001001010010000011010
11111111111000000101110110111110
11111111101101101000010011101100
00000000000010110010101011000010
00000000001001111110011001000110
00000000000001010101110001010000
00000000010000000001011010110110
00000000000011000010110001000010
00000000000101110001100100010011
00000000000000000011101001110100
11111111111111010100000010111100
11111111111111100111100100100111
00000000001000101001000001011100
00000000000111111011001101000010
