00000000000011111100010010110110
11111111111100111001010111100011
00000000001111010101101010100110
00000000000010101101001110001110
00000000000010110110101111100100
11111111110010010111001100111001
00000000001001110010011100100100
00000000000011000011100101111010
11111111111001010110100101100011
00000000010010001111011001010111
00000000000001001001000111001000
00000000000010111001010010001000
00000000000101010111101010100011
11111111111000110000011111010000
00000000001011101100001101110100
11111111111100001000010000110000
11111111111010010101111000111110
11111111111100001010111011110000
11111111110101001111011101010011
00000000000001010010000011111011
11111111111111000001010001011110
00000000000000110100101011010000
00000000010000111010000111111111
00000000001000110000011011101110
11111111111010010110101011010111
00000000000111100100010100000010
11111111111010000001100000000000
00000000000111111010100001000101
11111111111011110100011111101111
00000000001001101100110101101010
11111111101001111100101001111001
11111111111100011100011010001010
11111111110101101111110101101100
11111111111010101010100010000010
00000000001010010001010101001100
00000000001000100001011100100100
11111111111100101110111110000001
00000000010100100111010001101010
00000000001011100001100111001110
00000000001101111110110110100011
00000000001100001101100001011110
00000000001000100110000111111000
00000000000000000111000000000101
00000000001011011110101111010101
11111111101110011101010110000101
00000000000001101111000010001011
11111111110110100110111011111001
11111111110111000101100111001111
11111111110011001101101010110110
00000000000001000100010110101001
00000000000011110001110001001100
00000000000010100111100100000010
00000000000100100001001100000011
00000000000010010010001110100100
11111111111111101001011000010001
11111111111000000011011010000111
11111111111011011100101001100011
11111111111111000001011010001001
11111111111110101010001010100111
00000000000001000101101000011011
