00000000000100001101010011100110
00000000001000011001110101100111
11111111110111011010101111011111
00000000000101101100010101101000
00000000000011111011010111110000
11111111111010101100100110110010
11111111111101100000000001101101
11111111111000100001011000101101
11111111110101000110011011101010
00000000001111011010100111101110
00000000000011100100001001001100
11111111110100001000111000000110
00000000001011000110010101001101
00000000000100010101110100111001
11111111110001010001010100000101
00000000000110000010101011111010
00000000000110001101110100001101
11111111111000010001001011101001
00000000000100011011011100000101
00000000000001111110100010110110
11111111111110000100010100111001
11111111111000111100111010111100
00000000000010100111101101010011
00000000001110001000010100111001
11111111111011111011010111100000
11111111111110011011111000000110
11111111111110100110100001100000
00000000000011000111010010000001
00000000000010010110100011011000
11111111111110111111011000011001
00000000000000001011101000000111
11111111110011111010000001111010
00000000000101011000101011001111
11111111111110000101100111000101
00000000000001001001101100111001
11111111101110111011010001001011
00000000010001010000110000101110
00000000000101010000111110100011
00000000010000111000100110111001
00000000000110101100110000110010
00000000011000001010100111101100
00000000000101011100111000111011
11111111111011111011011011011100
11111111110111011110001001100010
00000000000110000100000001010110
00000000000001011110100011001111
00000000000011011010000100011110
11111111111001011101101000110000
00000000001111001101000011010100
00000000000111010011010000001110
11111111111010101101000001101001
00000000000000110100100111110000
11111111111000010111011011001111
11111111111111101111010100001111
11111111111010001110100110111011
00000000000100001000000011111010
00000000000000110001110100101011
11111111111100111101001111001111
11111111111101100100011000001010
11111111111011000111010110001101
