11111111111100111110101000100010
11111111111100000100100011111110
11111111111000110010100011110001
11111111111110110101110011101001
11111111111011100001100011100110
11111111110001010101111011100110
11111111111001010011000010001101
00000000000011111000110101010001
00000000001110011101110011000011
00000000001110001111001001100000
11111111111010101110101100110110
11111111111100000011010111111011
00000000001010011011001011010011
11111111111000011000101101000001
11111111110111110010001010001000
00000000000110010000010000101001
00000000000111000001001111110100
00000000001000010011100100011011
11111111111100101110011110000010
00000000000100011111111000110000
00000000000110110101101011010000
00000000000011001001101011010010
11111111111110000001010011001101
11111111111010100111110010111111
11111111110011000010101011000111
11111111111101001000111011101100
00000000000010110111010001011111
11111111101111100110010000000101
11111111110110100011000011001100
00000000000111000001001001100110
00000000000001111000010100100011
00000000001010100110101010101011
11111111110010111111100110011011
00000000000001111001011111111011
00000000000001001000000101001000
00000000000010100001010101110100
00000000000001011010010110111011
00000000000001001011110000011000
00000000011000100010001000011110
00000000010000100100111011010001
00000000001110011110110110000111
11111111111000100010111011011010
00000000010000001110001110000100
00000000000001111111011110110001
11111111111101010000101011001110
00000000000111011011101100010100
11111111110111011110010011010001
11111111111110101000101000000011
00000000010001001100111000110100
00000000000110011000100101110001
11111111110001001111011011010011
00000000001000100000100110011010
00000000000101000100000101110101
00000000000111011001100011111100
11111111111010000110011010100101
00000000000110010100110100101011
00000000000100100110011011000011
11111111111111110101001111001000
11111111111011011100000000110000
00000000001010001100000100110110
