00000000000110101011110111110100
00000000000111001011011001010111
00000000000011101010101110001000
00000000000000011011011001110111
11111111111110001110110100101111
00000000000001100101100001010101
11111111111110111011000000000010
00000000000010101111001100010011
11111111111111000101000110000001
11111111110110110111010000111000
11111111111111011010001011001000
00000000000011000000111101000111
11111111111001011010111001100100
11111111110111101100111100110010
00000000000111000100100011111000
11111111110111011111010101100011
00000000000011011000001001010000
11111111111010011100110111110010
11111111110100011100100000110000
11111111111011101101001100101010
11111111110100000111010111000000
00000000000010001010000101000011
11111111110111000111010100100001
11111111111110001101000110100000
11111111111100011101010011110101
11111111111011001011100100010101
11111111111110110001010100101001
11111111111010001001001100100110
00000000000001111100001001011100
00000000000101000001011000010110
00000000000001010110101011101100
00000000000101000110000011001010
11111111111010000000011010101111
11111111111110011011100011110011
11111111110111110110010010101000
11111111111000110111010011011001
00000000000010100100000110010111
00000000000010100010100110011111
00000000000101100000100111001011
11111111111100101100111111001110
11111111111101001111110110010100
00000000000001011000100010010100
11111111110110101000100111010001
00000000000001011010010001010111
00000000000011011001000010100011
11111111111010001001111001011110
11111111111011001101101001011111
11111111111111010000111110111110
11111111111100001111110101011111
11111111111010110011110000110101
11111111110101010010100010001010
00000000000010010111110100101101
00000000000000011001010101100000
11111111111000011110111110100110
11111111111001110111000110110100
11111111111100011001011011101100
11111111110100010000011011000110
00000000001000001100001000110011
11111111110100111100011000110110
11111111111101110000101010110100
