11111111111111000100111001110100
00000000000011100010111011100111
11111111111000111111011110111000
00000000000001011010010111111010
00000000000000110100000101000000
11111111111110000110011001111001
00000000001000110111110100011001
11111111111011010110011000101010
11111111110100010110000110100011
00000000000010000100001111010111
11111111111001100101100100001110
11111111111001111101001111001000
11111111110111101111101000001110
11111111111100011100011011000100
00000000000011000110000000100101
11111111110010111010011111000111
00000000000011101001101110110001
00000000001001100011101010110011
11111111110001010000011100011010
00000000000111010111000110111110
11111111110101010010000001000100
00000000000110101001110101111111
11111111111111101011000000101100
00000000000101011111001111111011
11111111110101000101111000001010
00000000001001011100110011100010
00000000000000100000001010101110
00000000000011000010101001011011
00000000001101100111110101000110
00000000001111000000011110011101
11111111110001001010111100111101
00000000000100000011010000011111
00000000001000010001010010110101
11111111111001110111101010010011
00000000001110111010110001111010
00000000001110110011111100000110
00000000000111010100110110000111
00000000001000110100110000110111
00000000001101010000110100100010
11111111111001111111110100100010
00000000011011100001010101001100
00000000000110100101100101000011
11111111111011000100000110001001
00000000001101011011010010101000
11111111111011010100111010010110
11111111111111000110000001100011
11111111110010010011100111110011
00000000001000000101111100010001
00000000010010010000101110011010
00000000001000110111111101001110
11111111111101000111110100011110
11111111111101011111110000110000
11111111110110100101011000000000
00000000000111011100010010101010
00000000000010101011011101111101
11111111111011010101010011110000
00000000001011101110010100001100
11111111111111001000111100011100
11111111111111001001100101101011
00000000000000110110011000101001
