00000000000101101111010100011010
00000000000001011000110111001001
00000000010001010101111000011101
11111111111110000110000010011111
11111111110111000011101000010010
00000000000000110001001011001100
00000000001111101001010111000111
00000000000011111010011010111010
11111111111111101110100101100000
11111111111101101011100110101010
11111111111000111010111011001110
00000000001001000100110101001111
00000000000111000010001110000000
00000000001001110011001000010000
00000000001100011100010011000000
00000000000010110010101100101100
11111111111011100000001111110000
00000000001011001000111111011111
11111111111101111111101110110100
00000000000001101110010011101101
11111111111100011100011100010101
00000000001011010000100101110111
11111111111111111101101101011011
11111111111000001101001110101001
00000000001000101001001111100001
00000000000000001010011000001010
00000000000101100010101000000010
11111111111111101110100011000010
00000000000101100001010100010101
00000000001001101110100100010110
11111111110001100011101111011010
11111111111010100011111010100011
11111111111100010011001101000110
00000000000110110010010011000000
11111111111110101001010111001001
00000000011101000100100011001100
11111111111001100110001000111101
00000000001100001110001110000000
00000000000100000001011100110100
00000000001100111100010100011100
11111111101111111100110110111110
11111111111000001001000010110011
00000000001000100100010100111000
11111111111000100100000101001000
00000000001101111010101001110000
11111111111100010111000110101001
00000000000010011101100001111111
11111111111110011011101100110000
11111111111011001101011100111011
00000000000111011101100111111011
11111111111011011010000001010111
11111111111100010110101000010001
00000000001011000111110001010110
00000000000010001100101110110010
11111111110100110101101100111110
00000000000010110000011111011101
11111111111001100110010011110001
00000000000111101011111101000100
00000000000000000111001111010111
11111111111110101010001110101111
