-- begin_signature
-- bram_conv1_weight
-- end_signature
WIDTH=32;
DEPTH=150;

ADDRESS_RADIX=UNS;
DATA_RADIX=BIN;

CONTENT BEGIN
	149 :	00000000000101111101110001001011;
	148 :	00000000001000011011100001110000;
	147 :	11111111110011111001011101100010;
	146 :	11111111101111000110111011110110;
	145 :	11111111111011000001100101111111;
	144 :	11111111110101110001010101001101;
	143 :	11111111111111110111101000010110;
	142 :	00000000001011001101110100110000;
	141 :	00000000001000010000010100110001;
	140 :	11111111110001100010001000110110;
	139 :	11111111111111101000010011110011;
	138 :	00000000010001100001011110101010;
	137 :	00000000000110101100101000001101;
	136 :	00000000010100101110001100111111;
	135 :	00000000000010110111011000000110;
	134 :	00000000000001110111101010111110;
	133 :	00000000001110111111001110000111;
	132 :	11111111111100111111000111111111;
	131 :	00000000000111100110101111110011;
	130 :	00000000001011001111000100001101;
	129 :	00000000000010011111001110011011;
	128 :	11111111110000010000000010011111;
	127 :	11111111111001010110100101110000;
	126 :	11111111110101000101111001000100;
	125 :	00000000001101100101000000000100;
	124 :	11111111110101111100110111101010;
	123 :	00000000010001111011100100000110;
	122 :	00000000001110010011101101111101;
	121 :	00000000000011000111000011110111;
	120 :	00000000000000001000110101111001;
	119 :	00000000010011100011100101110001;
	118 :	00000000011110111111001110010010;
	117 :	00000000001001001001000000011100;
	116 :	00000000010000001011011111001001;
	115 :	11111111110010111001011110100011;
	114 :	00000000010100011000111101110011;
	113 :	00000000001101100011111000111010;
	112 :	00000000001011110101100010000011;
	111 :	11111111101100110001000110011111;
	110 :	11111111011111001011100111101001;
	109 :	00000000011000011011001111110011;
	108 :	00000000010011110111110000100101;
	107 :	00000000000011000011010001110100;
	106 :	11111111100010001101110100101000;
	105 :	11111111100001001101001011111101;
	104 :	00000000010000111111101100111001;
	103 :	00000000000010001101111001010010;
	102 :	11111111110010100110001011001001;
	101 :	11111111110101100010010100100110;
	100 :	11111111111111001001110000010110;
	99 :	11111111111011010110010101100001;
	98 :	00000000010001011110011100111010;
	97 :	00000000001011001110001010111011;
	96 :	11111111110111000100111110101000;
	95 :	11111111111001100011110001100010;
	94 :	11111111110110101011001000000001;
	93 :	00000000000000110110110111010010;
	92 :	00000000000101011011010010100111;
	91 :	00000000000101101001001110111101;
	90 :	11111111110100011101111101111011;
	89 :	11111111111001100010100110011001;
	88 :	00000000001000010001000010100010;
	87 :	00000000010011000010010010000011;
	86 :	00000000011001110110011110011010;
	85 :	00000000001010111100011101000101;
	84 :	11111111110000111011110001011100;
	83 :	11111111110011010000011101011010;
	82 :	11111111111010111001100111011110;
	81 :	00000000010010110000100100111011;
	80 :	00000000000001000111101101110111;
	79 :	00000000000110101100010101110110;
	78 :	11111111111010011110000111110000;
	77 :	11111111110011101000011111001111;
	76 :	11111111111000000000111100001100;
	75 :	00000000001100110000101111000100;
	74 :	11111111111101101111110010100010;
	73 :	11111111011000010100000111100011;
	72 :	11111111011101101101101010011010;
	71 :	11111111011110100001000000000111;
	70 :	11111111111000111000010110111011;
	69 :	00000000000001100101101000110001;
	68 :	11111111101110000111010011100001;
	67 :	11111111101000111000011111010001;
	66 :	11111111100111100101010101011001;
	65 :	00000000000110001001010001001011;
	64 :	00000000010000110010100011100011;
	63 :	00000000010001000100011100100001;
	62 :	00000000000011111111111010110010;
	61 :	00000000011000001010110010110010;
	60 :	00000000001111100111010110011001;
	59 :	00000000011000000100101000001100;
	58 :	00000000010111110000110000100001;
	57 :	00000000001010111001010100000110;
	56 :	00000000001111011110001011001111;
	55 :	00000000010000000010110011001111;
	54 :	11111111111000011111100000010001;
	53 :	00000000010000010110000001100101;
	52 :	00000000000100011101111011101010;
	51 :	00000000000010001101000101111010;
	50 :	00000000000111001011000000101110;
	49 :	00000000000100000100010011100101;
	48 :	00000000010001011010101000111111;
	47 :	00000000000011011000110101101111;
	46 :	11111111101101110010001100000100;
	45 :	11111111100001110110101010111110;
	44 :	11111111111011110001110110111101;
	43 :	00000000001000011110010000110100;
	42 :	00000000100000010010100100000010;
	41 :	00000000010110101011010110111110;
	40 :	11111111111100110101110100110011;
	39 :	00000000000111010101001110010010;
	38 :	00000000000101000101100011110100;
	37 :	00000000011001010001000111001000;
	36 :	00000000011101000101110100100101;
	35 :	00000000001011000011110110101100;
	34 :	11111111110101000110010000101100;
	33 :	00000000001010111100100011101111;
	32 :	11111111111000000000000101101101;
	31 :	00000000001011001001001110100111;
	30 :	11111111111000011101000110001010;
	29 :	11111111101101000000010110100111;
	28 :	11111111110100000100011111110110;
	27 :	11111111110101010111010101110001;
	26 :	11111111111111000010001110100101;
	25 :	00000000000001110001000000001110;
	24 :	00000000000111100111100101111001;
	23 :	11111111111110010000111100001010;
	22 :	00000000001110000000010011011011;
	21 :	00000000001111010101001110000010;
	20 :	11111111111100001010010100011000;
	19 :	00000000001101100010001100000111;
	18 :	00000000010010101110001001011011;
	17 :	00000000010100111111000000111100;
	16 :	00000000010101110110000111001101;
	15 :	00000000001101110100011101100010;
	14 :	00000000010110101100011010100001;
	13 :	00000000001110101000011111110010;
	12 :	11111111111011111111101000001010;
	11 :	00000000001110011111110010000111;
	10 :	11111111111001011111100011100011;
	9 :	11111111111101000011000100101100;
	8 :	11111111101000110101000000000100;
	7 :	11111111101000111010001110101111;
	6 :	00000000001100010110010111100010;
	5 :	00000000000111110110001111110011;
	4 :	11111111100110101101111000101011;
	3 :	11111111011101101100101100111100;
	2 :	11111111101000010100010110110110;
	1 :	00000000000000011001010011110001;
	0 :	11111111111000111100111101110110;
END;
