00000000000000000001010000000111
11111111111001101000101101001101
00000000000010001010101100000100
00000000000111110111111000111000
00000000000011010000000100101111
11111111110111001000111110101110
00000000000110010010111111101110
11111111111000001001000111011001
11111111111000101011101010000011
00000000000001110000101101001110
00000000000001011000000011110001
11111111110111101111001100010110
11111111110111111001111101010100
00000000000010001010010001011110
11111111111101001001111101010110
00000000000000011100111011101111
00000000000001001011000001100111
11111111111000000000011010110110
11111111111000110001010011110001
11111111111011001010000010110101
11111111110101010100100011111001
00000000000011000110010100011000
00000000000100010101100001110000
00000000000101010001000001001000
11111111111001001010111111100100
00000000000001101110000110000010
11111111110101111000101110001010
11111111111001100011010000101001
00000000000100010011110100001000
11111111111011111011001110111101
00000000000110001111110010111011
11111111111100110101001000000001
11111111110101111010010111000111
11111111110011001111101011001001
11111111111010001001100110111100
00000000000111110101111111011011
11111111111010010100110001010111
00000000000110001000111011110100
00000000000010000100111011101110
11111111111010000011001110110100
11111111110100110001000011011110
11111111111110000011001000100000
11111111111110010100100101101101
00000000000111100000011001100011
11111111111010101110011101011100
00000000000011010000101011110010
00000000000001001000101001100001
11111111111001100010101000010001
00000000000001000000011110100110
11111111111100001010001100001101
11111111111001011010101100000110
00000000000110001010010000111011
11111111111001101101001111101011
11111111111001111010111001111100
11111111111110010011110011100101
11111111111010110010011010011010
11111111111000100011010010110010
11111111111100111110111100000011
11111111111100110000110100011011
11111111111000000101011111111011
