00000000001011101000111011011111
00000000000000100001000111001110
00000000000001101011010010100101
11111111111111010101010100001011
00000000001011111010000100000110
11111111111010010000110100010010
11111111111101100101101100001101
00000000001010100011000101110001
11111111110111111001001001110110
11111111110011110000011111111100
00000000000111101001100110001010
00000000010001100010011100011010
11111111111011011001111011010010
11111111111111111011111011001001
00000000010100110110110111000111
11111111110001100101100100100111
00000000000011000011010000100110
11111111101011100101100101101010
11111111111110010111111010000001
11111111111101001110011101010011
11111111110000100010111111010010
11111111111001010111101010110100
00000000001000101110000100110101
11111111111100011101011100000101
11111111111001010001011100101110
00000000001110100000111110000100
11111111110101111100101100000010
00000000000101100010100101111111
11111111110001101010010010101000
11111111111010111001100110110111
00000000000010010111110011111100
11111111111100001101010001101011
00000000001001100100000001101001
00000000000101111101010001010111
00000000000010011010010111011100
11111111100110110100100011000110
11111111110110011001011000001010
11111111111110000011111101001001
11111111110100000101011100101011
00000000010110011100000000101110
00000000000010001000011001011000
11111111111110101010111011011100
11111111111001010011000110100101
11111111111101111111101100000010
00000000000010111010110010000101
00000000000000101010011111110111
11111111111111000010110101100000
00000000000000111011011101001110
11111111110001111011010101110011
00000000011000101110001000111010
11111111111110100011110000000010
11111111111110100011101011110100
00000000000101010111110011011111
11111111110111110110111010101010
11111111111010011010011011010101
11111111111011011110011111101011
11111111110001110101101011011010
11111111111100110110100011001111
00000000001001010011010110101110
00000000000011000011011110111001
