11111111111110110010011100100010
11111111111010000110100010100101
11111111111100100101001010111101
11111111111000000101010010011000
11111111111100110001000001101111
11111111110111110101010000111010
00000000000100100110110111110011
11111111111011100000010001101001
11111111111011010001101001101100
00000000000111101011100110111111
00000000000001111100000010001010
11111111111111010100001100000110
11111111111110101100101101010111
11111111111011110001110111001101
00000000001101101011011110100000
00000000001110001101000110011111
11111111111100111001000100111001
11111111111011001001011100001111
00000000000000001111010111010100
00000000010011010001110101111110
00000000001101111000000110011101
11111111111110100010010001101010
00000000001010010000100011001100
11111111111100100010000111011110
00000000001001110001101010000100
11111111111011011110111000101001
00000000000110000110111100100110
11111111110101010101101110110000
11111111111100011100011010010001
11111111111001111110110000000100
11111111110111101111100011000101
00000000000100111011000110101000
11111111111101001000101011000011
11111111111100011100110000000111
00000000000101100111010011001000
00000000001000110100011111110100
00000000001010000011000001010100
11111111111010010110110010011110
00000000000010000101100111001101
11111111111110000111011010100001
11111111111011001100001101000000
11111111110010001110001100100101
00000000000100000100111100100110
00000000001010100010010100111010
00000000000011111001110011010001
00000000000110110101110111111010
00000000000000011000100111100010
11111111111000101101001010010111
00000000001011111010000000100000
11111111101101110111001101001101
11111111111101001101110011000100
00000000000101111111011100111110
11111111110110010011011101101010
11111111111100000000111001110010
00000000000101100100100101010000
11111111111010100111101011001110
00000000000101011110111100000101
00000000001010000100111010100010
11111111110111011011011011110101
11111111111110101110101010110000
