11111111111100101111011110111001
11111111111010110111100000000010
11111111111111101100010000111010
11111111111101011101100111000110
00000000000100110100010001000010
00000000000010011111001110000110
00000000000010110111111101011110
00000000000000011100111110101101
11111111111111100000110000010111
00000000000101111000111001111100
00000000000001011110111100101101
11111111111001101011011001000110
00000000000101101111110100100101
11111111111100101111100011100001
11111111111011100101010111101011
11111111111111110000010000000011
11111111111101010000110010000101
11111111111110010011110101000011
11111111111000101111100001101111
11111111111111011110000101100011
11111111111111010011010000000110
00000000000101001100010110001100
00000000000011010011010111000101
11111111110001110101100100001010
11111111110110011001010010011101
11111111111100111000100100100101
11111111111101000100110001000110
11111111111010000010110101110010
00000000000010010010010110111011
00000000000011111010000111010110
00000000000101010111101000000001
11111111111100101011110001000010
11111111110111111111110001000101
11111111111111010110001111110100
00000000000000101000111101111011
11111111111001010011010010101101
11111111111001110110111011000101
11111111111010010101001010101000
11111111110111110010100100111001
00000000000011001010000000000010
11111111111011001101001001100000
11111111111100111000110010100111
00000000000011001011111110110110
11111111110111101101010100101001
11111111111101110000111110100110
11111111110101110011000011001110
11111111111110100110010011010101
00000000001000001111111010010010
00000000000011010111111101000000
11111111111001101011010110001000
11111111111110110011000100101000
00000000000110100001110001100001
11111111111001111110001010110001
00000000000000111000011010001010
11111111111000000100100001001001
00000000000011001001101100011011
11111111111001010100110000001111
00000000000000111111101000000001
11111111110100111011101110101001
11111111111000100100001101011100
