00000000000010110110101011101000
00000000000111110000100010111110
11111111111111010111011011011100
11111111111001101000111011000111
11111111111011010100001100011010
00000000000000011001110010011101
11111111111110111100100001101001
11111111111110110101100110101000
11111111111110011111011111110011
11111111110101001111011111010101
11111111111000011001111011110010
11111111111101100101001000101000
11111111111100100001011011111110
00000000000111011110100101111001
11111111110010111110011100001111
11111111110110010000100110011100
00000000000011000110010101010011
00000000000110111000101001000101
00000000001010101010011011010010
11111111110100011001000110010001
11111111111010111111001110000111
00000000000100010110000010111011
00000000000111100001111011010100
11111111110100000100101001010110
00000000000101001000110011100011
11111111110110011111110000000011
00000000000100001010101001110111
11111111110110010101110000101000
11111111110110100111111011110101
11111111111001111000100000110101
00000000000001111001111001110100
11111111111101101100011110000011
00000000001100011011101011000101
00000000000100110001010001111101
11111111111100010101100111000100
00000000000000010000101000111000
00000000000101001100011000011110
11111111111101111111101110111101
00000000001101101100110101111000
11111111110100011010100101111100
00000000001011100101111001011011
00000000000010001101000011000010
11111111111101100110000010011010
11111111111100110010010010000011
11111111111011001100101110110001
00000000001000111101010101010111
11111111110111011011111101111001
11111111111011111010001001110011
00000000000000100000100100100001
11111111111001110001100001111110
00000000001010001110000011010100
00000000000000000100010100001110
00000000001011111101100101011100
11111111110100110010000101010001
11111111110101111110111110100100
00000000000010001000001111101001
11111111111000100001011011100011
11111111111111011010100101111100
00000000000101111100101100101110
00000000000110101110111011111001
