11111111110101010010001111010010
00000000001001110001110000111110
00000000000110111010010100000011
11111111111010000101011010100000
11111111111100100010111111101000
00000000001010111010111101001100
11111111111100100101000000110001
00000000001011010010010000001110
11111111111010110111110011000011
00000000000000100010011000110000
00000000000010101011000000011010
11111111111100011001111001011111
00000000000110001001110100011110
11111111111011011000001100000110
00000000001101011110100011001111
11111111111011001000011010001101
00000000000010010001011010001100
00000000000001101001000000011111
11111111111111111000101101000111
11111111111110010100101101000111
00000000001010011000100100110000
11111111111011000111111111101011
11111111110100110110101110101100
00000000000011010011001101011100
00000000001000001010001100011101
00000000001110001110110101011110
11111111111101110011011010111000
00000000000100001010000101111010
11111111111110101001110001110000
00000000000101100010011000101110
11111111111000100001110000111011
11111111111011001000001011011000
11111111110100100101111001001100
11111111101111011011011011010000
00000000000110110111010100001111
00000000000000011111111000101011
11111111111000100111001100011111
00000000001011100001111101110100
00000000000100111001101000011010
11111111111010101111100010010110
11111111111111000010010010100111
11111111100100000100110101101100
11111111110111011101001001000110
00000000001001000000111110010100
00000000001101001101101110000011
11111111111111110101011111011111
00000000000110011000000011010010
11111111111001111001111100100110
11111111111110100000010000000100
00000000000111001101000011011111
11111111111110100110011101010111
11111111111001111100000101101111
00000000001101001011000101100110
11111111111110110011011010011100
00000000010000001111101101111100
00000000000000010111010111100011
11111111110111000000010010010111
00000000000111100101010000011000
00000000000100111100000110010001
11111111110110010100110000000001
