00000000000110000010101111001110
11111111110111011100100011110100
11111111111001011110101000011110
00000000001100110111010111111111
00000000001101000100110000101010
00000000001101011101010010001110
00000000000100000011111100100001
11111111111110111011101111001001
00000000000100010111010110100110
11111111111101100001010010010010
11111111111001101110101010111110
11111111110110010110010110100010
11111111110111110000111110001100
00000000001000000100110110001100
00000000000100100100000011001001
11111111111010101010110100001001
00000000001100001000101000000110
11111111111100010110001110010111
00000000000001111001010001000001
00000000001000100110110100101100
00000000001001010100000001000101
00000000000010010111011011000101
00000000000101100001000110110010
11111111111100110010111000101111
00000000000001000010010001000000
11111111110111011111000101000000
00000000000011100100100101010111
11111111111110011111111000111001
11111111111110101101100111101010
00000000000101110000010010101001
00000000000110101101111111110001
00000000000010110011110101111111
00000000000001110010010000011010
11111111111001010011111001001010
00000000000100000100000110010011
00000000000101111110000011101010
11111111111100000111101000111111
11111111111010101110001011001111
11111111110111010000011100100110
11111111111101110011110100111010
00000000001000110011000011111000
00000000000001110010001001100111
11111111110111000100110111011110
00000000001010010011111110000101
00000000001001100001000101100111
11111111111100110011000011110011
00000000000101101001100100110100
11111111111010000111111010111000
