11111111111001011011100100110011
00000000001000010111011010010000
00000000001001011010111010011000
00000000001011011010111011110100
11111111110110010111001000000001
11111111111011101100001111000100
00000000000010001101100111100101
00000000001111110001100011100001
00000000010101001000111000010100
00000000000001101001011110011011
11111111101101011101010001000001
11111111110101001000001110110111
00000000000111110100110011101111
00000000001111110010010010000010
00000000010000000110010111110010
11111111110010111100010111110111
11111111101101000101100010011010
11111111110011100010010111011100
00000000001011100100110011100010
00000000010100011111010011101011
00000000000011001110100100110111
11111111110111010010111010111000
11111111110011110110100100000111
11111111111110101010100001001010
00000000010000001000001000110110
00000000000010111111110001110000
00000000000101011011101101110101
11111111110111010000011000001010
11111111100100100110010111110010
11111111101111111101111110011011
00000000000111010110100011011010
00000000001010101010100000000101
00000000001010110111001011100000
11111111101101001110000100100100
11111111100101000111101010010000
11111111110001101111100001001010
11111111111110100010111010000001
11111111111111000111101001101000
11111111110100010011101010011001
11111111010010000101101011010001
11111111100111001010111100110100
11111111101000101010000010101001
11111111111001110110000100010100
00000000000011001001101111001001
11111111110110100100000100010101
00000000000011111001100000011000
00000000000001110111111111000111
11111111111000011100011110101100
00000000000001011000011011011001
00000000001000000010111100101010
11111111110101010000101100000111
11111111101111001010100000111000
11111111111101000100011100001100
00000000000000101000110000011001
00000000000011001010000100101111
00000000000111111101101101111000
00000000000111010101110011110011
11111111111110010110011011010011
11111111101110000000110110000100
00000000001010101100011101110000
00000000000010100100110011000011
11111111111111010110100000010110
11111111110100010101111011101000
11111111010010101110110111100101
11111111111110111110110100010001
00000000000100101110110000101011
00000000000011100110101011100011
11111111100011110101101110101010
11111111100000001010101100111011
00000000000000000010010001110100
11111111111101100001010101110010
11111111111000010101101100100110
11111111101111111010001110110000
11111111110000011000000011011111
11111111111101010101100111011000
11111111111111110010010001011100
00000000001011111010010111100111
00000000000010101001100000110100
11111111111101110001100111011101
11111111111110001111011100011101
11111111111100001011011011110001
00000000000001100001010010001000
00000000001011110110100010001001
00000000000100110101110011001000
11111111110000111110011001011101
11111111101101101011011011110110
11111111111001001100011111101110
00000000001100111001001111000111
00000000010011111110011100001010
11111111110110011100010100111000
11111111110110011111000001101101
11111111110010110111100000000100
00000000000001000000111000010000
00000000000111011100010111100001
00000000001011000010010100101110
00000000011000010110111001010100
00000000001000110001100010001110
11111111111110111010111000111001
00000000000000010000011100110011
11111111111101010010001010000000
00000000000000010010111010111111
11111111111101110001011100100111
00000000000001101110001101010001
11111111111110110010010110101001
11111111111110010110001000111101
00000000000010100010010111001101
00000000000100001110100111011011
00000000000000100101000011011010
11111111111101011001011000010110
00000000000010011100111011111100
11111111111101111011010001101101
00000000000001111001011100101001
00000000000011001101100011110100
00000000000010000010000101100000
00000000000010000001110001101010
00000000000001110100010100000011
11111111111011110010110101110110
11111111111100111000011011111011
00000000000000110101011001100011
00000000000001001000001110111010
00000000000001000010011100001111
00000000000011101110011000010000
11111111111101111010001111101010
00000000000100100010001100111111
00000000000010011101111011010000
11111111111000111010111101111000
11111111111101111110001110110001
00000000001011110110000110010011
00000000001101000010110100101100
00000000000110110111111110000011
11111111111001111011000001111000
11111111110001100010000010111010
00000000000010001110101011000111
00000000001000101010101010001000
00000000001100110111101010101011
11111111110110001010011000001000
11111111110010110100011010001111
11111111101011010010110000101011
11111111111101100010001000111100
00000000010000011011011001001000
00000000000011001000001001110110
00000000000000011011011000011110
11111111110000101111011110011110
11111111110011101110000000011001
00000000001110000000110101010110
11111111111010111111101110100110
11111111111110110011100100000101
11111111110111001010110001111110
11111111111001100010101010001011
00000000000001011010111100011011
00000000000010010100100001111001
00000000001011001110100110110011
00000000010001011001000111100010
00000000000001011110011110001101
00000000000001100010100110001111
00000000001100011010100010100001
00000000000111011010101000111110
00000000000111111010001111001010
00000000000101111000001001001101
00000000000101110000100111010001
11111111111101111001010010011101
00000000000010100000110101010100
00000000000000010011001101011110
11111111111101000000110110010110
11111111111000111001011001100101
00000000000001010110111011010111
00000000000011100110111010111110
00000000000010100010111100010110
11111111111010100001000110011100
00000000000010000101111111101000
11111111111101101101101000100100
00000000000110110111100011100010
00000000000000100111110111110110
11111111110011111001110111011111
11111111110100100100011111010111
11111111110001000000011000101000
11111111101011100101100110111010
11111111110000101101111010111111
11111111011100110011010100001110
11111111101111001000101000110111
11111111110000110110100101001000
11111111100001010010000001011100
11111111011101001001011101101110
11111111110001011000101100110000
11111111111100011110000110010101
11111111110111100011011001101000
11111111101111010101000011101010
11111111101000001001111011000001
11111111110101110011111101000010
00000000000001110011100000111100
11111111111101100111101000011101
11111111110111001111111011110110
11111111110101010110010101000101
00000000000011011010111100000110
00000000000111010101001001100010
00000000001011101111100100101001
00000000000010010000100111100011
00000000001100101000000111000111
00000000001100101111110001111011
00000000011000010010011110011000
00000000001010000001110100011001
11111111101100111110100001000100
11111111110100111101011001001110
11111111111110110100100100011100
11111111111010100000111110110000
11111111111100011000010011001111
11111111101111100000110111010001
00000000000011000001100011100100
00000000010000101010011100001101
00000000001000110000010000010101
11111111110111110110110100100000
00000000001100100111110111011010
00000000001010111001000000100000
00000000010000010001111100110100
00000000001010000010011110101011
00000000000010111110010110101001
00000000001001100101100110001100
00000000000100111111010011100000
11111111110101100101001101111100
11111111111110101001100110111001
00000000001001011110001001000110
11111111111111110000110100110100
11111111110110000110000011101101
11111111110000110011010101000111
11111111111100011010110000010001
00000000001001110111111001010101
00000000001000111100100011000010
11111111111000111111101100000100
11111111110001000001110101011001
11111111110101100110001111101001
00000000001000000110111110000010
00000000000010000010101100001110
11111111110011111010000011111110
11111111111011001101011000111101
00000000001000000010110000100101
00000000000000101111000000011010
00000000000110011000111001011010
11111111111011001111110001100001
11111111111011010100110010001001
11111111111100110111000111000010
00000000010011110110110101000001
00000000001111000010100010101001
00000000000100100000001010011000
00000000001100000110011010111101
00000000001101101001011000110100
00000000001101100010110011111111
00000000001001010111111001111100
11111111111101011011000111100110
11111111111011011010011000111101
11111111111011111100011000010111
00000000000001100110100000111011
11111111111111010100110111110000
00000000000010010001011001101101
00000000000010011010000001100111
00000000000001100100010001011110
00000000000011100111101110001111
00000000000011000010100000101111
00000000000010101110010011110111
11111111111101001101111101100000
00000000000001010100100111101111
00000000000000001000111111110010
11111111111011111100000101010001
00000000000011010111011111010101
11111111111011110010100011001100
11111111111100000011010010011101
11111111111011111100110110101000
11111111111110000000010010110110
11111111111010100001001010001111
11111111111100111111000000001110
00000000000010100111001111110010
00000000000001101111001110100010
11111111111110001011001101001000
11111111111101111101010101100001
00000000000001111111110110100110
00000000000101001000100110011110
00000000001110011100001101110110
00000000000110001000001000111101
00000000001101101100100111011100
00000000001110001111001101100110
00000000001011001111110100010011
00000000000010011011101010001101
11111111110101001101111010010100
00000000000010011011000011010011
11111111111000000000101010101011
11111111111011100001111100010010
11111111111011101111110010000101
11111111101011011010111100010101
00000000000000000101010111100100
11111111111110110010011001101101
11111111111001010111110100001000
11111111110110010111111110000111
11111111101110011000010111111011
00000000000010001110101111000000
11111111111100000101000101111001
11111111111001100111000011001111
11111111101111100111101001011001
00000000000000011110000000101110
00000000000100110011010101110100
11111111111000111101111100000010
11111111110000011111000110111101
00000000001001110000001001101010
11111111111100010101101010101111
11111111111001100110100000000001
00000000000100101100110000110111
11111111111110011010001111111100
00000000001110000101010100010010
11111111111000110110000010110110
11111111111110011000001010000101
00000000001101110011111110101100
11111111111110011011000110001111
00000000001000011111100100001100
11111111110111100100011100111110
11111111111101111101110100011001
00000000001011010111110100110000
11111111111010101100110100000111
00000000001010100101011011110000
11111111111001011100001001111011
11111111111101010111101001100101
00000000000001100110000010011001
11111111111110011010110101110001
00000000000100110101001110010000
11111111111100010100001011010000
11111111111001110110001000111001
11111111111110001100001011111110
00000000000101000010111000000111
11111111101101010110110111111110
11111111101001110011100000001101
11111111110111100111000111110001
11111111111100111011011100101011
00000000000000010001001111001010
11111111100010011110011110000110
11111111100011010011000100011110
11111111110110011010111010010100
11111111111010100110001110011000
11111111111010110001101011000000
11111111100000001010100001101100
11111111011001000100111010101101
11111111101001101100000010010000
11111111110010000111011110110101
11111111110101010001001010011001
11111111101110100000110111101000
11111111100111110110110001011001
11111111110101000011011011001110
00000000001000110001001110100001
00000000000110011010110010010001
11111111110001100000010011110111
00000000000000011111000010110101
00000000000101100110111010000110
00000000001010010111010010100111
00000000000011111001110101101111
11111111110001101110110001111101
00000000010001110010100100000000
00000000001110001001111100101111
00000000010000000000010010110101
00000000001011010010111001011111
11111111111101001111000011000111
00000000011001101101011100000000
00000000010100110111011111111111
00000000001110111000001011001011
00000000001101001111100110110000
00000000001000101000110010010010
00000000010010100110100010111010
00000000000101101001001001100001
11111111110110010011001111000101
00000000000010111000000111011011
00000000000110101100000101010100
00000000000110110000110000000010
11111111111101111101100101101101
11111111111010011000011101111011
11111111111010000100000101111100
00000000000010111011010010110000
11111111111100000101100100100101
00000000000011000001101101000000
11111111111111000001100101011110
11111111110111110100110100000110
11111111111110010011011101000011
11111111110001000110100101111010
11111111111110100111100111000000
00000000000011101101011011000101
00000000000110111110101101100101
11111111101110001110101110101000
11111111110000011101001110011001
00000000001011000100111000110011
00000000001001110001110110111111
00000000000010001000000110001110
11111111110100010110001001100001
11111111111001011111001010010010
00000000000001001101001010101100
00000000000001100101000011100101
11111111110110100010111111101011
11111111111101010010110001101011
11111111111101111010101110000101
00000000000110101111110010001000
00000000001000100100001111101010
11111111111010010110001100010000
11111111110101101011110000000001
11111111111100100100111111100010
11111111111100001110011000011000
00000000000011010111011011000111
00000000000010101010010101111010
11111111111101100010101000100111
11111111111110110001001100011111
00000000000010101001100001110101
11111111111100110111110101100111
00000000000011100100101100110000
11111111111111110111010100100000
00000000000010001010010101100110
00000000000010111100001110000011
00000000000001001100100011111000
00000000000010101001111111110000
11111111111100110101011001101011
11111111111100000011000100000101
11111111111100011011011000000111
11111111111011100001111110111100
11111111111100111010001011000000
00000000000001111110000000001011
11111111111100011100001011000000
00000000000001010010100011011111
11111111111110100001101001000000
11111111111101100111111010000101
11111111111101111011011100110101
00000000000011110000111000001001
00000000000000001011110110101101
11111111111110011101101010001010
00000000000000110010001101001111
00000000001001001110100000011110
00000000001100101010100000100111
11111111111010001011000110101100
00000000000001101100110100000011
00000000001010110111111100000000
00000000001101111001111010111011
00000000000000011111111110100000
11111111111000001000000111100011
00000000000001000101111010100010
00000000000000001101010101110101
00000000000011101010100010001101
00000000000111000100001010110010
11111111110100110000101000000101
11111111111100111101101010001000
00000000000010000111000100001111
00000000000101010110100111000101
00000000000100111101011001010001
11111111111101001101000100101101
11111111111101000110011110001110
00000000001101010001001010010000
11111111111110111110010011110011
00000000001000010001011000110101
11111111111101111000111010000000
11111111111110010001001001111011
11111111111111111010110001100000
11111111111000000110110100010000
11111111110001101000001010000111
11111111111100001111110110011110
00000000000100100110100000111100
11111111111111110100110101100100
11111111110110100000000001100010
11111111110000100000111010000110
11111111111000011111100100101110
11111111110110111110011100010001
11111111110110100111000011100000
00000000000011110101010110001011
11111111111111101000100011101011
11111111111010011011010110000110
11111111110010011011100110000110
11111111110000110000001001000100
00000000001011010111110010000111
00000000010000110010000011110111
00000000001010110001000000100100
00000000000100110010111000000101
11111111111110111101011001110101
11111111111111110000010100110001
00000000000001001010110100101001
00000000001001111100111010010101
00000000000100101100011011010110
00000000000010111010011100101000
11111111111001111100100010000011
11111111111001100100101001011101
00000000000001010100011010101110
00000000000111100101111011010000
11111111111010111111001000110100
00000000000101110001010011100100
11111111110100011111001111000011
11111111111110010110010000010001
00000000000111110111010011101110
00000000000111110011001101100010
00000000000110100110010110010101
11111111110110001001000000100010
11111111101000111010101110111001
11111111111001010101101010000001
00000000000000101111100010001011
00000000001110010000101000100110
00000000010110010110100110001110
00000000001111000010000100000011
00000000010100110010000001011101
00000000001001111100111100111101
11111111110111111110100001111011
00000000001001001001001110001110
00000000000110111001000010011111
00000000010000010101110111100010
00000000000110011101000100001010
11111111111101010010010101000111
00000000001000110101011010110110
00000000000010101101011111001011
00000000000111001111001010010101
00000000000000100010110001001111
00000000000001100011010011100011
00000000001010010000010000101001
00000000000100111100011100101010
00000000000001010000001101101110
11111111110101100000010011010101
11111111110001000101111110101001
11111111100110110010001111011110
11111111101100101111011101110110
11111111101100001111011011000111
11111111110111010010100110000011
00000000000001100010001000111000
11111111110110100101100111100010
11111111110010111000111111101100
11111111110001011011010010101110
11111111110110101001101011000000
00000000001011001001100111100010
00000000000010011000010011010001
00000000000010101111110111101000
00000000000101100101101010000111
00000000000100010100100100000000
11111111110111000100100111110011
11111111111010001111111010011000
00000000001000110100001101000011
00000000010011010000011111010101
00000000001001010000101011010110
11111111111001001100000110000111
11111111110111111001011010100000
00000000000110010101100001011111
00000000001011100001000101000101
00000000001001010001000110110111
00000000000011011111100000001100
00000000000001010001110010001110
11111111110011011001111010101010
11111111110001111100000111011010
11111111101011100110100101001010
00000000001011100011101010011110
00000000011000000100001110101011
00000000001110010100010000000101
00000000000101001111100000011100
00000000000011101100000101111000
11111111110001110110110100000001
11111111111101010101101111101001
00000000000110111101111010100101
00000000000101011100011001100110
11111111111011000001111100010111
00000000000010111101001010100101
11111111111101111100111111101110
00000000000100011110000010100001
11111111111110100110100100101101
00000000000011010100100100111010
11111111111011011110000010100111
11111111111111000111110110110101
00000000000011000001011101110010
11111111111100010111101111100011
00000000000011000100010111100010
00000000000010011110000000101011
00000000000011000001010101101100
00000000000100011001011111100011
11111111111100010111111100000111
11111111111011111110110100111110
00000000000001000110111010111111
00000000000001000100000010010100
11111111111111100101010001011001
11111111111011010100010001100101
00000000000100100110100000100000
11111111111111101110110111000001
11111111111101000010100100010101
00000000000101000110101110101101
00000000000000111101000011010010
00000000000000001100110110100110
11111111111110000000110001001100
00000000000000000000100100100101
11111111110100111011000011110100
11111111110110110000000010010011
11111111111100011100010010111001
00000000000011001000011110110101
11111111111111111001001011100110
11111111111001111101001111001000
11111111111101110111110110111101
11111111111100011001010101000011
00000000001101000001001011101010
00000000001011110001001000110000
00000000001011000000000100001110
00000000001000101001111101001010
00000000000101000100010100110111
00000000000010101101010010010101
00000000000101010110110111001110
00000000001001111000101101011101
00000000001011100101001000011101
00000000000001001111001100001111
00000000000001000111101011110111
11111111111010010101001011010110
11111111111101101010110110100001
11111111111100101100000110101100
11111111111100000001100101010111
00000000000100001110110110110100
11111111111001010100110000101110
11111111101101111011110011001010
11111111101111011001111100011000
11111111111100000100011110011111
00000000001111011011010110001011
00000000010001100110001110010110
00000000000101110010001000101000
11111111101111110110110011001111
11111111101100000000000001001111
00000000000011101011000001101011
00000000010010111111001000110111
00000000010010011100101100110100
00000000001001111001010011000101
11111111110000100110101010000011
00000000000100110111010111111011
00000000000000101101001001110000
00000000001000001011001011111000
00000000000001011000111100001111
11111111111011011001111000010000
11111111111110001010100101110010
00000000000000010011101100011111
00000000000000011010000110000011
00000000000101110111001100011101
11111111111101111110111010010110
00000000000101010000110000010000
11111111110111001001111001111010
11111111111000011101111011011011
00000000001100101111000100011001
00000000010110011000010110010000
00000000100000100100001010111010
11111111101110111110100010011101
11111111010010100110110100100001
11111111100101001100010101111010
00000000001010010010011100000100
00000000001011011000111010100110
00000000001011101001000111000011
11111111111100010001000100101000
11111111101100111111010110010011
11111111110101101110001010110100
11111111111001100110111001111110
11111111111000010001101011010101
11111111111011101010000010001101
11111111111111101011100000110110
11111111111010011000111110000110
00000000000100100101010001011001
11111111111111101101100000110010
11111111111011110101010001001001
00000000000111001011011010010101
00000000000111001101011011100000
11111111101111100001100101011111
00000000000101111011110011010000
00000000000010100011111110001000
11111111111110010010101100010011
00000000000100110101010010010011
11111111110100000101000110010110
11111111101100010110001101010100
11111111110011001011100000001010
11111111111110100000010111100001
11111111111010000101101001001111
11111111110110111010100011011001
11111111101010011100110010000000
11111111110100101110001111011111
11111111110010101010011011101010
11111111110000000000001001000110
11111111111110011001111011110011
11111111110111110100011101100011
11111111110001110010010111110001
11111111110111011110011101110001
11111111110010111101000100101101
00000000001000110010001111111111
00000000000100101010111001010001
00000000000000110111000000100111
00000000000001011110000011110011
11111111111111000000000101111001
00000000010010000000101010011000
11111111101011111000110110101111
11111111101011001011100110100100
11111111111110000100001000111011
00000000001100110011001110100001
00000000010111100110101011110110
00000000011001010001000010000001
11111111101111010110110101100110
11111111011000110011111111111111
11111111101001011001111010001101
00000000000101101111001110011100
00000000010100101011010101011101
00000000001100101110000001010011
11111111111011011111111000100011
11111111101010100000010010000100
11111111111101101011001011100110
00000000000110010111011001101111
00000000000001111000110000110101
00000000000100100101111001111110
11111111110100010010010011010001
00000000001000000010110000000010
00000000001000111010101000111110
00000000000000100000000011110001
00000000000000101010011001010101
11111111111100001100111000011001
00000000000100111100010111001010
00000000000010110001011110000101
00000000000100101111111001011100
00000000000000011001111011010111
00000000000100010110110001101110
00000000000000001010011000010010
00000000000000000010110010010000
00000000000011000110000011011100
11111111111100101011101000111111
11111111111100111010110110100100
11111111111100001010000101000000
00000000000011110001010111100000
11111111111101100111000011010001
00000000000100101101100001000111
11111111111100110101110111100000
11111111111110110111111010101011
11111111111111010011111111010100
00000000000000110100001100111000
11111111111101111000110011001011
11111111111011100101010011001100
00000000000010011100010000001000
00000000000011010101111100011011
11111111111110101100010011100100
11111111111101001110110011001110
11111111111100100011011011101100
00000000010011001001001000101110
00000000010100011001010010001101
00000000000011000101011010110010
11111111111010100000000101011010
11111111101001001001100110000111
00000000010001010011001110110101
00000000010011010000010011001110
00000000010011100111010011101010
11111111111110011101000100100100
11111111110011001011011100001110
00000000001011000110001111010010
00000000000100110001000001111110
00000000000110101011101010010101
00000000000110010011110110111010
00000000000010011011100010011101
00000000000110010101111101000011
11111111111110011000111100101011
00000000000110000100110111010101
00000000000111110011010011010000
00000000000011111010011111101010
00000000001001001011110010110011
00000000000100010010100001111100
00000000000001110111110101110100
00000000000001010101000010100100
00000000000011010110101100110100
11111111111100110001001101001011
11111111111110110111101001100101
11111111111010111001110110111011
11111111111111101111011001100101
11111111111111000011101011100010
00000000000000101111110001101011
11111111111011110010010000110001
11111111110111110100101100010011
11111111111110011101011110000111
11111111111101100001001011101001
11111111111100101001110000100001
11111111111011101110000011100111
11111111111110110111001110011000
11111111111011100000001001010101
11111111111110011100110000011001
11111111111100001111011001001100
11111111111010001101100001011000
00000000000001101011111011110010
11111111111111001101010100001111
11111111111101000101010101100100
11111111111101100110111101110011
11111111111100000010011101000000
11111111111101100101010101111100
00000000000001110001100110000011
11111111111001001001011001111100
11111111111011110000101011101111
11111111111001001100100000101010
11111111111001110001100110111100
11111111111100011010011011001101
11111111111101011001000111111110
00000000000000100000011111111100
11111111111000011011101101000111
11111111111110000111011100010110
11111111111101111100110100101101
11111111111011100111010011010000
11111111111100011110001000110101
00000000000000000111100100010001
00000000000000111110110000011010
11111111111110001111110010001011
11111111111110011000011010010101
11111111111011001010001111001011
11111111111000101001110010111110
11111111111011001000010110100110
00000000000000011011000001101100
00000000000000010100111000101101
11111111111000111010001001111010
00000000000001000011001101110101
00000000000000011100110100101000
11111111111001000011100010001111
11111111111110011101100010001111
11111111111001100011011111000000
11111111111011000110011110110111
11111111111110010100011110110110
00000000000000001011010011001101
00000000000000010011101010011110
11111111111010000111101111111101
11111111111011000000101010001000
11111111110111111101101011110110
11111111111100010010100101010000
11111111111101001001111001101001
11111111111010101110001000110010
11111111111001110101001111011111
11111111111000001011011100110011
11111111111101000100110100001011
11111111111000100101100001000100
11111111111001000011001011101111
11111111111010011010000100100001
11111111111110010001111000110001
11111111111101000100011101111101
00000000000001111001110010000101
11111111111101111000001111101010
11111111111110100010001111100010
11111111111110011010011101100011
11111111110111110010101100101001
11111111111110011001010011100001
11111111111110101001111011011000
11111111111100011100110100010000
11111111111000101111100010101001
00000000000001110101000111001011
11111111111000011100100000001110
11111111111010011011100100001011
11111111111010101001000001100101
11111111111000011110001001111001
11111111111100000110110110101010
11111111111011010110111110100101
11111111111000010110001101000000
00000000000001110111001111011111
11111111110111010111010110001010
11111111110110110111000001001111
11111111111110110001001111000101
11111111111000110101100100011010
11111111111101011111101010010111
00000000000000101110001011000000
11111111111100111100100011110010
11111111111001011001101110010111
11111111111101100010001010101010
00000000000100011011100111011111
00000000000010001001010100110001
11111111111110110001100110001101
00000000000001000101110100111110
11111111111011111101000000110101
11111111111011110111110110001110
00000000000000000111011110011101
11111111111011101010001011001101
11111111111111001001100010111101
11111111111011001110010111000001
11111111111100110100111000100011
11111111111100100010101011011111
11111111111011110011011101100000
00000000000000101110000001111010
11111111111011111111101001101001
00000000000000000110101011001110
00000000000010111101100101011000
11111111111100010111000010010011
11111111111010111100111001111100
11111111111011011011011011100110
00000000000000100110111101000111
11111111111110010010111001111100
11111111111010110100010010010000
00000000000100001110001000101111
11111111111100111110001001010011
00000000000010100110101110111010
11111111111100110100011011010001
11111111111100100001001000111101
11111111111111000011100100001011
11111111111110000011110011010010
11111111111110010101011000011011
11111111111101001001110111011000
11111111111101101100010110001011
11111111110111111100010110100111
11111111111111101101111000011001
00000000000101000010010111011110
00000000000010011111111110001010
00000000000011100100110110100101
00000000000111101101001000000111
11111111111100111100100101110000
11111111111110111011100011010011
11111111111100010000001001110100
11111111111000011001111010100000
11111111111010100010100000110111
11111111111010110101011000010111
11111111111101101001010110001001
11111111111111000100001111101110
11111111111001000101111110001010
11111111111011001010110100010000
00000000000001011010011000000100
11111111111001000100000111001100
11111111111101001110000010010001
00000000000100111010101001111110
00000000000100100011000001001000
11111111101110111110001111011000
11111111110110101001010100011011
11111111111111000101011011010111
11111111110001000111110100110111
11111111101000110100001111100100
11111111111110001011001010001100
11111111111101001110101010111001
11111111111000110110100111100000
11111111110111100000110100100110
11111111110010111000110110110100
00000000000110110000110101001101
00000000000111001001100110011001
00000000000010110110010110101011
00000000001011000001111110100111
00000000001010100110101010001000
00000000000101010000000010001110
00000000001001000101000000000110
00000000000111101100000000111011
00000000001001010001010000111110
11111111111110111001011000000100
00000000000100101001001011011010
11111111111101110111101110111100
11111111111101110001011001011101
11111111110111001111000111011101
11111111111100001001010110110001
11111111101000110110110101100100
11111111110110010010101000000011
11111111111101111110000001111110
00000000001101001100110000111110
11111111111001011010011000110011
11111111110011100010010101010111
11111111110110100110000000100110
11111111101000110101000101001101
11111111110101100000000010010101
11111111111011011011010001101111
00000000001100101110110001001111
00000000001001001111111101101000
00000000010000000100011101110000
00000000010111011100101011000111
00000000010010111100101100011011
11111111110110111111000011000111
00000000000111000010110100010011
00000000001110111011100011110101
00000000001110111111000111010100
11111111111111110111100110010001
11111111111011101000010010000100
00000000001011010000111001111110
00000000000110011001010001111011
00000000000100101011101011111000
00000000000000110000001100100111
00000000000010100100001101001001
00000000001101110010101111100001
00000000001111111110101011000100
00000000001011000000101000010101
11111111111100001100011010001100
11111111111110000101110000111011
11111111101111010010001010101100
11111111110100110110010110011101
11111111101101100110100101101111
11111111111000000101110101010100
00000000000001011101110010010110
11111111110000011001010011000001
11111111101110000111100110111001
11111111110100111001101100011100
11111111111010101100111100011010
11111111111110011100110011110101
00000000000111101111110000000001
11111111111111100100011010111000
11111111111100001111000101111010
11111111111111111100000110001010
11111111111001111001110010101100
00000000000001001110000101001110
11111111110110110011100011111010
11111111111010100100010100101000
00000000000100001100110101011000
11111111110010011100110000101111
11111111111101000001110101100100
11111111111110001111010000000110
11111111111010000011101110110011
11111111111000111010000100001100
00000000000010101011110110100011
00000000000101110111101010000010
11111111111111000101000001100110
00000000000000011000000111001110
00000000000011010011111101100100
00000000000110011011111000001001
00000000001101010001000100000100
00000000001111111110001111000010
00000000001111010111111000111000
00000000010000011111000110010010
00000000000000010001000001111011
00000000010011010000010100011000
00000000001100001110001101011001
00000000001001011100001101110001
00000000000011101100011100000011
00000000001000001111111110110010
11111111111110000110101000111101
11111111110101011100000100010110
11111111111001101101000100100101
11111111111001111100001110111011
11111111111111000011110001111011
00000000000010000010110000111000
00000000000011001101010001000100
11111111111101011000010100111010
11111111111100000000000010100111
00000000000001101111000100001001
00000000000000101110010001011110
11111111111110000000101011010001
11111111111011100001001001010110
00000000000100110101000000011111
11111111111110111111111100011101
11111111111100110000001101001011
11111111111111001011101101101001
11111111111011110111001000011100
11111111111111001111011100110010
00000000000101011101100010100000
11111111111111000110100011011101
11111111111110100001111011001110
00000000000100000110100110111000
11111111111101011110110000010100
11111111111100010000011101001001
00000000000011111010010001100101
00000000000001110101100101001010
00000000000001010010101110010011
00000000000001111111001000000001
11111111111101111101000000100001
11111111111010010000110111000110
11111111111110111010110010010011
00000000000001110110111010011011
00000000000101101111011101101100
00000000000011010001110100111100
00000000000110100001110101110100
00000000010000110100100000101110
00000000001100010000111111100011
00000000000111000101011001000110
00000000000101000111010001110101
00000000000110010111000001111011
00000000000101111100010001010000
11111111111110111011111111100110
00000000000101110011100110111111
11111111111100001100111010001101
11111111111110110101010010101001
11111111111011111011010101110010
11111111111100100100110100100101
11111111111101011111111100010101
11111111111101110010001101101101
11111111111101100100101110110101
11111111111101011010100010100101
11111111110111101001000111100011
11111111111000000010111000011111
11111111111010010000110001001100
00000000000011010011000101000100
00000000000111001001011000010100
00000000001011110110000011111011
00000000001101000100001111000111
11111111110100100101110101101100
11111111111110101011100000001000
11111111111100111011000110111100
00000000001000100100001011000011
11111111111001000100010010010000
11111111110110001100100110010010
11111111111011000000011010110000
11111111111001110011100111000001
11111111110001110101000101011010
11111111101000100010110110110000
11111111111111100111001001100101
11111111111101010100101011001101
11111111111010000001101110010000
11111111110101111011010010110000
11111111110111001101101010101010
00000000000101011000000111110111
00000000000000010110111100011010
11111111111000001011000010100111
11111111111011101101010000001000
00000000000000000101110001011001
11111111101101000101110111001010
11111111111000001110000100110100
00000000001111011110111111111110
00000000001110111110111101101001
00000000001011111111011000100001
11111111111110001000100101110101
00000000001111100010110110000101
00000000010010000100000000001011
00000000001010110001110010100111
11111111111010110001100100011111
00000000011100011100100001010100
00000000010101101011111110100110
00000000000111000010010110110010
11111111101111110111110110101001
11111111111101000110101110111111
00000000001001011110110001100001
11111111101111100100011110000110
11111111100110000000000011001111
00000000000100110111111100111110
00000000001000001001111111000110
11111111110010000111011111001011
11111111111110010010001101100001
11111111111100100010100001001100
00000000000110000000010010000010
00000000001011011111000110010011
11111111101011001011011111011100
11111111111010101100110011000101
11111111110000011110000010110000
11111111110010011000110111000001
11111111111100100010110001010100
11111111110100100101010100000101
11111111101011001010011010110001
11111111101100000000111010010110
11111111110110100000100111010110
00000000001000001001111001110010
11111111101001101101000101100000
11111111010101010101010011111010
11111111100100100111011101100100
00000000001000011010101011110110
00000000001101000110100100111111
11111111101001011100101100110001
11111111010110110000110011000011
00000000000010101000001100111111
00000000010100101001100111001010
00000000010111100011001101101010
11111111101110001100101000101110
11111111111101100111110110100100
00000000010110001111011001011111
00000000010001000001101101110100
00000000001110110110110010111000
11111111111100101110001100001010
00000000000100101010001000010000
00000000001100100011111110110001
00000000010000100011011001101101
00000000000110000010111000111100
00000000001000010001000111010010
00000000001001001111001100100010
00000000000001011001111001110001
00000000000010000000010000000011
11111111101101011001101011000101
00000000001001110011011000000010
11111111110001001111010100101010
11111111011111000010110000101000
11111111101100101001001110100110
11111111111001110110101001001100
11111111111100011110000111110111
11111111100010110000101100001000
11111111101010100101001101000010
11111111111110011011000110000100
00000000001010110110100001101100
11111111111000111101111001011010
00000000000000010100101110101000
00000000001010011101111000100000
00000000010010110100011011001111
00000000001001100101010110011111
00000000000001011000111010000111
11111111111100110111011000010001
00000000000010111001011001000011
00000000000000001000011001110010
00000000000110000111111101110000
11111111111101111111101010111000
11111111111100001010011100110101
11111111111111101110001100101101
00000000000100001101000010011110
11111111111011011010101010100100
11111111111101011010110111101010
00000000000010011011010100010001
11111111111100010111101000001100
11111111111110001110011101111110
00000000000010010011100001000101
00000000000011100001000100000000
11111111111100111110110000001111
11111111111011111011111001100011
11111111111001110101100111101011
11111111111011011111101000100111
11111111111110111110111001000001
11111111111011001101101000000111
00000000000011011100011110111110
00000000000011101110010100010010
11111111111111011001011101000110
11111111111011001010011111101101
11111111111001100011010111100111
11111111111010101100000111010101
11111111110110110111110101010101
11111111110111101000101111010000
11111111111110001111001011010001
11111111110000101111101011111000
11111111110110101110101100010000
11111111111011110110100100101100
11111111111111111110110110110001
11111111111100110010010111110001
00000000000110011100010101011001
00000000001101011011010100101000
00000000001001110011111011110001
00000000000011001000101000101111
00000000001010100111001100110111
00000000001110110101011111100000
00000000000011011011111011100010
11111111111110111000111101010110
11111111110110010100111001001001
00000000010011110000100110000011
00000000000101010111100000110100
11111111111100101111001000001010
11111111111000011010011000110001
11111111110001100111011010000110
11111111110110011001000000011010
11111111111001011110010000100101
00000000000101110111100100011000
00000000001110011101100100101100
00000000000011111101010010100110
11111111110000101001000000111001
11111111111101000001111000011000
00000000001101110100000000001110
00000000001101110110001010101011
11111111111110001101010001100011
11111111111001101011110101000111
11111111111101100001011101010001
00000000001100110110000010000011
00000000001010111001010000110101
11111111110100110101000101010001
11111111110111011110000000111110
11111111111101110110000000011101
00000000001110010000100111001110
00000000001100101011010101101001
11111111111011100001001011110001
11111111110001110100000111101110
11111111110111010110111010101101
00000000000110110001001011101101
00000000000111111100011001111011
00000000000000100001011011111010
00000000000100100011100100011100
00000000000001001010111000001110
11111111111110011111010010001010
11111111101010000001010001101101
11111111101100010011011010100110
00000000000010001010011010101000
00000000001101111111101001110101
00000000001001011001001111111001
11111111100011110001001011000001
11111111101110000110000011000110
00000000001101000110100100101000
00000000000111001100110100010101
11111111111010111111001100000110
11111111011000110010101110010011
11111111111101001010000111110000
00000000010101011100001101001101
00000000000111010110000011101000
11111111101001010011100011110100
11111111011011111100001111100000
11111111101011101001010000010100
00000000010101110011111101011100
11111111101110100111100100011010
11111111101011010011010111010011
11111111101111101101110000000000
11111111110111110000111110100111
11111111111100110100000011001101
11111111111010110111101100101011
11111111101111001101000110110001
11111111110101101010101111100110
00000000000001011100111000111001
11111111110011101101001010111100
11111111111000000110100001011100
11111111101100110111010110011110
00000000000001011110011100000011
00000000001111101011001100110011
00000000001001110111001111000011
11111111111100101011110011001100
11111111101010100111101110010011
00000000000001001101110110011101
00000000011000001001000100110000
00000000010011001001101100001000
11111111110110100001111000010101
11111111110100110101111000010001
00000000000001001001100001001010
00000000010110110000001010101001
11111111111111111001011000011000
11111111100011010111101011110000
11111111111111100001010010110110
00000000001010010101001110100001
00000000000011101000000010011101
11111111111001101011001010011101
11111111111100010010111111000111
11111111111001100101010111011111
11111111111011000000010101100000
11111111101101111111111101001011
11111111111110010111001110111001
11111111111001110100110011100001
00000000000100001001001110010100
11111111111011010011000010111111
11111111111001000000100101011110
00000000000110111011100100001001
00000000001011111010010000101000
00000000000101010101110110010010
11111111101001111001111101001110
11111111111011100110101111000111
00000000001100010101111011101110
00000000001000011101100011001011
00000000000010110100000011011010
11111111101101000000100101000011
00000000000001000001111100001011
11111111111000010111010001010101
11111111101100110100111100100001
11111111111010010111011000010111
00000000000010111010110110111111
00000000000001100001101010001010
00000000000001111000101011111100
11111111111011101000101101011110
00000000000011101011111010110110
00000000000001111110100111011100
00000000000010000011100111010111
00000000000010110111101000110011
11111111111111101000101011111101
11111111111110111101101001100001
11111111111011101010000111011110
11111111111111011001101011000011
11111111111100001101111001111111
00000000000011011010010100011010
11111111111010101110111100001110
11111111111010011010011100010010
00000000000001110010111110000101
11111111111110110000100010010010
00000000000010110001101000010110
11111111111100011100010101100101
11111111111011100000011001100110
00000000000001110111100010100000
11111111111110011000100010010000
00000000000000110001101001101000
00000000000100000010111000101101
00000000000011000100100101101101
11111111111101101100001101011100
00000000000011001100100001100101
00000000000010011010100011001100
11111111111010000000110101010010
00000000000010111110101100010000
00000000000101111001110011000011
00000000000101111101101110111110
11111111110110111010110010111000
00000000000001001011100001010001
00000000001010111000101010101100
00000000001010001011011101101010
00000000000010100111000000110010
11111111110100010100110100101010
11111111111010101100001100111011
00000000001101101101010001001100
00000000000001000111011101011001
11111111101111001000111101100111
11111111110010110001110110111111
11111111111100111100010010101100
00000000000101010000110010111100
00000000000000100111001000101010
11111111110101001001111000100111
11111111111000100110101100010011
00000000000000010101010101110101
00000000001001011000010100110100
00000000001100111101001001101001
11111111111111110101001111110011
11111111111111101111000110011011
11111111111111011001011101000010
11111111111110101101010100111110
11111111110111100001011100110011
11111111111111001011001000011011
00000000000011001110111011101011
00000000000001001011101111101110
00000000000011100101001001111100
00000000001000000001010001000000
00000000001001011111110001111110
00000000000101000011110000110100
00000000000100001100000011110110
00000000000100100001110011011110
00000000001100011010100101101101
11111111111100100100101000010101
11111111110100010111011111010111
11111111111100000101110110011011
11111111111010001011010100110111
00000000000000010010001011111000
11111111101110100110100110000010
11111111100100011110010011010111
11111111110111001001010000000110
11111111111111100101010111110000
11111111101111101100101110101011
11111111100111111000110010000101
11111111111100111110110101111001
11111111111100100110011100000100
11111111111010111010011000001101
11111111111001001101010000111111
00000000001000001000101110001011
00000000001011111010011010000110
00000000010010101101110111110011
00000000001111011001100010011010
00000000001110001010101000101101
00000000001101011011100101011000
00000000010010011100101111011010
00000000010001011101111000101101
00000000001101110000100101011011
00000000011100101001111011111100
00000000010001111111000011000101
00000000000111101010110110100011
00000000000101001100001111011100
00000000001011100010000111011101
00000000001111011001110010110101
00000000000110100110100011001000
00000000000111000010101101111110
00000000001001100010010010100101
00000000000100001110001100110000
11111111111111111000101001111011
11111111111010101000100100100100
00000000001011001100110011011010
11111111111011110000000100100000
11111111111001001111111010110010
00000000000001011000011010000010
00000000000000111100111001100100
00000000000001011001000101001001
11111111110101011111011110110101
11111111110100000000000000110010
11111111111100101111010010111001
00000000000100011100100011110011
11111111111111100011100011011101
00000000000101100000011111010110
00000000001000000001101110011111
11111111111111111000101111111111
11111111111100011110011000000101
11111111111110110110011010111011
11111111110111101011010111010011
11111111110111101000010001111101
11111111101111100011000010110101
11111111111001101010110001100101
00000000000000111101000110010001
11111111110110110000100010110001
11111111100011010000100101000000
11111111110011010111000010011000
11111111111000111011000001101000
11111111111111100000011010111101
00000000000000100010000110011000
11111111111010110111001100110100
11111111110101100101110011101010
00000000000110000100000000001110
00000000010001010100010011111111
00000000001000000010110011000001
00000000001000110101101101011100
00000000001100101101100000110100
00000000001101100100010111000010
00000000001001100001100101100111
00000000000111101000010100000010
00000000000001101000101110110000
00000000001001101011101110110110
00000000000010100101110101100101
00000000000100100011011100010110
11111111111111001011010001110100
11111111111100001000000110111001
11111111111100101000100111001000
11111111101101011111011111111110
11111111100100001000011101000011
11111111101011000110111111010101
11111111011111001100011101010000
11111111100001000100001011000110
00000000000010011001100101001100
11111111111111111111100010001010
11111111111011011101000101101000
11111111111011100000110110001110
00000000000011110001100100110011
00000000000000110110111110011110
11111111111101110101001001110001
00000000000101000101110011111011
00000000000100010001111100110010
11111111111110000101110000110111
11111111111100011010111011100101
11111111111101101100101001100110
00000000000100111010011100000010
11111111111101110111000000111001
00000000000000100011010110100000
00000000000100101101000111011100
00000000000011011101011010000001
11111111111110100110100010011110
00000000000101000101110010001100
11111111111100111010010110011011
11111111111101111101110101100011
00000000000011100001000000001011
11111111111101110000011010010100
11111111111011010010010010011100
11111111111101000010000100100000
00000000000111101011010001111111
00000000000011100100001101111100
00000000000000010100001010011110
11111111111110110100001001101101
00000000001000001111111111100101
00000000000010110100111000010001
11111111111111110110011101000011
11111111111101110010000011100110
00000000000101101010001000111101
00000000001000011100101110100011
11111111111100010000110111110101
11111111110000111100101011110011
11111111110101010000101100100011
00000000000100111000001000000110
00000000000011001111100000011001
11111111110001000011110100101000
11111111101001111111110111110010
11111111101101010111100111001010
11111111110110110010011110111000
11111111111011001101111101100000
11111111111011101111110001101011
11111111101111101010000111011100
11111111101110011001100111111010
11111111111011110000110001000011
11111111110111101101001001011101
