11111111110001001100000101011110
00000000000001011001010001000110
11111111111001110111101100001100
00000000001100111001010101001111
11111111110001011001010010001101
11111111101101101011010011111000
11111111110000101000010101001001
11111111111100100100011110101011
11111111111011001000011011111011
00000000001110111001000010110001
11111111111101110100001010001000
00000000000001100000101100110011
11111111101111110111101100100011
00000000010000001010111110100000
00000000001010011110110111001110
11111111110010100111110011000011
11111111110100000011010111111001
00000000000010000011100010010000
11111111111101101010101011000111
11111111111111101010110110011010
00000000010000000011001001110110
11111111111110000100001100001111
00000000000110000000011101000000
11111111111001101100011011100001
00000000000101001101001001110111
11111111110100100111100110000101
00000000000110001001100010100111
11111111110111111110111011010111
00000000000010000111001011010100
00000000000101101000010101111010
11111111110001111110001101111100
11111111101101001000011001101110
11111111111001010101110110110111
11111111110111101000111110010000
00000000001100010000110100101110
11111111101010001100111001110111
00000000000011011010010100010100
00000000000111111101100010001001
00000000000110100100100000101100
00000000000011100010001101100011
11111111111101010010101001011010
00000000000010110000011001000100
00000000000000011100001000001000
11111111110110100001101111111001
00000000000111110101100000011010
00000000001000111001111110011010
00000000000011001001011001110010
00000000000110010101101011011110
