00000000000110111010000111010010
11111111111000011001111000111101
00000000000000001100110001001011
00000000000001000101011101101101
11111111111110010110110011000010
11111111111011111111100101010000
00000000000110100000111011001010
00000000001000011101111010001110
11111111110010101001000100001000
00000000001001111101110000110011
00000000000101100100100110101110
00000000000111100101110111001111
00000000000111101000011110001011
00000000001100000001101000100110
11111111111000110110110100100101
11111111111111001100101111001110
00000000001100001110101101100011
00000000001010001101110111100001
11111111111010111000000000111010
11111111110111011000001011101010
00000000000110110011011101000110
11111111110010100111011000011110
11111111110000110111010000010011
11111111111110100111100001110010
00000000000010111011100000000111
00000000000010011101111101000011
11111111110000000010010111101001
11111111111101000001010111010000
11111111111111100000001001100011
00000000000011011011010100010100
00000000001010110110011011011110
00000000001010000010101111101101
00000000000000101101100100101110
11111111111101101101100000001011
11111111110101100000010101110011
00000000000100000100110001111101
00000000010001000010100100011110
00000000000101110010011010101110
11111111111010110011101100010010
00000000000000010001000100001111
11111111110100011001111010010101
11111111110110110001111000101100
11111111110001100001000111100001
00000000001011110110110011001011
00000000000100010101111110110110
11111111111111101100010100010100
11111111111000001111010001101101
00000000000000011001000111000000
