-- begin_signature
-- c2_bias_ram
-- end_signature
WIDTH=32;
DEPTH=10;

ADDRESS_RADIX=UNS;
DATA_RADIX=BIN;

CONTENT BEGIN
	9 :	11111111111111100010001101110101;
	8 :	11111111111011111000011100111101;
	7 :	00000000000000111001001000010000;
	6 :	11111111111011011010001101011010;
	5 :	11111111110111000111010101011100;
	4 :	00000000000110100111011101001011;
	3 :	11111111111110001001011101100100;
	2 :	11111111111100111010001110000010;
	1 :	11111111111011100101010100001110;
	0 :	11111111111110110111000101001111;
END;
