00000000000111100000101111101001
00000000001111101010000000110000
00000000001100111100100011010001
11111111111110001011110100110111
11111111110101100101010111111000
11111111111101100100110101010011
11111111111000110001010011101110
11111111111011001111110111101001
00000000000001100101110111001111
11111111101100000001001011110110
11111111111000011010000101101101
11111111110110111110011101111101
00000000000101001010000010011010
11111111111101100001011100010010
11111111110001100001010111010111
11111111111111101101011110101101
00000000000010001001010100001001
00000000000100010101100100101001
11111111111011001001110101000011
00000000000101000001100001101011
11111111111110001101101011110011
11111111110100101001110010110110
00000000000011000010110101001101
00000000001101011000100111110000
00000000001000111111111111010110
00000000000011011110011101111100
11111111111010010101110011101111
11111111111100010001110110001011
00000000000101011101111011001000
00000000000111110011100000110110
11111111111010010001010011001101
11111111111010001000100101001100
11111111111101010001011000001101
00000000000101001010011000000011
00000000000000110000110100011111
11111111111101101111100101010011
11111111110111000011011011101001
11111111111100010010010000101100
11111111111010011001001010101110
11111111111001101110000101000111
00000000000111110101110001100000
00000000000100110111101001111000
00000000001111000010000110110011
00000000001010101100001011001001
00000000000000011001101000011111
00000000000101100011101000101010
11111111111111010011001101000001
11111111111100010110101000001010
00000000000110110101100011001110
11111111111110101100001110000001
00000000000101010111111100010000
00000000000000100010010011101010
00000000000111000110010100110001
11111111111101100101011101100001
00000000000100101100010001010001
11111111110100101101010101010011
00000000000011010110110011001011
00000000000101001000101010011101
11111111111111111000111101101110
00000000000011110110011100010110
00000000000011010010010010010110
00000000000010100101110110101111
11111111111011110100110110100011
11111111111101000110110010100000
00000000000011101101000011110000
00000000000101000011011001101001
00000000000001101100001101010101
11111111111011100111111010001000
00000000000101110010110110001011
00000000000110100000111000010111
11111111101101000000010001111110
11111111110010001001110101010001
11111111111101001110101111010011
00000000000011001000011011011001
00000000001001111100001010000001
11111111110010011011011011100101
11111111110001111111110001000000
11111111111000001111100100110011
11111111111000000000101101100110
11111111111100010001010101110111
00000000000000000010111001011111
11111111111001101010010010110000
11111111111010110110001110000100
00000000000001010001101010001011
11111111110110010101000001110000
11111111111101001111111101111111
00000000000100010100001000101100
00000000001010001001010011001000
00000000001011000110010100000001
00000000001011110110110110101111
00000000000111010010111100111010
00000000000110001100011000011100
00000000001101011010111101010110
00000000001011000010010001100000
00000000001100111101011111111010
11111111111110110010111100110010
11111111111110100101100000010100
11111111111101000001010001100000
11111111111101100000111101011100
00000000000110011011001000111010
00000000000011101110010000101000
00000000000000011110010010000011
11111111111110100110011000011101
11111111111111001101110110011100
11111111111101000001110111000100
11111111111010110100010111110101
11111111110010011110001111001111
11111111101111001001111101010101
11111111111001110101101011010001
11111111110000111001000011000010
11111111111100111001001001101101
11111111111111011001101000101001
00000000000000111101101101001000
11111111111101110001011010011001
11111111111101111011001110101011
00000000000111001011101001010110
00000000000100010110101111000010
00000000000011110011111101010110
11111111111110001010110100001111
00000000000100010001010100111000
00000000000000011000000001111110
00000000000011100101010101011101
11111111111111110110101001100011
00000000000011101001011010100111
00000000000010001000101010111010
00000000000101101100011010100101
00000000000000000101011110101000
00000000000000011101011000100101
00000000000101110100100110001111
00000000000010001011011011101111
11111111111100101010011111011000
11111111111111000100100110110101
00000000000001010001011101010010
11111111111101000111000101101100
00000000000000101001110011101010
00000000000001101000011110100001
11111111111110110100001010110001
00000000000000100100010101001101
00000000000001111100001010100100
11111111111111000001111000011010
11111111111110011111011001111010
00000000000011101011001000001101
00000000000100001100110001110001
00000000000001110001001111000011
11111111111101001101000101111000
00000000000010110011010010111111
11111111111100000110110001111000
11111111111101011000101101111010
00000000000010001100010010011010
11111111111101010101111111000011
11111111111111110100000110010100
00000000000111010100001001101111
00000000000011101001011001011101
00000000000000010001011011110001
11111111110111001101011110001001
11111111111000011110010000000010
11111111111010010111110000001101
11111111111100011010011100110011
11111111110011111101000000110001
11111111111001000010111010101100
11111111111110001111001100111110
00000000000010110000100111001111
00000000000010011110101100110001
11111111111111111100110111100110
00000000000000000100010001010110
00000000001101100001100101100111
00000000001100101101010110011000
00000000001010110110011000101011
00000000001001110011011000111101
00000000010000000111101001000011
00000000000101011111110001011100
11111111111001111011101000101110
11111111110110010000101000101110
00000000000001100010010111110111
00000000000010011000000110110100
00000000000101101100001001001111
00000000000000011101000010101000
00000000000001101011100110000000
11111111111000011110111010100100
00000000000111101010101001101111
00000000010000010111100000001010
00000000001000100011011110000000
11111111111110111111111001101000
00000000000011110010010100100111
00000000000011111001011110101011
00000000000110101101011111100100
11111111111110011010100110101001
11111111110110001110011000111101
11111111111101010000000000110011
11111111111111010011001011110000
00000000000101010110111011110100
00000000000000110001110100000111
11111111111111101011001010000000
00000000000011001110010111110110
11111111111011101001111110010010
11111111110111110010010001001111
00000000001100101000101001000111
11111111111110110010110010000010
11111111111000101000100000011100
00000000001000100010000111100100
00000000000011001010101001000011
00000000000001000100101100010001
00000000001011011011110110100100
00000000001110011100001000101111
00000000001111110010111000100110
00000000000011010000011101100100
11111111111010101001100010011110
00000000000001100101110000101111
00000000000001001000110111000100
11111111111000110101010010101110
11111111111101110001101100101000
11111111110101000110000111100001
00000000000110011000101001111100
11111111111110000011110111111101
11111111111110000010100010110011
11111111111101000101111100010101
11111111110101011101011000010111
00000000000101111101001101100010
00000000000011011101000011100101
00000000001100100001010111001000
11111111110010111100011101000000
11111111111101110101000110110111
00000000010011010100010110001111
00000000011001000100001101011111
00000000011001100000101001101010
00000000010100101011101111001000
00000000000111100100011101000011
11111111111010111101000110011101
00000000000001010001011101001000
11111111110111100110110010100010
00000000000100011111101100010000
11111111111111001011101111001010
11111111111110110010101111001000
11111111111011111010001000010111
11111111111111101010111110011111
00000000000100011010001101101100
11111111111011111011001110011101
11111111111010100011010000011010
11111111111001010101011001011110
11111111111101011100101110100110
11111111110111110100000010010100
00000000000000010101000101010010
11111111111010010000110101110101
11111111101111101111111101101110
00000000000101011110110101010101
00000000000011010000101011000110
11111111111010101010000110011010
11111111111101100001101110111111
11111111111001011100110111101000
11111111111110111111011100010100
