00000000000011010101101000011100
00000000001000010011100001010010
11111111111101000010100101110101
11111111111101001100001000000110
00000000000011010000101110100010
00000000000011001011111111000000
00000000000110111001100000000110
11111111111010011111011001001101
00000000000000110100110111000101
11111111111111000011111011000010
11111111111110001000011101011100
00000000001000110101000011110110
00000000000000111010101111001011
11111111111011010100010010111111
11111111111011011000010110000100
11111111111011100101100000011001
00000000000110110001110100010101
11111111111010001110011101011110
00000000000000011011010010010111
11111111111110010110100110110010
11111111111101101100111001111000
00000000000000111010001010011110
11111111111100011110010001110000
00000000000010001011101000010001
11111111110011100010011111100110
11111111111000010110110011110000
11111111111010010011111010000000
00000000001000001111001011001110
00000000000010000100101110011011
11111111111011100110010101101101
11111111110110111010010010001000
11111111111000100001001101101110
11111111111111101000101001010001
00000000000100101011111001001011
00000000000101001001111111001011
11111111111010000011100000000000
11111111111011001101100001001010
00000000001101000011110110010111
00000000000000111011000011010101
11111111111101110101001111010011
00000000000011000101000001011001
00000000000011110000110000110110
00000000001010000110110001101011
11111111111110100100100011011110
00000000000000101010110011010111
00000000000001010111111110010100
00000000000101100010100001011000
11111111111010000001110101011100
11111111111110100100000001010110
00000000000010101100000100010100
00000000001001111100111011111011
11111111111111101111001110000111
11111111111111011010000000000010
00000000000100111110101001101011
00000000001011000011011100011110
00000000000001010010101011110010
00000000000101011111000000000000
11111111111110101010001110000100
00000000000011001101000000111001
00000000000100111010101011110001
00000000000011011011001010100110
11111111111011011101100111110111
11111111111000100101101111101010
00000000001001010111010101100001
11111111111111001001000101011111
11111111110110101101010001110110
00000000000000110011111011010000
00000000000100010000010111000110
00000000000001011111101011110000
11111111111000111001100111000110
00000000000011000011001011010001
00000000001010110100010011010000
11111111111111011011110111111001
11111111110111010110001101011011
11111111111010101011111001100011
11111111111110001110101001101101
11111111111101001011111000110110
11111111111000100110110111110000
11111111111101010001110110000100
11111111111000110101100100111011
11111111110101111101010001111011
11111111111100100000010010000100
00000000000011001000010010010101
00000000000001111011000000111000
00000000000110110001011010101101
00000000000011101010101100000010
00000000001011000101000100111010
00000000000101011111111101001010
00000000000001100101111000111011
00000000001101101000101101000110
11111111111101011001001001101101
11111111111000101111010110111010
11111111111101011000011010101110
00000000001011100110111010001110
00000000000111001111111110010110
00000000000111011000010011001000
00000000000100001110110011000101
00000000000011101110111000000101
11111111111101111011000010010000
11111111111001000011100010101110
11111111111011000000110101011001
00000000000011101000111100011010
00000000001000011100110010010000
00000000000001001101101011000000
11111111111111010010000110110011
11111111110111100100101010100000
11111111111110110101100101111111
11111111111100001011101101010110
11111111111101101110010001011111
00000000000001000100101001010010
11111111111111011001001010110101
00000000001010101100000000100010
00000000000110100100110010100001
11111111111110010101000111111100
11111111111011100111101001001011
11111111111100111010100111100111
11111111111011101111001111101011
00000000000110010011101101100101
00000000000110011100001100100110
00000000001010101000000111001110
00000000000101100111010110011000
11111111111100111101001000010110
11111111111010101110110101110000
00000000000010101001010000100111
11111111111110110110111101110010
00000000000011110011011110110100
11111111111010010011101111000101
00000000000010111001111110011010
00000000000100010111010100010100
00000000000100101110111100111011
00000000000011100101011100100001
00000000000010110111001111000011
00000000000001111001010010001010
00000000000001010101000000101101
00000000000001010011100001111101
00000000000000101111010110000110
00000000000110000111100000101011
00000000000011111110010010000111
00000000000010010111001011011010
11111111111110000100101100011100
00000000000001110011001011100101
11111111111011100101000101110001
11111111111101111100101101111101
00000000000000000111111111100011
00000000000001010111000011100011
00000000000110001101000010010100
00000000000011001010010000111001
11111111111011100011100101100100
11111111111101100001100001011101
00000000000011000001100100110001
00000000000101100000001001111100
00000000000111111001001111100110
00000000000000111000110000011010
11111111110101011000111100001001
11111111111000011101101010011001
11111111111101101010111011011101
11111111110111000001010001111001
11111111110100101010111001000010
11111111111011111110010010101111
00000000000110110111110111111111
11111111111100110011110011101000
00000000000001011101001100110111
00000000000110010110010110010000
00000000000111010111100010100101
00000000000111011100011011000000
11111111111001110010101011111001
11111111111110010010100101011011
00000000000011110011000101110101
00000000001001011110111010011101
00000000001001100000010111001110
00000000000100101101111100101111
00000000000010001100110001100111
11111111111111001011001111100011
00000000000011000001101000100100
11111111111110101011110011100100
00000000001010001101010010000110
00000000000110011010110110110000
11111111111100100001111000101110
00000000001010111000101111101001
00000000010011010100101111110001
00000000000000111010011110101101
00000000000010010110011010011010
00000000001100000001000010001000
00000000010011011110100011001011
00000000010010011010011010101111
00000000000111101101111111000000
00000000000110010100001000001100
00000000001000101000010000110000
11111111111110011100001100000100
11111111110100101100010100101001
00000000000100111000011010110001
00000000001000011011000110000001
11111111111000110001010000110110
11111111111001111011110100100100
11111111111011111011100000101111
11111111111101100001011000100011
11111111111001001001010101001011
11111111110110000010101001000011
11111111111100100011101000011100
00000000001110111011110101010010
11111111111110011010100010010100
00000000000011100101110101110111
00000000000111100101010111111111
00000000010000101111100001010101
00000000001011011000111101101110
11111111111000101100100010010101
00000000000010011000010110001100
00000000000010110110110000110100
11111111111001100110101101100011
00000000000011010000011001110011
11111111110110100100110100100110
11111111111010000100110000110010
11111111111101100100111011001100
11111111111011000001111101010000
00000000000011011010000010100011
11111111111111000111111001100100
00000000001011100000000101010101
11111111111111111100101010011111
11111111111100001110010100000100
00000000000011110101100011100011
00000000001011111111110000000101
00000000000000011101100011111011
11111111110011101011111101100011
00000000000100010010000110011111
11111111111001111110000100101101
00000000010000111100011001100011
00000000000011001001101000000011
11111111101101110110001000110110
11111111110011011100010011101001
11111111110100001111000101101111
00000000001101100011100000000011
11111111111011001100010010011000
11111111110010011110011100111000
11111111101101001000110111101001
11111111111100101010011001001111
00000000000100000011100110111110
00000000000010101110000110001010
11111111111110000110001111001000
00000000000101010111101101110110
00000000001000110010100101000100
11111111111010000011110101001111
11111111111110010000100111000101
00000000000100011011001101110010
11111111111100011001010010001011
11111111111011100001010000100100
11111111111101011001001111111100
11111111111110101010101000001111
00000000000110011110101110010000
00000000000100000101000000000110
11111111111111111110110000110001
