00000000000001111101100001100011
00000000000011110001010101001001
00000000000000100011011010010100
11111111111111100101110111001101
00000000000110000101011001111001
11111111110101111010100110110010
11111111111110001101100011100101
00000000000100111000010110000111
00000000000000111011100110001110
00000000001110001011110101111000
00000000000000001010101100100101
11111111111111000101000101111110
11111111111001111000111011010100
11111111111000101001001001100101
00000000001010000000101010100001
00000000000001010111101001001000
00000000000000101110111110110011
11111111111101110101010110111010
11111111111111100111010010110110
00000000001011001101111101100111
00000000000111000111001110011000
11111111111100110001010110111001
11111111110100000001101101100001
11111111101110101001011101011001
11111111111000011001100101000101
11111111111111001001011110101000
00000000000010000110101100111111
00000000001000100010101111001011
00000000000010111111101011011101
11111111111010100010010100100010
11111111111110101010110000111101
11111111111111111101100011000111
00000000000001011101110111011001
11111111111100101101101100011010
11111111111111111001011000000100
11111111111000111011001101000101
11111111111111010011101011011010
11111111111011111110110000101100
00000000000000101100101011010010
00000000000110110111000011001010
00000000000011011001100000010101
00000000001010000001101011000100
11111111111011000001000110101010
11111111111101100010101010010011
00000000000011011101111100101111
11111111111100110111010000101010
00000000000100001000111011111110
00000000000001010010010000000001
00000000010001000100010010110110
00000000000101000001100100110010
11111111111001010011111101100100
00000000000001111100111010101101
00000000000011010010101100110100
11111111111100111010111100011000
00000000000101000010111011110111
00000000000101001010001111000010
11111111111110010001100011011101
11111111111100101101011101000001
11111111111101011111101011110010
00000000000010001101001001111110
11111111111011100010111110100011
00000000000000100100001110001000
11111111111110110101011100100101
11111111111111000010010100011000
00000000000011000110100011101010
00000000000001001000111000010000
00000000000011101010111000001010
00000000000001010111100011100010
11111111110110101010010001101011
11111111111010100011001010111000
00000000011101010111010100010010
00000000000100000100000000011110
11111111110111010100101000010010
11111111111000000101010100010010
11111111111111011111010011111000
00000000000110000100001010101110
00000000001011011111010111111100
00000000000001111111100110000010
00000000000001111100110101001110
11111111111111111000010001110010
00000000010000101101010101100101
00000000000011000001111001110001
00000000001100010000011001010101
00000000001001000011011101100100
00000000001010001100000101100110
00000000000011111011100001110010
11111111111111111100010011010000
11111111111111110101111111110111
00000000000110110000001101001000
00000000001001010100000110110101
11111111111000000110100101111000
11111111111001101101011010001000
00000000000010010011110001010111
00000000001100100011110110110110
11111111111000010111001101100001
00000000000110000011001000000110
00000000000111000100101101110111
11111111111001001101001110110111
11111111110001010011110100001100
11111111101100110011100000100101
00000000000011011101001100010110
00000000001100111100000000111111
00000000000000101000100111000111
11111111111110001011000111011000
00000000000011100011001001100110
00000000000011010111000011000111
00000000000101111110110110011010
00000000000010111101110000111000
00000000000000001101110101011010
00000000000100000111000010111010
11111111111011100110101001100101
00000000000101001001100101011001
00000000000101101001110110011101
00000000000100100011010000000101
00000000001000001100100001000000
11111111111101010000100000110001
00000000000001001011110100111110
00000000001111000100001001100101
00000000001101011110100111010011
00000000000101010100101100001101
00000000000100101100101101101100
00000000000000011100110110100101
00000000000010100001010010100111
00000000000010111110011010100011
11111111110101101111100100000101
11111111111110101111010010011110
11111111111111010100011000010011
00000000000000101110101111010100
11111111111001011010001000101101
11111111111001100110110100111110
11111111111110001101001111101101
00000000000000101101011000011010
11111111111111000100000001001010
00000000000000110001000010100100
11111111111110100000001001110111
00000000000011110001000100101001
11111111111110101101000010101001
11111111111011001100011111111111
11111111111100111110100001101111
00000000000000111011110010110000
00000000000100100100001101110111
00000000000010101001110101101011
11111111111110111100100111100100
00000000000000110101001101001110
00000000000010011111101010111100
00000000000000100110110000011111
00000000000010010001100101011111
00000000000001101100101101000100
00000000000001010101001011111101
11111111111101000111001101110000
00000000000110101110000001001001
00000000000100010001010001101111
00000000000001111010101010110010
11111111111101100011010000111001
11111111111010110011011011100101
00000000001001100001010001001100
00000000000100010110010100001011
00000000000100011111110111001100
00000000001010010110101110100011
00000000001111011110000110100001
00000000000110011110101000101011
11111111111111011011101101011100
00000000000011011001001110000110
00000000001011011111011100101110
00000000001101010111001100100011
11111111111110010100001101000000
11111111111011010010000111101010
00000000000001110000111001101011
00000000000100111011101011000011
11111111111110000010000000000011
11111111110100000100001100001001
00000000000001010110010001101111
11111111111111110110110001011000
11111111111000101011100010110100
11111111110100011001001010111101
11111111111110011101101100101000
11111111111000101001011010111001
11111111111010001000111001001110
00000000000000111100010011000111
00000000000011100100111011100000
00000000001110101101101011011011
00000000000111101110000001000110
00000000001010101000011100100110
00000000000100010101100110010111
00000000000011100000010111101111
00000000001100100111010011011100
00000000001010110111101110001001
00000000000011011110000111111111
11111111111101000100011010010001
00000000000000101101011110111010
11111111110110111101111010101000
11111111111010101000101101010001
11111111111110110100101010011111
00000000000111011001010010011011
00000000010001100100110111110000
11111111110000000111001000001110
11111111110001001000101011101101
00000000000001011010010010111101
00000000001000000101001010101000
00000000001110000010011001101100
11111111111100010011010000111111
11111111111010100011111010000011
11111111111010010111000100101011
11111111110101110111101000000001
11111111110111010001001111001110
00000000000111011011010111100110
00000000000010001010111100100110
11111111111111000101110001100010
11111111111111000000010110010111
11111111110111001011001000010011
00000000000101011110010110101001
00000000000101111111101110110111
11111111111010001001011001011101
11111111111001110101001101011111
00000000000100111000100000011110
00000000000110010001110111101000
00000000001010001000101100011101
11111111110101101111010100011111
11111111111100110101011101001100
11111111111001100101101001100010
00000000000001110010100001111011
11111111110011100101011001000010
11111111100111101011110011110001
11111111100000101110100100000001
11111111110000111001111000010101
11111111111110001010010000111110
00000000001100110100000010100110
00000000001000000111110101001011
00000000000000100000001010100001
00000000000011101111110101101101
11111111110101000000000111100110
11111111111101110000110111010111
00000000000000100000001000010010
00000000000100000110111000110100
00000000001010111110101001000111
00000000000110111010111001010000
00000000000000100100001000100100
11111111111010010110111101110011
00000000000010010111011001110001
00000000000100100011100111100111
00000000000010000010010000101000
00000000000011001100101100101011
11111111111101101110011100001110
11111111111111011110111111111111
00000000000011111101110110011011
00000000000010111100000010001110
11111111111111101101111010100101
00000000000100000101001101100111
11111111111111101000001011100010
00000000000111000000010010111110
