00000000001110000100110111110011
00000000000111010011110011000100
00000000000001111101101001111110
11111111101111110101001101000110
11111111111010101110010101000001
00000000001010010001100111011010
00000000000010000011011010011101
11111111111100000010100100110110
11111111110110001100101001001011
11111111110011011101100010100111
11111111111111111101001010111010
00000000000010110001111001100010
11111111110101101000011011000011
11111111111001001100001001010101
11111111111001000010111101111010
11111111111111000110011101011000
11111111111111011100001110111010
00000000000011111101110100100110
11111111111010110101100101111111
11111111111110101011010011000110
11111111111100100111111101110001
11111111101111010100101100111101
11111111111010011101101110010101
11111111111100111100110101111001
00000000001111111101111101100000
00000000000100101110101001011011
00000000000110110000110100011110
00000000001011110000100010110001
00000000000011011111101000001111
00000000000001111111011110010101
00000000000010001111011010011010
00000000000001110001000111001010
11111111111111110110010000111001
11111111110011001100010011010101
11111111111001100001111000001101
11111111110100101101111010010100
11111111111001110101010000010100
11111111111111101011101010011010
11111111111011100011000001010001
11111111110101110100011101100001
11111111111101000001111110010001
00000000000110110100110111101001
00000000001000001011100000011101
11111111111111110101110100101011
00000000000101011111101001100011
11111111111111010010000001101100
00000000001001010010101111010111
00000000000110100111000000010010
00000000001100001011101011110101
00000000000111001011010111010010
00000000001100100010011000001111
00000000000101001011000111100101
00000000001000001101111101000111
00000000000011111100110011000100
11111111111111111011100110101011
11111111111001111101001001111000
11111111111100011111000101001110
11111111111111010000010011111001
11111111110110011011101111101110
11111111111000010101000111111010
11111111111110100101000011001001
11111111111010110001101111000100
11111111111011101001010000000010
00000000000010000001100101000101
11111111111101001111101011100001
11111111110000101011110001001010
11111111110100010101000001001000
11111111111001010010111011000101
00000000000001101100110101110001
00000000000000010110100000010100
11111111111101111010100010011100
11111111111001010100110011011000
11111111111011100111010111010101
00000000000101000010000100011111
00000000001000100100111000111010
11111111111011001110110101010010
00000000000100101010110101110111
00000000000011110000010001001111
11111111111100000110110010100011
11111111111111010101110001101111
00000000000010100111110001101001
00000000000000101111111001110101
11111111111111011000101001010001
00000000000000100111101011111011
00000000000100111001001110000001
00000000000001100111100001000001
00000000000100000100110001111110
00000000000011100010100100000101
00000000001000101011010010010000
00000000001001000001111100001111
00000000000001100011100011001100
11111111111110011101010011110101
11111111111110110011011101000010
00000000000010001010111001111011
11111111111010000101011000110001
00000000000110101101110000111111
00000000001001000000000111110010
00000000000100011010011010110010
00000000000000101010011011100001
00000000000000011010100110011000
11111111111011010010011011000111
11111111111110100101011010100010
11111111111100010010011001111001
11111111111010110101101101000001
11111111110100101000010101011101
11111111111000000000110000101011
11111111111110100100111010100111
11111111111011100011110110011110
11111111110111110001010110010101
11111111110111010101101010111011
11111111111010001101100110000000
00000000000100100101000100001101
00000000000101011100010000000010
00000000000000111100010001100010
00000000000110101101100111111111
11111111111100001000110100100111
11111111111111111101100010000010
00000000000101001101010100000000
00000000001101100111101010110010
00000000000110111101000111110010
00000000000110110101000011001001
00000000000110111001011000000101
11111111111101110101100000010000
00000000000110000000101101100011
00000000000010010010101110111010
00000000000011101101000100111001
11111111111000110000010011011110
00000000000010100101111101101111
11111111111000011011001010111101
11111111111110011100101111101101
00000000000011000010000111111010
00000000000100000111000110110110
00000000000011111111110001010001
00000000000000000011100101110111
11111111111110110011011101110110
11111111111100101110001011100111
00000000000000001000111110000111
00000000000001101100000111110101
11111111111101011000000101001110
11111111111110110100000110011110
11111111111111000100010010010010
11111111111111101011101011101100
00000000000001101001000110111100
11111111111010011000101111100111
11111111111100100000001001100001
00000000000111001101000000010000
00000000000000100011101110011010
11111111111111010100011000001110
00000000000011001010101011010011
11111111111100100011101111000110
11111111111110110001011011011111
00000000001010010100010001011011
00000000000100100111100000111010
00000000000011100010100101011101
00000000000010111110001111010011
00000000000100101101101101110000
00000000000001110101111000100110
11111111111011110001101011110100
11111111111110111111100001111001
00000000000111101100111001000001
00000000000100101101111010010100
00000000000110111011001000111100
00000000000000100111011001111100
11111111111010110100000100110011
11111111111101001101001100001000
00000000000011000110110111010011
00000000000000100001011011010101
00000000000100111010010010001000
11111111111110010101010011110000
11111111111010111110100101010101
00000000001001010000100011110101
00000000000111101001110000110100
00000000000111110000101100011101
00000000000000000110011011111010
11111111111100010100011101001001
00000000000001001111111011010100
11111111111110100010000110010100
11111111110111110111000110111111
11111111111101011000101101000110
11111111110011001111101000010000
11111111110101100100010100010111
00000000000010000011000100100001
11111111111001111101101111001001
11111111111001011011101100000010
11111111110100111111000101011001
11111111110010100100000110101111
00000000001000001101111100100100
00000000000101101000010010001010
11111111111001111111001101110111
11111111111101101001010111001010
00000000000010111110000100111001
00000000000011110011011011001100
00000000000011010001101111111101
11111111111101111001110001001011
11111111111001010011011101001011
00000000000001010110100001000111
00000000001100011011011010111000
00000000001101001110000001001011
00000000000101111000001101010100
00000000001101000100011010010111
00000000000101011010011001111110
00000000000000110011000111000001
11111111111010000100110010000001
11111111101100010110011101111101
11111111100100010001010110011000
00000000000000011101100100001110
11111111111100011010111101100011
11111111111111101011001001110011
11111111111101110101100001111001
11111111110010100111100010000100
11111111110110100111000001011000
11111111111111110111000101110110
00000000000101110100011010010110
00000000000001010111001110110001
11111111110100001110110110001011
11111111110100010111000111000000
11111111111111100111011011111101
00000000001000110101001010010011
00000000000100001110001110101001
11111111111111100110111100101011
11111111111110000101101110001110
11111111110100001010010011110011
11111111110011111010101110110000
11111111111100110111011001011101
00000000010110101111011011001010
11111111111111011011010011101010
11111111111111010000110100101000
00000000000010000110100000101100
00000000000111001000101111010010
00000000001110101001101010000101
00000000000010001110101110001101
11111111111100100111011000100010
00000000000010010010110110001101
00000000001010000011010101111000
00000000001100000001110110110011
00000000001000011111111011011100
00000000000101000111011110110110
11111111111111011100111110101101
00000000000010110101001101101001
11111111110110101000000011010101
11111111111010110011001101011101
00000000000001100001001101001000
00000000000110111111010011101111
11111111111111111001100001110110
11111111111000111011011010110000
00000000000001010111011000101100
11111111111111011101110011101101
00000000000001011111110111001000
00000000000010100110100010111110
00000000000011001010001111010010
