11111111101111111110111110101000
11111111110001001110101111011111
11111111111011101000000010101011
11111111111110000010110000111110
11111111111001010010010100010111
00000000000010111111011100101110
00000000001100010100111001111101
11111111111110000100010001000111
00000000001001010110100101010101
11111111110100110010110001000011
00000000000000100001101001001101
00000000000111101010000010100100
11111111111110011111111111100111
11111111110101100000100001001010
00000000000000100100100110111011
00000000001101111011010010001101
11111111111000000000110111110010
11111111110111000101101001000100
00000000000101011001101100010101
11111111110000011111001111001101
00000000000101101111000101111100
00000000000110111011000001101111
00000000000001011000010010010110
11111111111110110001000110110111
11111111101110010010001101100111
00000000000111001000110101001011
00000000000010100110010001101100
00000000000010100110001111110111
00000000000010101100101111010100
11111111110111110101000000110101
11111111111011010000111111010011
11111111110101100110001001100100
11111111111011000011110000010110
00000000001000110001111000000110
00000000000100000101001010001100
11111111110110000000111001101111
11111111111000000111100001010010
00000000000010000110000011000000
00000000001010110111100001100000
00000000001010000001011000000000
00000000001001111001011011001000
00000000001000000010010101000100
11111111111000011101010110000110
00000000000011000000101011001111
00000000000000011011010111010101
00000000000110010001011001010000
11111111110111111100000110111100
11111111111011101000111110011010
00000000000000110011111001011100
00000000001000001000111010011110
11111111110100010100001001100011
11111111111010010001100100100110
11111111101001101110100111010110
00000000000111010001110111000011
00000000000111010001011110001011
00000000001010011101111110010010
00000000001111001110001100110000
00000000000000000100101110000101
11111111111100110010011001111110
00000000000000110100000010010111
00000000000100111010100111101010
00000000000001011101000111011011
11111111110111011011101111101100
00000000000100000000110011000010
00000000000011100001001101110111
00000000001101001101000110110110
00000000001010101000100100111110
00000000001101111110100000010000
00000000000100110011111010101111
00000000000001100101001000110110
00000000001101100111011010101101
00000000001111010110001001110010
00000000000111000101000101011011
00000000000000101010001001000000
00000000001100110100001100101110
11111111110011010001111011001010
11111111111111000001101101110101
11111111111100001101000100101001
00000000000000011110111111111010
11111111111010000101001100111000
11111111111000011110111010000101
00000000001110000101000101100001
00000000001110011110111100101101
11111111111111010111000001101110
11111111110100100011111100110011
00000000001000001001111000101111
00000000001110000111100010110000
00000000000100100111100011100101
00000000000000100010101110111010
11111111101101001111101001100100
11111111111100011110010010001000
00000000000011000101011111010000
11111111111010110111001111100000
00000000000000111001001000011111
11111111110011110010000101011010
00000000000111111000111010001011
00000000001001000101110000011001
00000000000011111110111110011111
11111111111100100000010111001110
11111111101111101000001110011111
11111111101011101100010101111010
11111111110011001011101010110001
11111111111110100110010010000000
00000000010101000110000111110011
00000000000110101101001001111110
11111111110100000100101010010000
11111111111110001011110111001110
00000000000001111110100011011110
00000000000110001101011000010011
00000000001010010011101000010110
00000000001011010011100010110101
00000000000101111010110110101100
00000000000001110111001001011010
00000000000101101010001000111100
00000000000010011011001100000011
11111111111111100110101111100100
00000000000100111100101010101100
11111111111101001001110000111110
00000000001000110110111011100100
00000000000111011000111100101001
00000000000100010100011000111000
00000000000010101110011110101101
00000000000100111001010111101100
00000000000000110101100111000110
00000000000010111101001001001011
11111111111111111001110111000010
11111111111111100000110111001001
00000000000001110000010011100011
11111111111111001010011101100000
11111111111010010101001111010010
11111111111110001110111001011101
00000000000100110101110110010101
11111111111100110010100011011111
11111111111111001111000111111011
00000000000001100010101000111000
11111111111111111010000110100100
11111111111111001100011011001010
00000000000000110101111110101000
11111111111111011101100111011100
00000000000011000011000100101001
11111111111100000110101010101001
00000000000110101100111010011000
00000000000010110011010001000101
00000000000100001101111111110000
00000000000101000011000011010101
11111111111011000011110111001011
00000000000001100000111110111010
11111111111100100111100001110101
11111111111100010101111001001011
11111111111111100011100101111000
11111111110100001011000011101110
11111111111011101110000111111101
00000000001000101101011001101001
00000000000001110011010110111101
11111111110100011000000111001001
11111111110101110011110111001111
11111111110011110001101111011110
11111111111000110100110010100101
11111111111011110010010011100001
11111111110100111001100101100011
11111111111010011000111001111100
00000000001000001011011000111011
00000000001010101000000011101111
11111111111110101110000001011011
11111111110010101100001100001111
00000000000110011001010001001010
00000000000011110101011111110101
00000000000010111110001011110101
11111111110101101101100011011011
11111111101010001101110100101101
00000000000010011011100110010110
00000000001001110011001101110001
11111111111010010100011010100110
11111111111101101110010110011110
11111111110110000010110010110100
00000000001110100100011111010100
11111111111111111010100111101000
00000000000100011110111111111001
11111111111110110000100101001111
11111111110001001111011011101011
11111111100111000011110000010101
11111111100111000100000000110000
11111111111111010110011011111001
00000000000000111001000001100010
11111111110100010101101100001000
00000000000011011011001011010000
11111111111100100100110101111010
00000000000011011100110010101111
00000000000100101101111001011000
11111111111011010110110111000110
11111111111001101001111000110101
00000000000000000101110101000010
00000000000110011010110101110110
00000000001000110011110111110011
11111111110110100011101011011101
11111111110111100111100100111011
00000000000000101111001101011111
00000000000011001110010110000100
11111111111010101001110100001100
11111111111111010001010101111101
11111111111110110001100000110110
11111111110110010100110100010000
11111111111100000110001100111000
00000000000111111010001001001110
11111111111001100111111100001111
00000000000000000010100100110001
11111111111011111110110010011111
11111111111001000001011100111110
11111111111000111011001011011101
00000000000111011110101111100010
00000000001010111010010101110011
11111111111110101011111110100101
00000000000000001111001101100001
00000000000011110101011000000001
00000000000000011100010100111010
00000000001010100110011001011110
11111111111101011011101100010110
11111111111111110010001100000101
00000000000101011010101111111110
11111111111100001000010100011100
00000000000010100111011000110010
00000000001000010010010110011111
11111111111111111001110101011100
11111111111110011010000100000100
11111111101010101011111000000111
11111111110100011011101101010101
11111111111101000110010111110101
11111111111001011000100001011100
11111111110011101010101110000100
11111111110011000100111000000010
00000000000000111110100010110001
11111111111011011100000111101110
11111111101000010111111101000011
11111111110100001001010010010000
11111111111110000000111000101011
00000000000001010010000110001110
00000000000100000010010100110110
00000000000001001100010011000000
11111111111001000010001000010111
00000000000110010000001001100010
00000000000001011011000001100100
11111111111101000111010001110101
11111111111000000011011001111110
11111111110001110110000100011001
11111111101110100001101100000110
00000000000101111011100011111101
00000000001100010101001010101111
11111111111100011110011101100000
11111111111110000111001100110001
11111111111011000001111011010011
