11111111101011010001010111111111
11111111101010110110111000100011
11111111101011101110000111010010
00000000000001011110101011000011
11111111110000001111100001100011
11111111110001110000010101011010
11111111110001011000011001010100
11111111110100111010101111000011
00000000000010010110010010010101
11111111111000011000010111100111
11111111111100110000010110110111
11111111111001000001111110100110
11111111111010101110111100101001
11111111110110101111101110010000
11111111111010010101101101101000
00000000000110011001001111110110
00000000001010110010011011101101
00000000000100111010010011100101
00000000000110111111110010101101
00000000000100101100110001011011
00000000000110001100101000101001
11111111111011011010111111000011
11111111111101111111011011110110
00000000001111111100111010010111
00000000000010010110100100110101
00000000000110011110100001101100
11111111111101110001100111110001
11111111111110111000010011110001
00000000001000000100010000001110
00000000000101100001011111001010
11111111110010010010010000010011
11111111110001011101100011000011
11111111110110000110001010000001
11111111111001000101111010101011
11111111111001001100111000110000
00000000001011111101001010110110
00000000000010010000101010110101
11111111111000001010000011011101
00000000000110111111111101111100
00000000001011110100011010101001
00000000000010001101011100101100
00000000001001101000001100010000
00000000000010111001111100000000
00000000000110111010111000011100
00000000000111010100011111110100
00000000000011010111010000101111
00000000000001110010100000111010
00000000000100001001100000011001
00000000000111100110111101001000
00000000000110110000001010111100
11111111111000110001000111010100
11111111111000111010101001010010
11111111101110010110111111110101
00000000001000011010001011000100
11111111111011110000000100110011
00000000001101000100011010100101
00000000000000100100110010110110
11111111111011010100101010110011
00000000000000111011100000111011
11111111111010001110100010011100
00000000010101000011111110001011
00000000001101100001110001001110
11111111111111001101101100110001
00000000000000111101110010110101
00000000000011011101000000010111
00000000001100100110100111001000
11111111111100101101101001001101
00000000000010101101000001110010
00000000000111000111001111010111
00000000000100011110001100010000
11111111111001100111111011111111
00000000000001110010101001110101
00000000000001010100011000001011
00000000000001101100001010101011
00000000001000111010101011011110
11111111111001011001101111100000
11111111111110101100101010011011
11111111111100010100111011100001
11111111111101010010000100010111
11111111111110011001100100001001
11111111111011011000101100001101
11111111110111001100011010111010
11111111111010101001111111010100
00000000000100001001111001110011
00000000000101101000010000010011
00000000001010010010100110001000
00000000001011110001101111000111
00000000001101010111010000011000
00000000000111100010010100010000
11111111111010101011010110010110
00000000001101111110111001000100
00000000000011110111010000110000
11111111111110000001100100011001
11111111111001111001100000110111
11111111110110010101101101110110
00000000000101010000101001000110
11111111111010101011010000101000
11111111111000100110100111101011
11111111111110110101000000110111
00000000000101001101101111010111
11111111110111101111011000110111
00000000000001110110000001010110
11111111111001100000110101100001
00000000000011110110110100111101
00000000000011100001111010101011
11111111110111111101010111011111
11111111110000100000100001011111
00000000000100000000110000111101
11111111111001001110011101101010
11111111111111110011011010111001
00000000000101001101000011111010
00000000000010011010111110010011
00000000000000101000010111000101
11111111111110000100101111000101
00000000000101101110100111010001
00000000000111111100010110010111
00000000000011100100001101010111
00000000000111011001010100000011
00000000000110011100001000011100
00000000001011110011001100110011
00000000000000100001010110010100
11111111111010100111100010111011
11111111111100100111100100100000
00000000000001001011101100101101
00000000000000010000101010000000
11111111111101101100110101110010
00000000000010100101011011111000
00000000000110001101011010100001
11111111111101100011100000011001
11111111111100001111100001000110
00000000000100101010111001111101
11111111111011001010011110011011
11111111111111101100111111101011
11111111111111011111110000111111
11111111111101010011101000001111
11111111111011100000101101001110
00000000000010111101001100100110
11111111111111001100111101111110
11111111111101001010110100010111
00000000000011011110111101011100
11111111111101011000111100111010
11111111111100110010000000010101
00000000000000000000111011000111
00000000000001000110110101001111
00000000000010001110011110000011
00000000000011000011001100100100
11111111111101110010011001001110
11111111111100110101100101111101
11111111111101000110011101000011
11111111111111101111000011101111
11111111100111110101111100111110
11111111110001111001000001111000
00000000000001111010010100010101
00000000000010111011111000011010
00000000000000100000110100110011
11111111101101100100110010111110
00000000000000101100001000001100
00000000000010001000010101000001
11111111111011110100011011110111
11111111111000011100001111101100
00000000000101011011011001010110
00000000000011011111101001101001
00000000000010001010101001011110
00000000001000011010101001101100
00000000000011001111010100001011
00000000001110110000111001111111
00000000001100111010011000011101
00000000001100010000101000010011
00000000000001100011110100001101
11111111110111100001100010101100
00000000000111101100111011001000
00000000001001110001001000101111
00000000000010001000000101010110
11111111110110110110010010001110
11111111111100001111100010110100
00000000001010001011010000110111
00000000010001011110111101010110
00000000011001100011100001000000
11111111111111100111101111111101
11111111111100010110000001010010
00000000001100001100000101000111
00000000000011000101010010111000
11111111111001011100011010111101
11111111111101010110110010110010
00000000000011010101011001011001
11111111100100110101100111010000
11111111110011101100001001101100
00000000000000110011110101010001
11111111111111001010000100011100
00000000000001110101010100111101
11111111111011100010011100000000
00000000000010000100101110110000
11111111111101111000011101001110
11111111110010000011011001001111
11111111101111001010100001101010
00000000001111110100110101010101
00000000000000010000100011110111
11111111111010111010100010010000
11111111111000010100111110111101
00000000000011011111011010100111
11111111110110110101000000100010
00000000000110010101111100000110
11111111111100100001100001010011
11111111111010110010010001111100
11111111110101100000111001101000
00000000000010011101100100101000
00000000000010111111110011010111
00000000000100011010000000101110
00000000000000110100101111000110
00000000000001111001101011010110
00000000000100010100000110011101
00000000000001100101100000111001
11111111111100110111011000011011
11111111111000010010011010101000
00000000000000000011001000010100
11111111111110110000110011000011
11111111111101011010111101000011
00000000000010011111011111000110
00000000000011010011001010111101
00000000000100010001000110000100
11111111111111010100001000011000
00000000000110100010101000101101
00000000000100000011001010101001
00000000001111001001100000100111
11111111111101110100000011011010
11111111100101011101111011100100
11111111111000010110001000000101
11111111111001001001001111101111
00000000000111111111011010011011
00000000000111010010110000101110
11111111101001111100011000001101
00000000000000010011110101010001
11111111110111000101001110000101
11111111111110110100100011110000
11111111111011110110110011010011
11111111111011001000101010001011
11111111111100010111010111101001
11111111101010111011111110110100
11111111110101100000111011010111
00000000000010010000000000100001
00000000001111001100011100011110
00000000000011101101011001010001
00000000001100000000011011001011
00000000000010110001111100010100
11111111111101010111010010010010
00000000000101110011011011111111
00000000000001101101010101010100
11111111111111010000001010101100
11111111111100111000110101111000
11111111111000010101111000100110
