11111111111101111111000101110010
00000000000001011010010110111000
00000000000001000111010100010010
11111111111110001011101010001000
11111111111001010111010100010101
11111111111001100101101000010001
11111111111111110111101100110110
00000000001010011100000010000000
11111111111010111011011101011100
00000000001011110010111100110010
11111111111010110111111111001011
11111111111111001111110011101000
11111111111101010100101001101100
11111111111111111001100110010001
00000000001110000110001111110010
00000000000110111001001101100001
11111111111100001011010001111111
11111111110101111011100000110010
00000000000100010001000101110111
11111111111010010110011000011011
00000000001001001000100110010110
11111111111101001010100111011110
11111111111110100101110001010100
11111111111011001111111100110100
11111111111000101100110000010001
00000000001010011100011011011011
00000000000101001011101011110000
00000000000000001100100010100110
00000000000000000110110110011011
11111111111010000111100011010110
00000000000101111000000010000010
00000000000000111010110111110111
11111111110110011010110110000110
11111111110110010001000001000011
11111111111011000101000110010100
11111111111111011100110011100111
00000000000000101001111111001111
11111111110011100001001101100110
11111111111101001101111101010100
00000000000100100111001001110000
00000000001000001011101110110000
00000000001010111101001010001011
11111111111100001100000100000111
00000000000001010101001000101001
11111111111111101110010100101001
11111111111110110000110101001001
00000000000111011101100101011101
11111111111110001100100010010000
00000000000011101010100100111000
11111111111011000111100010010111
11111111111110110110100011000110
00000000001110001101100101010110
11111111111111110110000100100111
11111111110111110010100111111010
11111111111000110100111010000000
00000000000110101101010001111001
00000000000101111110101011100001
00000000000010001110010110111010
11111111111001111001001001000101
00000000000000001111001001010101
11111111111111011110010111010101
00000000000100100110011000000000
11111111111110110111000110101010
11111111111100100000000000000000
00000000000000000110010111000111
00000000000011001011010101111001
00000000000110001001011110001000
00000000000111011100011001010110
11111111111101111001100000101110
11111111111101110000000011110001
00000000010010101111101001111001
00000000001100001100000000111110
00000000000011101100011010010110
11111111111110010011100011110001
11111111110101100111011000011000
11111111111100101101100011000111
00000000000001011111111000000000
00000000000000101001010010101111
00000000000101100000101111101110
11111111111101100000101000010010
00000000000100000000010010010111
00000000000001111111000000101011
00000000001001001000100101110001
00000000001101101000100110011101
00000000001010001001100010011000
11111111111011011110101111011001
00000000000001101110110100000000
11111111111101111101001111000001
00000000000001100101111001100001
00000000001001000100100110000111
11111111110111110111101011000110
11111111110110110101000001111111
11111111111110100110111001101010
00000000000001110011000001100110
00000000000000010110011111000000
11111111111101001101111111110100
00000000000100111111110011011100
00000000000001101010111111110011
00000000000111110101011110110011
00000000000111111000100001111101
11111111111101011001010111100100
00000000000111110100100101000101
00000000000001010111011010011000
00000000000001010011011111110110
00000000001001001000000110100011
11111111111110111011001000010000
00000000000011111000011100010001
00000000000010110001110110010001
00000000000010010000000111010110
00000000000111100100011000100111
00000000000000010111010100100100
00000000000011110110000100011111
11111111111111010000100110011000
00000000000011100101010010100010
00000000000110010110110111111001
11111111111001010100011010000110
00000000000010001110111101000001
00000000000111111101010000111100
00000000000101110010000011111101
11111111111110010010101111001111
11111111111010111110010110111010
00000000000010000110011010000100
00000000001001010000001110110101
00000000000011111111101010110001
00000000000011010000010111100110
00000000000110000011000010000110
00000000000111001010010101011011
00000000000010011110100011000010
11111111111010110111010100100011
00000000000001101001110001001000
00000000000000111110100011010011
00000000000011101110101010010011
00000000000011100000011000111000
00000000000010100000111110101111
00000000000010000101110110011001
00000000000000111111001111100010
00000000000010100010100010000110
00000000000011111011101101110100
00000000000011111010101001000000
00000000000001010101110010101111
00000000000001011000101100011000
00000000000001101110011101001100
00000000000010011101010010011110
00000000000001001010000010110010
00000000000010111111000000110101
00000000000000011011000101101111
11111111111111010010100000110001
00000000000101011010111001000111
11111111111111100010110110000010
00000000000000101000010000101110
11111111111011111110011011011010
11111111111110001111010100000110
11111111111110111001111101011101
00000000000001110101110110111000
00000000000000001000010000110111
11111111111100000001001010001010
11111111111011111101000111110111
00000000000001010000110001111011
00000000000001000001011111101101
00000000000011101100011101001001
11111111111110011110101110011000
11111111111111101110000110110110
00000000000000010011000001000010
00000000000110100101100001110011
00000000001110111111111010111000
11111111111001011101010100010110
00000000000001101001001111110001
00000000000011111000101001100110
00000000000100011011000110011100
00000000000111000001010111110110
11111111110000100101101100001111
11111111111111111111111011010101
00000000000000000000011000011111
00000000000000111101000100010011
11111111111111111001001000001101
00000000000011000110011010001111
00000000000011011101001111011111
00000000000001011101010111110111
11111111110111110101010111101111
11111111111000100010000001000010
00000000000101000000010000101110
11111111111101000110001111011011
00000000001010001111000100011000
11111111110110101110100101101010
11111111111000011000001000101011
00000000001011011101110111100111
00000000001100101111101011010100
00000000000111101101100100001000
00000000000010110110010011101100
11111111111101101011100101000011
11111111101110111001001000011110
11111111110010111010110001110111
11111111111011110111010100011010
11111111110111111110110000000100
00000000000110010101111111011110
11111111110001011110111100111010
11111111101001101010111011110101
11111111111001110000010100000001
00000000000000110010011001110010
00000000001011101100101010110110
00000000001001011101011011110001
00000000000010111011000001000011
11111111111010110010010110011110
11111111111011001101110111010110
11111111110110011011111010011111
00000000000110000010001010010110
11111111111111001011010100100111
11111111111011011100110011110101
11111111111101100010111000011110
00000000001000000010101110110110
00000000000101110011011110100110
00000000000100000110110010101100
11111111111111110100101000111100
11111111111110100111001100010000
00000000000100110010100010001100
00000000001011011010010001000110
00000000000101101011101000011000
11111111110110011110000100010101
11111111111010011110000001011010
11111111101110001011010000010100
00000000001101011000111111111100
00000000000010111001011000011010
11111111101000100100111101011111
11111111100011001100110100001001
11111111101011111110001101011010
11111111111110001110100001000110
00000000001011010010111011111001
00000000000111100000011111110101
00000000000111101010001010000001
00000000001110110010000101011010
11111111111100100111111001011001
00000000000010101011110011111111
00000000000110111101110000010101
00000000001000100000111101111010
00000000000110100101100100101111
11111111110111101110110000111001
11111111111001100001010000101111
11111111110100111111101000101000
00000000000000000110100001010001
00000000000011010010010000011010
00000000000011000110000110010111
11111111111111111001011101100011
00000000000100000110001000111000
00000000000000000100110101101100
00000000000111110110110010100110
11111111111101000100001010010011
00000000000011111011101111010001
00000000000100011010011011101111
11111111111111101000110101111001
00000000000000010011110100001000
