11111111111111001110001100000100
11111111111101100010000110110001
00000000001001010000011101000101
11111111110110000000110111000010
11111111101110100010010100001010
00000000000100000101001011001100
11111111110110010100101111110101
11111111111100001000010011110001
00000000000001100010110111110101
11111111101011001011010110010101
11111111111111111001101001100101
00000000000000000000110111000011
11111111111011010110110110010001
11111111101111011110101000011001
11111111110110000111000010010111
00000000000101110000001010110000
00000000000101100100000101001000
11111111111010101010110100100100
11111111111001001000001001101011
11111111111010101110011001100100
00000000001001110000110011110101
00000000000101010010111111011001
11111111111011011011010100010111
11111111111011100010111010100000
11111111110011001110010100111101
11111111111010111111000011000011
00000000000001101011111000100101
00000000000110011101011101101001
00000000000100000000111101110010
11111111111110011001100100101110
11111111101101101101000100100110
11111111111111100111011011001001
00000000001000010110011110000111
11111111111111110001101111100110
11111111111101001100101101000100
11111111101111011110000100110101
11111111110101000010100101101110
00000000001010110110101111011000
00000000000101110100000010011110
00000000001010000100100001000011
11111111110101000110010000001000
11111111111101010010110100110111
00000000000111111001011000011011
00000000000110001010110100011101
00000000000001100010101100101100
11111111111111001101110110100010
00000000000011101110010110000110
11111111111100011011010000101011
11111111111011000011111011100110
00000000000011100011011011111000
00000000001000000010111100000111
11111111101110000001100110101101
11111111111011101100101000001101
00000000001101110101011000111111
11111111111110011001111011111101
11111111111110101001000001000000
11111111101011000110111101110111
00000000000000100100111011000101
00000000001100101111010101111100
11111111111111011110100110010101
00000000000010111000001000111110
11111111110100101101010111000010
11111111111001001001011001010100
00000000001001010010101101101111
11111111111101001101111010110011
00000000000011010001110000111100
11111111110110100110110001001100
11111111111011101011001011100101
11111111111101010010001101001110
11111111111101101111001010011000
11111111111001100001100000000100
11111111111100110101001000101011
00000000000000111110100101000001
11111111111110100111111010100101
00000000000001001110111111001110
00000000001000010010010000111100
00000000000011010110110100101001
00000000000010110110011011000100
11111111111001010110011110001100
11111111110111011100110000101100
11111111110011011000111100101001
11111111111011001000010100000001
11111111111100010000000011011010
11111111111111100111000110000111
11111111111010111000100110111001
11111111111011010000010111001011
11111111111101000100111001011001
00000000000011010111101010011000
00000000000101100000010010100010
00000000000100100101011010100001
00000000000100011110011110111101
11111111111101111111101000010010
00000000000001010010010000001111
00000000000000010010111101110011
00000000000001010000011111010001
00000000000011011000000010100100
11111111111110010010101010100001
00000000000001100001110001111010
11111111111111010001011111000000
00000000000000110011110100010010
00000000000001110101001011110100
00000000001101000000010011110100
00000000001101000001000100100001
00000000000010011010111001010010
11111111110111000000001100111111
11111111110010011100100110101101
11111111111101100001011101110000
11111111111100101111101001101000
00000000000001010101000011000101
11111111111010010011100011001100
11111111101000101001110101101110
11111111111000110001011111100110
00000000000011111101101011000110
00000000000010011100001110111100
11111111111110101000001011001011
11111111110111010111010001001011
11111111110100111110001000011100
11111111111101001100001110000111
11111111111010001000001110111001
11111111111011100110001110010000
00000000000101100100100100001001
00000000000001101100100110001010
00000000000011101000100100111111
11111111111100111011110001110100
11111111111010011000111001110000
11111111111011101010001110001111
00000000000010011101110011010110
00000000001000001001110001001100
00000000000100011110100000111110
00000000000110101110110100000011
11111111111100000010000000110100
00000000000010001110110000010110
00000000000000000010100010100001
00000000000010011001100110100000
00000000000010110000100010010100
11111111111101010110110101011001
00000000000100101011000100100100
11111111111011101010010110001101
11111111111100101100001101011010
00000000000010110000100111001010
00000000000001010101001000001110
00000000000000001000110101111010
00000000000100000011001010101000
00000000000000101011101000100100
00000000000011100001001110010110
00000000000111001010110100100110
11111111111101000001110101110010
11111111111001000100010111100011
11111111111101010001010000011100
00000000000001011000001010000001
00000000001011100000100111011101
00000000001001001001000001110001
00000000000100010010111010101001
11111111111000000001100100011101
11111111101001000101111101010111
00000000001011000100100011110111
00000000000101011000100100110110
11111111111011110100010110100000
11111111111001010110000011101101
11111111110101110001010110110101
11111111110000101110000111011011
11111111111100100010111000010000
00000000000101111001010011000100
00000000000111011100011100001110
11111111111110100000000100000011
11111111111000111110000101100110
00000000000010000010011001111111
00000000000001101101110110000100
00000000001000111101111111100110
00000000001111010101001000000011
00000000000010011111011101001100
11111111111011011000111011111000
00000000000001010110111110010011
00000000001001000110100100011001
00000000000111011111001100111100
00000000000010111110100100111110
00000000000111111000011110001101
00000000001110010001111110011100
00000000000011011110110000011001
11111111111111011101101000010000
00000000000000011111101110111100
00000000000001110100011001010000
00000000001011001011101101110101
00000000001000001001010001011100
11111111110111100000010111010001
11111111111011010101010101000001
00000000000001110000100011001011
00000000000010111010010011100001
11111111110110111000101000100100
00000000000010010001000001100010
00000000000011110110001001111001
00000000001011010110011110000111
00000000000000101001100011010001
00000000000111101110000110000101
00000000000101110110100111011110
00000000000010001111101001001110
00000000010101000110100101010000
11111111111111001111001001000010
11111111111011110011001001110111
11111111111011001111111100110001
00000000000000010000111101101101
00000000000000001101111011101111
00000000001101100100000001111011
00000000000100001110101001000010
11111111110000001001011011001010
11111111110011000011010111011111
11111111111001101010110001011010
00000000000111001101110100111111
11111111111110111001001001011110
11111111101001010100011100101110
11111111110101010111111001010000
11111111110100011110101111110001
11111111111011111100110011111110
11111111111000010010100000100010
00000000000100001010100001110001
11111111111100111111011101010001
11111111111101011011110010110110
11111111111110000110101000111001
11111111111100101110100001001001
11111111111011010001001010010100
00000000000110000001100000110000
00000000000100101111001100000101
11111111111011100001111000100110
11111111111111100001001011101111
11111111111100110101011111011110
00000000011000000001010100110010
00000000001110010101001001101011
11111111111110011010010010000011
11111111101100110000001101010010
11111111110101111111011110100101
00000000000111001000100001010101
00000000000011111100001000001010
11111111111011001011111111001100
11111111110101110000100111111000
00000000000110101011011111011110
00000000000010100010001001010101
11111111111001101101001010011011
11111111111110100000111000100011
00000000001101010110111101010000
11111111111000010001111010111010
11111111110010001010001111111110
11111111111011111010011010011101
11111111111111100110101110010011
00000000001001110000001111011100
00000000001110101010010011011110
11111111110111011010101011101001
11111111111111000001110000100111
11111111111110001111111110100010
00000000000001111000011001101110
00000000000100111001011000101101
