11111111111011110001110000101100
11111111111010100000100110001111
11111111111110000110110000011111
00000000000000110011000011011111
11111111111111110000100100101001
11111111111101001110011101101011
00000000000000011011110100110101
00000000000001011101000101110010
00000000000001011000010010101100
11111111111011001000001110110001
11111111111010100100011111001010
00000000000001000111111111011100
11111111111011101001111110010001
11111111111011000010000111100111
11111111111011011100010010000000
11111111111110010000110101111000
00000000000001111000000110100000
11111111111101100100110010011001
11111111111100010000110110001100
11111111111111100000110011111111
00000000000000100111001111111111
11111111111111010011101111100100
00000000000010001100000101000011
11111111111010101010000010100011
00000000000001110001110100110110
11111111111100011111000000100100
00000000000001110001000010110101
00000000000001110000100111000010
00000000000000100011100010110011
00000000000000100100111101000000
11111111111111100010111011010111
11111111111101101111101000100111
11111111111010100101101110111010
00000000000000110000010010010010
00000000000000000110111110111011
11111111111111001010111101110010
11111111111111010100101100101010
11111111111110110101111011001011
00000000000010011100101101110000
11111111111111110000000001111011
00000000000000110010011001011100
11111111111101110000010101111000
11111111111100100111011110111100
11111111111111000101001000011011
11111111111111101100111101111100
00000000000000110011010011111000
11111111111100011010111001010111
11111111111100111101101111100110
00000000000010001101011111011011
00000000000010111010110010101011
11111111111110101010010011100111
11111111111110100111111011101001
11111111111100000111111111001001
11111111111101110100111100111111
11111111111111001000010010101111
11111111111011100110100000001001
11111111111110110110001100010010
11111111111010111011111001010110
11111111111100011101011111111100
11111111111111110011101011001010
00000000000000110010010000110101
11111111111100001000101011101101
00000000000000010100000010110011
00000000000000110110001000111010
00000000000010000100010101110010
11111111111101101110010001110011
00000000000000110110111111110101
11111111111011000110100101100011
11111111111010111000111011110000
11111111111111011100000101011100
00000000000000001011001100001110
00000000000010000110000001010001
11111111111111010001101100010101
11111111111110011010100100010111
11111111111011001001010011000000
11111111111111100001101110101110
11111111111110001011011111110110
11111111111111000000100110001010
11111111111101001000000001001110
11111111111101010101011100000011
00000000000001111001101010100001
11111111111101110101110110100110
00000000000000001111100010100100
11111111111111001011100101110110
11111111111101011101010010000111
11111111111011110101000010001011
11111111111101101010000010111110
11111111111010001100001001011100
11111111111011010101000000010001
11111111111010101000000001011100
00000000000010010101000001100110
11111111111011100001111001001111
11111111111110010000101101111001
00000000000010011101010011110100
11111111111010111011101001001110
11111111111101010001011101110000
11111111111110000101101000011110
11111111111111001010010111101111
11111111111100100100010000101111
11111111111101000001011010101101
00000000000000000100111001001111
00000000000000011101000101110000
11111111111011011111010000111011
11111111111110000011010101100001
11111111111111101111111110001100
11111111111010101100011000101111
00000000000010000100011111101011
11111111111011110101011111000101
11111111111111001011011001001101
00000000000000011110011100101100
11111111111101011101100101000001
11111111111010110011011100111111
00000000000000111001111011010010
00000000000000010001011101100111
00000000000000101001100101101110
00000000000001110000011111011011
11111111111111001001010000100011
11111111111111000001000101101011
11111111111101010100001110110100
11111111111110010001111001010100
11111111111011101010010110110011
11111111111101001000001100100000
11111111111111101100110001001100
11111111111100110100011100011011
11111111111110110011010110000111
11111111111100011100000000001110
11111111111100101011101000100101
00000000000011000110001001010110
00000000000010100010100101100101
00000000000000010011011100110101
11111111111101111111010101010011
00000000000011010001111001010010
00000000000011111011001100001100
11111111111111000111010110111100
00000000000010111100000000101001
11111111111101001010000111100111
11111111111101110101011100010001
00000000000000101110000110010010
11111111111101100110011100011001
00000000000010101010010001101010
11111111111100111101001000001110
00000000000000010010110010111011
11111111111111011110010011101010
00000000000001011110011100111010
00000000000001001101100000101101
00000000000011011001000100001111
11111111111110001011000101111101
11111111111101000010111111000110
00000000000010111010011011000111
00000000000001000000111001100111
00000000000000010101100101000001
11111111111111111010010100110100
11111111111111011110000000000101
00000000000010001000111011101001
11111111111011001011010000110001
11111111111111001011010111101000
11111111111111010000101110101100
11111111111110010110010000111000
11111111111010000010101011111010
00000000000001110110010101011000
11111111111110100010011111110011
11111111111111101111110110011110
11111111111101100101110110000101
11111111111101000111110011001001
11111111111100011111011000110001
00000000000000100011011001010110
00000000000010011010101110010001
11111111111111100001001101111111
00000000000011010100000010110111
11111111111111110110000000100110
11111111111011010111100011011001
11111111111100100010111011100000
11111111111011011101010100101101
11111111111101111101010101101011
00000000000000110010010110101000
11111111111100010101011011111110
00000000000001010001100000010010
11111111111011011100111100011100
11111111111111010101011011000000
11111111111100100111001110000011
11111111111100010100101101110010
00000000000001001100011101110010
11111111111111010000000100011010
11111111111111110111111101000011
11111111111011011001110000101101
11111111111100011011001011110011
11111111111100001100010010101100
00000000000001101101010101011101
00000000000011000101011010001001
11111111111110011001001111011110
11111111111111110010000111000101
00000000000000100010000001000100
11111111111101001000010101101100
00000000000000110001010001000110
00000000000000011011100010001011
11111111111011010111000110111011
00000000000010111100110011010000
11111111111101110000110001011001
11111111111100001101001111010111
00000000000001100010001110110101
11111111111110100110100000010000
11111111111100101001110100101011
11111111111110011111000000110000
00000000000000101011110110110001
11111111111101000000010010000000
11111111111110111010100000110111
11111111111101100010101101100100
00000000000000000101100010110110
11111111111101000100001010111100
00000000000001101111010010010101
11111111111110111011011100101111
11111111111011101011011001110000
11111111111011101111111101001111
11111111111011010010110010111111
00000000000001111001010011001011
00000000000010000110000010111011
11111111111110100101100111111001
11111111111101110001001100110000
11111111111010011101011010110000
11111111111100101000000111111010
00000000000010001101001000010001
00000000000001000101000111000111
11111111111110110101000010111110
00000000000011001001000100101010
00000000000000110000000100010011
11111111111011111111001101011110
00000000000001011110010000011101
11111111111111110101001011011000
11111111111011010010010010010111
00000000000010101011000101110001
00000000000001101000001011100000
11111111111111000000111111110111
00000000000010100000100001101001
00000000000001010101011000111001
11111111111011010000010001101011
00000000000000100010011101100001
11111111111110011010101010000000
00000000000000111110010110111101
11111111111100001110000110000000
00000000000000001011000010001110
11111111111111110100101110111110
11111111111110101110001010000000
11111111111101011110001110000000
00000000000000001000111010100110
11111111111101111110111100010110
00000000000000011111010010010010
00000000000000111110011101010111
00000000000011010010010111010001
00000000000011010000001110110100
11111111111101000110001110000110
