11111111101001111000111111100100
11111111010111110101001111111110
11111111100010010110000110001001
00000000001000000010000011111111
11111111111010110110100110010101
11111111110001011100101001110000
11111111110111101111000110110111
11111111101111101010010111111111
11111111111100101100101011110111
11111111110001110011010011100100
00000000000100100011100101001101
11111111110111000000111111010110
11111111111101011100100111101101
00000000000010001101011101011000
00000000000110001100000000010010
00000000010100101101101111111001
00000000000111010010110001110111
00000000000001011010100111001110
00000000000100100000111111111110
00000000001011010000011110100100
00000000000011010010001011000111
00000000000001101001110000101011
00000000000100011010100101010000
00000000010000110111101101111000
00000000001110010111110000100100
00000000010010011111001001110110
00000000000100110110001010010011
00000000000011100100101100011011
00000000000100010001011001010110
00000000000010101110101110101001
11111111110101110100111110010110
11111111101100111110011001001000
11111111110000111001110111101010
11111111110011111010100100001100
11111111111011000101001001100010
00000000000011001000110111100000
11111111111011101100111101100000
11111111110110001100001000100100
00000000001100000101110110011110
00000000001000001001100000110101
11111111110110111111111100001010
11111111111001110011010000010011
00000000000101111101101001100010
00000000000100011100000001111011
00000000000110000100011000110001
11111111111000000011111000001101
11111111111100001000101110001101
00000000000000000001110111010111
00000000000011101001100110101000
00000000001001110001100000101010
00000000000100111010100111110010
11111111111111011000110110110111
11111111110101001001101011010010
00000000000010001001110100011101
11111111110000110011010101001011
00000000011010001111100001001011
00000000001001100100111110010001
00000000000100010101100100110011
11111111111101000100111100010111
11111111110000000100100011011000
00000000100000111111011111100100
00000000001100111011100011100110
00000000001000100100000110011011
11111111111100000010001001011100
11111111111011111000010100001110
00000000000101110100101000110000
11111111111110101100110001110110
00000000000011011010001000110100
00000000000101101101011001110100
11111111111111001010100000111100
11111111101100110011100011101111
11111111111100000110110111000100
00000000001000100010000001011111
00000000000100101011000011000110
00000000000101001100101101000001
11111111110101101110000000101110
11111111111110011010100000101101
00000000000000111011111110101001
11111111111011111100111011010011
11111111111110111101111010001101
11111111111101001000011000100000
11111111110011111100001011100101
00000000000111100100010100111101
00000000010001000100000010110111
00000000001101010110010101101110
00000000001010001111101010111101
00000000000010111101110011100010
00000000001001101000100111111100
00000000000011111000111100110101
11111111110111010010100000000110
00000000001010111100000110011100
00000000000000101111000111000101
11111111111101010100100100100001
11111111110110110101010100010101
11111111110111111101100010000111
00000000001001100000110111010000
00000000000011010100110110101111
00000000000010000100101111010001
11111111111001110110111011001110
00000000000001101101000000101100
11111111111000100110001001000111
11111111111001010000110101111101
11111111111001111001110010000010
11111111111101010010100100000110
11111111111001011011111011101010
11111111110010111000010101101110
11111111110011010110010111100001
00000000000011110110101100111110
00000000000001101110110101001010
00000000000010101000011110110010
00000000000001110101110110111000
11111111110111110100111000011111
11111111110110110111010100010011
11111111111010000110001100100010
00000000001001111101010100000101
00000000000000111011110101101110
00000000000010110111100011010011
11111111111001011100000011010101
11111111111111110001001101000000
00000000000000111010100000100010
00000000000010011110111001111101
00000000000000010101100001001011
11111111110011111011001111001011
11111111111101011101100010110010
00000000000111000011101100100110
11111111111111110111110010011010
00000000000011010010011111100010
00000000000100010000101111000000
00000000000011010110100000101000
00000000000010101001111100100000
11111111111110110011111100001001
11111111111110001100111111111001
00000000000001101111010100001010
11111111111111100011110011000010
00000000000010000010000101111001
11111111111011011100010111111111
11111111111110010111010011111011
11111111111111010010100101100000
11111111111110000111001100110010
00000000000000110010010010010111
11111111111111100100001000010000
11111111111110011010010111101000
11111111111011101101111101101100
00000000000000000111101001101001
11111111111111010111101011010111
00000000000000010000001010110010
00000000000011001010110111100100
00000000000001110010110111111001
11111111111110100100010001000100
11111111111101010111101100111111
11111111111111010101110001110011
11111111111000000011100110101011
11111111111110100100110111000010
11111111111101010010000111011101
00000000000111000001010001101011
11111111110010011101111001011110
11111111111111100000011111001001
00000000000011001001100101111001
00000000000011010010010011000101
00000000000000011000110001101110
11111111111010010101101011011100
11111111111001001110111101001001
11111111111111011010001101110110
00000000001010010011110001101010
00000000000101100011111110101000
00000000000010101100000110101010
00000000001100010111111110111001
00000000000100001100100101101101
00000000000100100000110111100100
11111111110001010000011001000100
00000000001001100101011100101001
00000000001110111111000000101100
00000000000100101000010011010000
11111111111010111100111000011110
11111111111011000111000111010000
00000000010110101100101010100000
00000000010000000101010110000001
00000000010000101111101101010101
00000000010001100010011001001011
11111111110101111111110110000000
00000000001101110011110111010101
00000000000010010111110100010001
11111111110111100110101011111010
00000000000101101000111110001000
00000000000111010000010110100001
11111111011001101100101000110111
11111111100011101001010111101110
11111111111000110011001000000000
11111111111111110100000001100100
11111111111100010101101000010101
11111111100000101000110110000010
11111111110010001010011010000111
00000000000001010100000111011011
11111111110111110101010011000110
11111111101111010110011100000111
00000000000100100101000100111100
00000000001001100001011111000000
11111111111101001100101010110010
11111111101111011111011101010010
00000000000000011101011001000111
11111111111100101000110100000100
00000000000100111000100010010010
11111111110010010001111001101011
11111111111101010110001010101110
11111111101100001101000010010000
00000000000101010110000111100001
00000000000000110011111111101000
00000000000010010100011010011011
11111111110110111010101100111101
11111111110110100111000111110100
00000000001110110101010100011101
00000000000100000000100000000000
00000000000101010011111000101101
11111111111100011101000001011011
00000000000100011011110000101110
00000000001100001010111100011100
11111111111011110001110010111010
00000000000000101110100000101110
11111111111110110000000101011100
00000000001110111100011100101000
11111111111101011001111011100011
00000000010001101010111111011110
00000000000101100000100111000001
00000000001010111101011011010101
00000000000001011111101100011100
11111111100111110011000111010110
00000000001010001101110100110110
00000000001011011011110100011001
00000000001101001101001110111110
00000000010010010100110010100001
11111111100011101110001100111111
00000000001001010011100101110111
11111111111101001101011011000000
00000000000100001101100101011101
00000000000100000010010110101010
11111111111110011011101101111111
11111111101110011010000001101101
11111111110100001111101101110011
11111111111010111000110101101011
00000000000001010001000111100001
00000000001010010110111110100110
11111111111001001110000010100010
00000000000000100111100111001001
00000000001000000100001100111110
11111111110011111001011111011110
00000000000001011001100010110000
11111111111100001110011110101010
11111111111011110110001101111110
00000000000000100101010011001101
11111111111001010011110110101010
