11111111111011111011110001011011
11111111111000010101001000010000
11111111111001110100110011101010
11111111111101100001011000110111
11111111110001101110000011110110
00000000001110011000110111100010
00000000000110100101000101110111
11111111110010101000110010110011
00000000000011100001101011111000
11111111111110010110101101110010
00000000000111110011000000011100
00000000000000110010000011110110
11111111110111101111011101111001
11111111111100111011111001100110
00000000001001010101001001110101
11111111111101110011010101000011
11111111110101001100000100010010
00000000000110110101110110010001
00000000000000110000110000000001
00000000000101001100101111011100
11111111110011110001000001001100
11111111110101100110111101100110
11111111111001110111011001110011
00000000000110111011111100001010
00000000000001010101011101101010
00000000010000111101001101100011
00000000001000110111100111001111
00000000000001101111001110110011
11111111111001001100010111110101
11111111110101100010100100011011
00000000000101100101110010011000
00000000000111110101100000011100
00000000000001011011000110011010
00000000000000111010000011000001
11111111111110011011100100001011
11111111111100111110000101011101
00000000000011001011010010011001
00000000001010101011111001001010
00000000000101010000000111101000
11111111110111000111100100100010
11111111101000000000011000111101
11111111111100101100010100111010
11111111111000000110101111010111
11111111111000001100011010001110
11111111111000110101000111001111
11111111111111000110010001110010
11111111110110111011011110011000
11111111110111011001111001101110
11111111110010010100011111001011
00000000000011000110100110110000
00000000000110101100100000000111
11111111111101101101111001100111
11111111111111110010000011100101
11111111111110011001111010110100
11111111111101111000111101100011
11111111111001010010100011000001
00000000001100100111001010010101
00000000001000001000110110100110
11111111111011100101001110101001
11111111111000001000001100011101
11111111111010001010010100001110
11111111111001110001000001100000
11111111111100101011010100100111
11111111111111111111100110100100
11111111111000011100000100110000
11111111110111011001110010000101
11111111110010110011101101101110
00000000000000100111101110111000
00000000000001100110111001011001
11111111111000010001001000101100
11111111110011010100101010010110
11111111110001101101010100111101
11111111111010111101110001000111
00000000000001001111011010101000
11111111111111001101011010101011
11111111111110011101111010110110
00000000000001011111001111111001
00000000000001001111110010001100
00000000000011100111101110010101
11111111111010100101110011000001
11111111111110010010010001111000
00000000000010110111011110001110
00000000000010010001001110000011
00000000000001100000110110100100
11111111111110011101111010111100
11111111111111000111110011010100
00000000000101011010110111101011
11111111111010001010101110010011
00000000000000101011000110010110
11111111101100001000010111111110
00000000000000111101001011000001
00000000000010010100100000101111
00000000000100010001100001011110
00000000000010110110100000111101
00000000000110111001101100110000
11111111111111101000011101111111
00000000000010101000110000110111
00000000000101100111101110000100
11111111111110101110110110101010
11111111111011011000101100110111
00000000000010110111001000001010
00000000000100001100011000001010
00000000000101001111111100000000
00000000001001000000000010011001
00000000000011000101110110011011
11111111110000101010100110010101
11111111111100010101010001101111
00000000000111010111000100101101
11111111111101001000101001110100
00000000000001011010001101010111
11111111110011111111010010001001
11111111111101100010101010100111
00000000000001101000110011100111
00000000000010101011111000000111
11111111111000101110010010100101
11111111110100110000011011100111
11111111111111000100000100001111
11111111111001000101100010011111
00000000000101101010101001000000
00000000000110010101110111110110
11111111111110011011110110001000
00000000000101101110011110111010
11111111111101001001011011110100
00000000000010101111011110100101
00000000001100111100010110110111
00000000000000100101011110111110
11111111111101111011111010001111
11111111111001011001011001000000
11111111111000100000110010100001
11111111111001010101000101100011
00000000000011000111111100001110
11111111111111011001100010001111
11111111111011110010101000111100
11111111111110011100110010001001
00000000000000000111000010100011
00000000000001000001110100111110
00000000000001111000011100110100
00000000000001010010101101000011
11111111111101010101111110111110
00000000000001110101010100111111
00000000000000000111001100000010
00000000000010010000111001011111
11111111111100110101001111110000
11111111111110011011010011101110
00000000000001010100011001100000
11111111111011111001110010111100
00000000000000111110010010111001
00000000000011011100100101100111
11111111111110100101000100101110
11111111111110110101110011000111
00000000001001010010101011111110
00000000001100010101111010011010
00000000001000000000111001010101
00000000001001010001010100101100
11111111111010110010011110000111
00000000000001000011001001010000
11111111111101000001011000100110
11111111110101100011000001101111
00000000000000000001010010111111
00000000000100001110001010110100
00000000000100111010110111100001
00000000001000111110010111100011
00000000001100110011000010001110
11111111111110010101101111000000
11111111110011010011010110010100
00000000000000111001100010000111
00000000000001000001001111100110
00000000000000111011001111110110
00000000000001111011110010110010
11111111101111100110001110000000
11111111111100011111010111110001
11111111110101110010011111101110
11111111110100011101110010111011
11111111111001111001101101110100
00000000000010100011010010001001
00000000000111110110111011111011
11111111111001100001101000011111
00000000000010011101111111000110
00000000000001110010011110011101
11111111110011011010011001110101
11111111110000010010000001111011
11111111110110010100011110111110
00000000000010011110001011111110
11111111110111010000001001001100
11111111101011010000001001110001
11111111100110110000010100011001
00000000001010100010010001111010
00000000000010111101001010001111
11111111110100111111001000110110
00000000001110011001001001001010
00000000010111101001110100001010
00000000001101001000101000001101
00000000001011100100001000010010
00000000001011101101111000011110
00000000001010111110011001111101
00000000001110111001110110001000
00000000010101010111010010000001
00000000001010110101111111111010
00000000000101111111001000100001
11111111111111111010111011111000
00000000000111111001000100011001
00000000000011011011000011110100
11111111110101110110110101101010
11111111110111011000000001111010
11111111101111001111000010110100
00000000001000000101111110101101
00000000000011001010010011001110
11111111111111111000100001100101
11111111110110101100000100010100
11111111111110001001100111101000
11111111110101101000001110100110
11111111111101001010100011000010
00000000000010110110100111000100
00000000000001010000001010010010
11111111111011000110000110000111
11111111101000110000100101000000
11111111101010110010000011110101
11111111111010101111001100000110
00000000000111101110110010010000
00000000000111100111001101001011
11111111110000101111110000111101
11111111110000010010101001000100
00000000000100001001001001010111
11111111110001101011011000010010
00000000001001000000101111101110
11111111111100110010101000011111
11111111111110001001101011010111
00000000001000001000101100111111
00000000000010010010101101010001
00000000000100101110011110011011
00000000000000011010000110111110
11111111111001111111001001011101
11111111110111010101001111100011
11111111111001110000100111000001
11111111111110011101000001110110
00000000001010111000111001110100
00000000001011001100011110101011
00000000001010110111001110000010
00000000000000011001100011011111
00000000001100001101110100101101
11111111111101100000011111010110
00000000000110110001011011001000
00000000000010011010111011110111
11111111111101101100101010011100
11111111110101111110101001001110
00000000000000011000111001100001
00000000000100001110000010011100
00000000000000001010101000101100
11111111111110100001110001010111
11111111111010010011000001100111
