11111111110011001010101011100000
11111111111110101111110111001100
00000000000000100101100111011100
00000000000110000001100101111101
00000000000010111101100100011000
11111111111100110000110110100010
11111111110111010101101110001110
00000000001000111010110001101010
00000000000100011101100001000111
00000000001100100010110110101010
00000000001001001100100010110100
00000000000001011001111011110010
00000000001010010110010001000110
00000000001100100110000111110011
00000000000100110110011001000100
11111111111001010001101001100011
00000000001000000001100000100101
00000000000010001100010011111000
11111111111100100011100001010000
11111111101101110100011100010001
00000000000010110011001001100100
00000000001010111110100111000111
11111111110111100101111010111110
11111111101001100010101111100100
11111111101000111000001000001011
11111111110110011110110111011000
00000000000110100001101101100101
00000000000100001001101001011101
00000000000110001010111101001101
00000000001101101001010110000010
11111111110101110000101000111001
11111111110101110011011101111000
00000000000001010000001010110100
00000000000101110110111111011111
00000000000101101110100011011010
11111111110000110111110110011010
00000000000011010101010011011110
00000000000111010111101000111110
00000000000101000101000010100111
00000000001000000000011000101010
11111111111011110001011010011011
00000000000011111111111110100001
11111111111101110101101001000101
00000000001011000010010100010101
00000000000110100110011001011000
00000000000001010010010101001100
00000000000010100010011010101001
00000000000111100000111000011010
00000000000010100010101001010100
11111111111010101111011010111000
00000000000001110101001000110000
11111111101111110001000010101100
11111111110101101111101101111001
00000000001111000111001000111000
00000000000111110100010010110110
11111111111010011000010010000001
11111111110000101101100001001101
00000000000110011010000111100110
00000000000010011110111110011011
00000000000100011100101110000011
11111111111111100001100111010111
00000000000011001111010010001101
00000000001001111110100111010001
00000000000100110000011010011101
00000000001110001110000011011011
00000000000110100110110010000000
00000000000110000101010011000101
00000000000010101101000111010010
11111111110111101011100101100100
00000000001111101100001101101110
00000000001000011101010011011010
00000000000110111010001111000001
00000000000111001111000101001110
11111111111111011000111100111001
00000000000010101010100100001011
00000000000110000111000100100010
00000000000010100111110101101101
00000000000010011001101000111011
00000000000011111110001000000001
00000000000100010010000001110000
11111111110110111101001100010100
11111111111111101110000100111111
00000000000000001100010001000111
11111111110000100100111101110000
11111111101110000011011111010100
11111111111010010011110011111011
11111111110100101101010010011100
11111111111011101111001101000110
11111111110110110110111000111011
11111111101110100000111001101100
00000000000101101011001010110000
11111111110110111001001110110010
11111111110101110100000110100100
11111111101001110011110011001100
11111111011011111001000001010100
00000000000111010100111000101110
11111111111110011010011110101010
11111111110111100111111011100110
11111111101010100000101111111001
11111111101111010010100111001001
11111111111100001101101111110111
11111111111100010011110001110011
00000000000011000011111010010110
00000000001000011001010110101010
00000000000011001011111101111010
11111111111011101101000100100101
11111111111110001000001111111101
11111111111111111001111001100010
00000000000100111110111010101010
00000000001000110111000101011110
11111111110110010100111011000110
11111111110111101001011000000101
00000000000000111110110011100111
00000000001011001100110101100100
00000000010000011111011110100101
00000000000001100100100110010011
11111111111001010001110111011101
11111111110110101100110100001101
11111111111000111010011100100011
11111111111001111011001100110110
00000000001001011011001000010101
00000000000000101010111011101000
11111111110110010110100000000111
11111111110101110001001000001010
11111111110010110011110110110110
11111111111100000011110001111001
00000000000001000011010101010000
11111111111110001011000000011111
11111111111101000000101111001110
11111111111110111110000111100000
00000000000000100101101101011111
11111111111010001100000101011011
00000000000011111110011010000110
00000000000001000010010010010000
11111111111101101111111001110100
11111111111101010100110000100010
11111111111011011010110000101111
11111111111110110001101010100010
00000000000010110101110101000010
00000000000000110100110001100110
00000000000011000100001111011001
11111111111011010010111010000110
11111111111101111111111000101011
11111111111111000001110011001000
00000000000011101111011011010000
00000000000010001011110011101101
11111111111100011111011101000000
00000000000010110001000011101111
11111111111101000000011000101001
11111111111111000110100111010111
11111111110111111101001101001101
11111111111001000111011101001001
11111111110111111100101000100111
00000000000010001111101000001111
00000000001010010101011000101101
11111111111100011110110110011000
11111111110111011000111111111011
11111111111010100000010100001101
11111111110100000000011100010110
11111111101011100111110000111010
11111111111010000100011101010000
11111111111111001001100010111011
00000000000110111101110111101011
11111111110101000010010000000001
11111111101111110101111010010101
11111111111101000110111000010111
11111111111100101101000001011010
00000000000010010000011001111001
11111111111001110100000000111010
11111111101010000000010000001110
00000000000110001011000110100000
00000000000010101011110101010000
11111111111011011100101111100111
11111111111000100101101010000001
11111111110001010111110001100100
11111111110110100000011010101000
11111111111100011010101100000111
00000000000101111110011011110001
00000000011001011010110001110010
00000000000010110110001110111111
00000000000010010010000110100111
00000000001000100110111000100101
00000000000110011101111000101000
00000000000110011101011100010000
11111111111100100000101111111110
00000000000110010001111011010100
11111111111011101111001010100010
11111111111001100100001010101111
00000000001000010110000101000011
00000000000101001000001001011100
11111111111000001001101011101001
00000000000100000000000001011111
00000000000101010110001010010110
11111111111111011011110000101100
00000000000001100110110110110111
11111111111001100101001001101010
11111111110100011110011111110011
00000000001000010110100001001111
00000000001101010010110100100110
11111111101110100000110010001110
11111111111000000001010011111110
11111111111100110101000111110011
00000000000100000010101111000000
00000000000011110111010110001101
00000000000101110110011110111111
00000000000111000100000000111001
00000000000110101110001010010111
00000000000110000101011000110101
00000000000010111101000111110011
00000000001000011010001110010111
11111111111110111111001101011000
00000000000100101100111100111101
11111111111111100110100001001010
00000000000110011101110100110011
00000000001111000010111010110101
00000000000101000100100100011000
00000000001011100110111111100011
00000000000110011011010010110111
00000000000010111001101111110011
11111111110001110010000011111010
00000000001100111101000100101111
11111111111001000100110111011001
11111111101101101111001111111011
11111111100101110000011010100000
11111111100111100100011011100101
11111111100110110100100101111110
11111111101111100101011100111011
11111111111001011001001100000001
11111111111111110010000100011111
00000000000010000101110101111001
11111111110110110001101011010001
11111111111100010011101010100100
11111111111001110101011101000111
00000000000010011101111001100101
00000000000000110111100111110110
11111111101010101111100011000101
11111111110100010110010001001011
00000000000001000110110101000110
11111111110010101101101000111001
11111111101010110100100111001100
11111111111001111000100000111110
11111111110010100010000000110010
00000000000010001110001010110010
00000000001000101100001011010100
00000000000110001000001110010111
00000000000011000011110001100101
00000000000010001011000010000101
00000000000110110110010011111100
00000000000101001110000011010000
00000000000100011011111111110011
