11111111111010010000110010000011
11111111111101111101001010000111
00000000000110111110001100011111
00000000000111010111111011011011
11111111111010001110001001111110
11111111110101000010111110010100
11111111111011000001000101001000
00000000000001000000100000010011
11111111111110100100011000001011
00000000000100101000111100000010
11111111111111110111000011011110
00000000000001111111010101111111
11111111111100001000011010011001
11111111111100011001011000110100
00000000000001010100111001001011
00000000000110101011011001110110
00000000001000110011101101011010
11111111111001010011011010011100
00000000000001101010011100101011
11111111111110011010011111111110
00000000000000101101000011110001
00000000000010111011000110101000
11111111111111100001010010001011
00000000000011111111001000111110
11111111111100010110101001010111
11111111111010001111100011011000
11111111111001011111010101001110
00000000000110011000011100011110
00000000000010001011101010100011
11111111110000101101000100001001
11111111110001101010001100001100
11111111111011010010010011111010
00000000000110010000001010010101
00000000000010000110011001110110
00000000000011001111110001111101
11111111110100000101000010101001
11111111110111111100000001111000
00000000000001010001100111001011
00000000000100000000010110100110
00000000001101100000101000101110
00000000000011101010111100000001
00000000000110111011000101100101
11111111111110011001000110110111
11111111111111110001010010111100
11111111111100111001111010000010
00000000000100000101111111010001
00000000001000000101111010010110
11111111111110111011010011001111
00000000000011100011110000010001
00000000001000111010100001111100
11111111111101101001101011110001
11111111110000100011010111000000
11111111110101001100111111100000
00000000000101000000011010111001
11111111111001001001010100010100
11111111111000011101010011100111
11111111110110101111001101100000
11111111111011011110111000011110
00000000000000101100010111010110
11111111111100010100111111101010
11111111111010110100101111001111
11111111111110001001010101111000
11111111111010011011100000001000
00000000000101000011011010110101
11111111111100010110101010100101
00000000000001110011111100011100
00000000000010100000110000111010
00000000000000010001001111000000
11111111111111111110100101010001
11111111111010110110000110101100
00000000001000000000000111011100
00000000001000100010110111000010
11111111110011101000111010101111
11111111111000011000000010110010
11111111111001000000101000010011
11111111111111111011111000010000
00000000000011101111100011100101
00000000000011001011111110101001
11111111111110100100101010100001
11111111110110111000111101110011
11111111110111010000110110110110
11111111111111011001011001101111
00000000001010001110010100001111
00000000000010010011110000001010
11111111111100100001010000111100
11111111111101010110001100100010
11111111111001101110110101101000
11111111111111110100100000100000
11111111111111000111000110001000
00000000000001111010000010011010
11111111111011010100000010101110
11111111111100111111111100101000
11111111111001000101110101100010
00000000000000110001100000010101
11111111111000101011000111101011
00000000000101101011111100100100
00000000000111011011011010000101
00000000000111110110001011111100
00000000001011111101000110011010
00000000001010110011111010110100
11111111110111101001011100111011
00000000000101110111111000111111
00000000001011011001101110100000
00000000000111001100011101010110
00000000001000110011111001000000
11111111110100001011110101010000
11111111111101011000101110110111
00000000001000101000110110000001
00000000001001011110110010011001
00000000001000000101101100011111
11111111110010010100001101010011
11111111111001111000011110110111
00000000000001011011110010010101
00000000000110000101101010110110
00000000000110011110011000110111
00000000000011010001110000110010
00000000000001111100000101010111
00000000000111110010001000010111
11111111111111110101010111100100
00000000000000000101101101101110
00000000000110011010011101110011
00000000000011010101100111111011
00000000010000101010101111110000
00000000001100001011011010010110
00000000000000110100001001101100
00000000000001101100000011010111
00000000000000000000111111101011
00000000000101010101000100100100
00000000000110010100111111011111
11111111111111101001001011110010
11111111111111001111001111110110
00000000000001111100100110000100
00000000000000010111101101111101
00000000000100001110111000010101
11111111111100100100011011000001
00000000000001000110101100001000
00000000000100111010111111001100
11111111111101001101011110101100
11111111111011110010010110100100
11111111111101101110000011011001
11111111111111100111111011100110
11111111111100100100101010011110
00000000000010000001011101101001
00000000000011100000110011001101
11111111111111110011000001010011
00000000000010101101001000101100
00000000000000100111100001101010
11111111111100110010011111101100
00000000000011100111000001101100
11111111111011111110001010000000
11111111111101010111011101010001
00000000000000011110000101000101
00000000000100000100010110001101
11111111111101010100011111010010
11111111110110011100100001001111
00000000000011000010001111100011
11111111111101001000000110011010
11111111110110101010110000011000
11111111111100011000110111110001
11111111110101011010101011100011
11111111110101101110101011100000
11111111111100100010000111111000
11111111111111111001000001011110
11111111110101100010100110010110
11111111111110001011111101000110
11111111110100000111111001011100
11111111111010101101011011100000
00000000000000010101101111110101
11111111111010101001110110110000
00000000000010000101001101001011
11111111111111011001011100101100
00000000000000101101111100000101
00000000000100001100010000000000
00000000000100010110101101001111
00000000000101010010001010110111
00000000001000100010101100111011
00000000001011100111111100111010
00000000001011100111110011110111
11111111111100110111101110010101
11111111110010010011101110010000
00000000001001110001011001101000
00000000001000001011011110100001
00000000000100000100000110101100
00000000000010010001011011011101
00000000001000110011011101100011
11111111111101001111111110100011
00000000000010100100010000110001
00000000001011000101000101011110
00000000000000110101010011000001
00000000000111010111100110001010
11111111110111100001010011010101
00000000000000111110111111111010
00000000000000101001000101110101
00000000000000110001010010000100
11111111111111010001000100100100
11111111111010011000101001000100
11111111111011011101100001101010
00000000000110101011000011000100
11111111111110011000110100010001
00000000001001101110001001001101
11111111111011000101110110000111
00000000000011000110101011100110
00000000000000101010000101110100
00000000000110001011100010100011
00000000010110111000011011111001
11111111111001111111100001111110
11111111111011110011100111101101
11111111111110001001101000101111
00000000000000011110111100100111
00000000010001100110110010010101
00000000000001111100001001011101
00000000000000001001101100110101
11111111110111110000000111100111
11111111111001011001011000110000
11111111111101000010100000111111
00000000000000111111011000101011
00000000000100011110001101001110
11111111111011000000100110010000
11111111111001111000100100000010
11111111110100101110010000001001
00000000001000010001001000000101
00000000000000011101101110010101
11111111110111100000111111010011
11111111101011001110101100100110
11111111101100000100011110011001
11111111111111101110001000101010
11111111111110101000101111111011
11111111111000111111100010010101
11111111111111111010110111000011
11111111110010100000011001101111
00000000000010101111100010010000
11111111111100101101011011001100
11111111110101000010111001101000
11111111111010101010111000111011
11111111101111100111001100111001
11111111111100000000100011101011
11111111111101100000100010001101
11111111111110010100010101110111
00000000000011011100111011110010
00000000000100000100011111100101
11111111111001001001000000001011
00000000001111001001010110110100
00000000000011011000111001000001
00000000000011011000001100100101
00000000001001001010010110010000
11111111111100111000101000010101
00000000000101100101111011001101
00000000010000001100001010100110
00000000000101100001001011111110
00000000001001101100001001111010
