00000000000000110110101001101101
00000000000010000110010011110000
11111111111001100100110000111110
11111111111101110110001011000100
11111111111010011100110010000110
00000000000100001011011000011001
11111111111110111011100000010000
11111111111101101100000011110101
00000000001000000000010001110100
11111111111001010101011110101100
00000000000100001101101010001100
11111111110101101001100100100001
11111111111100101111101101101001
00000000001101001010111001000110
00000000000110000010010011110110
11111111111011000110000100110001
11111111111101010101001010011010
11111111111100011101111111111000
11111111111111101101100010110011
00000000000101111101000010101111
11111111110010010010111011001000
00000000001001001100011000010001
00000000001001100100110110111001
00000000000000111101101110101010
00000000001101001101010111010000
00000000000000001000101000001110
11111111110111111010101110101001
11111111111011110100100101110111
11111111111100100110000000001010
00000000000101000011101000011100
00000000000000010000111010101101
00000000000001001110110100000111
00000000001011000010101111101100
11111111111110001001111011110001
11111111111100110110101010001110
00000000000101100010110111111100
00000000000110011000101100111110
00000000001110111101110011111101
11111111111111001111111110011001
00000000000110001010001001010000
11111111111110011111010001010110
11111111111101100011100111111011
00000000000001101011000110000010
00000000000010111001001001111010
00000000001011110000111100111100
11111111110011110110101010010100
11111111111101100100101100101000
11111111110111000110111101101101
11111111101011011110010100010000
11111111101000110000110110111011
00000000000101011111001000000001
11111111110110001001101010001100
11111111111000000010010011010111
11111111111111100110001111101001
11111111111000100101101110110010
11111111111011000010101111011001
11111111111000101111001111010111
11111111110110110110011000001010
00000000001000110110100000101100
11111111111000100111000001010111
11111111111111001011010001110110
00000000000111010100110011010110
00000000000010100110110010111111
00000000000011001011001000110100
11111111110011110000101111010100
00000000000001010111000111100101
00000000000000111101011100111101
00000000000000110010111011100110
11111111111101100101111111011100
11111111110110011111111101010000
11111111101101100000010011000100
11111111111111011101011001011101
00000000001100000101001101100000
00000000000100000010100101100111
11111111110100101010010001111010
00000000000000011110010101000110
11111111111101100000110001101010
00000000001001010101111101001010
00000000001000101100100011000010
00000000001011111010110001111000
00000000000110111010001010000001
00000000000100000111011000101101
00000000000110010100101100000000
00000000000010110111100010101101
00000000010010111011110000111011
00000000000111110010110111011111
11111111111110101110101001110001
00000000000110110011110101001011
11111111111101111001111111111011
11111111111111001000101010011011
11111111111001111100101010001010
11111111110101101100101100010000
11111111111110101011011011111111
11111111111011010110100111111101
00000000000110001000111000010110
11111111101001001111011100101010
11111111100101001110101001000100
11111111110001001110111100110001
11111111110101110001110011010100
11111111110110010101001101011000
00000000000110000000000000010011
00000000000111101110000111010011
00000000000110101101111001010100
00000000000000001000010101001011
00000000000010111100100011101010
11111111111111111111110101101101
00000000000101011001101010001101
00000000000000110100111100100100
00000000000011101101101010001000
00000000001110001100111001010101
00000000000010010110010101011111
11111111111111010000001100111000
11111111111101101011011100001011
11111111111010000101101110100001
11111111111111110001011101110100
11111111111011011101000111000011
11111111111000000000000001010100
11111111110111011111100101111110
11111111101010101010000011110100
11111111110110010001101111010001
11111111110100000100010001000011
11111111111000101101111100111001
11111111101100000110001001010110
11111111101110011010001111111000
11111111110011110011010011011101
11111111111110011000101110111100
11111111111111100111010011001001
11111111111110111100011000100010
11111111110101110110011010101101
00000000000010100001011001000100
00000000000010110001100011011011
11111111111101000000111100101110
00000000000001100001000100111001
00000000000010001000010110010100
00000000000010110111111110010001
11111111111101100010011001000011
11111111111011101101101010110000
00000000000000000110100011101001
00000000000000000011100111010111
11111111111111011001011000101000
00000000000001101010011101101010
11111111111101100011011001110011
11111111111110011101010110010111
00000000000010011101000011101010
00000000000010101111001101101001
11111111111100001100000000110010
11111111111101000100010010110011
00000000000000111011100110100001
11111111111111000111001000100100
00000000000011111100101111101100
11111111111001100000110000000111
11111111111100101100000001011001
11111111111101011101001011101011
00000000000100000000110010101111
11111111111000100111010110101010
11111111111101110101010101001011
00000000000011000001010110110010
00000000000111000110001011111011
00000000001101010001111111101111
00000000001100001010010111001011
00000000000010111111001001010111
00000000001010011010100111101000
00000000001011111111100101000101
11111111111110101110000011011101
11111111111101110100011110111011
00000000000011101011011010010111
11111111111111111001100100101101
00000000000000010100101010100001
11111111111110011010111101111110
00000000000011100000101100011111
11111111101010111100111111000001
11111111100110110010011001100100
11111111110100110100000111000111
11111111110101011011010110100011
11111111101110011010110101001110
11111111100001101110010011001101
11111111110111100001101110111100
00000000001001011101010010110010
00000000001100101011101011100011
00000000001111000010011110010110
11111111111110100010110110000101
00000000001000000011011100001011
00000000010001001000011000101101
00000000001101011100110101111101
00000000001000100000110110111000
00000000000111001100100001101010
00000000001110111000111101001001
00000000001000111100101111000111
00000000000101001000111000011000
00000000001000100011000001100100
00000000001101101001101110110100
00000000001101111010111110100101
00000000000010001100110100111100
00000000000100110111100101001001
00000000001110010011100010010011
00000000011011100010000110011010
00000000010101001100000111110010
11111111111111111100000010001100
11111111111110110010100000011110
11111111101101100000010100110010
00000000000101101111111111100101
11111111110100100001011100010001
11111111110100001001000011111011
00000000000001101100000111000101
11111111100100111110011100101000
00000000000000100000111110100000
11111111111110000011001111000111
00000000000100111110111010001111
00000000000111010101101010000110
11111111101101100000100001110110
00000000000110010011001111100111
11111111111101110001101000011101
11111111111101111001101000110010
00000000001010101001011010110101
00000000000110111010011011101001
11111111111001100110001111111100
00000000000000010010010000000011
00000000000000100111010110110001
11111111110101000010011111000010
00000000000011101000101110010001
11111111111000110001000011100010
00000000001010100110101000010111
00000000001010100110011001100001
00000000001000101111010100110000
00000000001011000110001111010000
00000000010001110111011011111000
00000000000101110011011101101000
11111111111010111100000010100011
11111111111101100111100101011100
00000000001001001101111100100000
11111111111100101010000111101000
00000000000010001011111101010001
00000000000110100100110011111100
00000000001101100010001001011000
00000000001110000111101000000111
11111111111101100110100111001100
11111111111101011010000101101100
00000000000101000011110100001011
00000000010001000111110101110010
00000000000000011010101110010100
00000000001011111011010011000101
00000000000010010101110000000001
00000000000001110101010101001011
00000000001111011000100110011001
00000000000110101100111001011111
11111111110100001011110011011010
11111111110111001000100010110011
11111111111001010100110111110101
00000000000011110000000100011000
00000000000011111111100011101000
