00000000000100111000100101011001
00000000000000010101111000001010
00000000000001110101000001100111
11111111110111010011010000111001
00000000001011010100000000110010
00000000001001000101110100001010
00000000000111001001000000000000
11111111111100101010001000111000
11111111111111101111110100010100
11111111111100000001001100101100
00000000000101000100111001111101
00000000000110101001100000100001
00000000000010000000101100111111
11111111111111101100110001101100
11111111111010010100110111111011
00000000000010111110111101110001
11111111111110110111000001100011
11111111111110011010000010110101
11111111111010101110011000110111
00000000000110111010110010001000
00000000000000001110110011101110
11111111111110001011101100010001
11111111111001111101000000011110
11111111111000101101100011101110
11111111111101110100010010001011
00000000000101010001000110011010
00000000000000001101010111010000
00000000000101010111110010100101
00000000001000101100110011011111
00000000000101000010100010101110
11111111111100001000101001010000
11111111111011111111110101111111
11111111111011011100001111110110
00000000000110001010011101101001
00000000000000010110001100111010
11111111111010010110100001000001
00000000000111101000110011101100
00000000000010011001101011010010
00000000000110011001000111011101
00000000000000000011010010010100
11111111111001100011100001100011
00000000000001001001001000000000
11111111111100101010001100001110
11111111111100010101001000011111
11111111111001011100010010111010
00000000000011101010111000100010
00000000000010000101110100110001
11111111111110101000111010110011
00000000000101001100001110010001
11111111111101010000100010000111
00000000000011101100100111110010
00000000000010110111001100001111
11111111111100000000111100111111
00000000000100001100000001111001
00000000001000111111011101001100
11111111111011100111001010100001
00000000000100010100001110011100
11111111111110111100010110010100
11111111111010000001100111010100
00000000000100011100100001110110
11111111111111100000000000111000
11111111111111011101111110000010
11111111111100110000101001100110
11111111111001101100101001001111
11111111111101011000011111110011
11111111101100000001101100000111
11111111110101011011111101000000
00000000000010100010101000000111
11111111111110000101110111110000
11111111111011101001000001010010
00000000000010000111111001011011
11111111111110010101001101001000
00000000000001100001011111010010
11111111111111011100001111101111
00000000000001000011100101110010
00000000000001000111111111010111
11111111111101101010100001100001
11111111111011001100111011001101
00000000000101010010110111000010
00000000000010111111100111101010
00000000000001010101101110010010
00000000000110001010011010011110
00000000000011010110010000100100
00000000000010001011101110001111
00000000000000011010010111101111
00000000000101010001110000011001
00000000001100010010111001100101
00000000001000111011010010011111
00000000001001100010100001010010
00000000000010001001100100011111
11111111111010000011111000011101
00000000000001110111000010010111
00000000000100100110100010111011
00000000000100101100101111100001
11111111111100001011000011000110
00000000000100010001011000101000
00000000000101011011011111010100
11111111111110100110110101101110
11111111110101100011001001010010
11111111100111101000110001101110
11111111111000111111111111011011
11111111110101011111110010010010
11111111111111111000000111000101
00000000000011000001100101000111
00000000000100000111001111100111
11111111110100101010100100011000
11111111111101101111101010010011
11111111110101100001010001110011
11111111111000110111011111001100
11111111111101111101100110011001
00000000000000001000111001110000
00000000000010100010000000000000
00000000000011110101100000110100
00000000000101010110000101001110
00000000000001000110110000110001
00000000000001101100110100000010
00000000000110000000010000001011
00000000000011111011010111001110
00000000001110110101101101111010
00000000000110101100000100100101
00000000000010000101011100101111
00000000000001010100110001110111
00000000000100000110010100001011
00000000000010011111011110110110
11111111111001110000010111000010
00000000000010100010000010101110
11111111111110110010010111011100
11111111111110001100011100000000
11111111111100111000111001000001
11111111111111110111001000000011
11111111111101111000101001000111
11111111111101001100001000001000
11111111111110001011000110110111
00000000000011101001111000100111
00000000000010101010100011111011
11111111111100000000010111111101
11111111111110001001001111100100
11111111111100010111101110110011
11111111111001010111001101000001
00000000000011010100101001010110
00000000000000010010100010111000
11111111111100100111000000010000
00000000000010000111011011010100
11111111111001001001010000100011
11111111111111001100000110110001
11111111111111100111010000001011
11111111111110111000010000011000
00000000000011000110011111011011
00000000000011010001000000000100
00000000000010111011001010001011
11111111111110101111110000100111
00000000000110010110000010111011
00000000001011100011001001010111
00000000000011001001110001010110
00000000001001101011110101011010
00000000000000100000001111001111
11111111111101001001010011000000
11111111111110001101000100110111
00000000000011100111000101010110
00000000001111000001000011011100
00000000001101101111110110111101
00000000000010001001010000100000
00000000001010001101001111000000
00000000000110110111000010101110
11111111111100010001000000100100
00000000000101110100101011011011
11111111111110111000010010100010
00000000000000111001101011000010
00000000000111010101011001011101
11111111110011110011011010100100
11111111111100001110100001100110
11111111111011110010011001111111
11111111110110010100111010001100
11111111110101011111110110110101
11111111101010110110010101001010
00000000000101111101100100111000
11111111111111100010111000110100
11111111111010010100011001110000
11111111111100111001101101000100
11111111111000000011110101001101
00000000000001110111001101001010
00000000000001100010100111100010
11111111111101101101011001101111
00000000000001100001110000010001
11111111111111011000101010000010
11111111111101111011101001011000
00000000001001111100100111101010
00000000000110001001110010110110
00000000000011000110100010101101
11111111101111111001011111010001
00000000001101011011001010101101
00000000000000000110000111111101
00000000000101111100010001100000
00000000000011010010010000111001
11111111110011100100100111100001
11111111111100001000001110001001
00000000000101100110010010111001
11111111111100110111111000010100
11111111111001100000111101100101
00000000001000010000100100000000
11111111111110011001110101011110
11111111111101100101011110001101
11111111111100111011000011000001
11111111111001110110001000001001
11111111111110011001100011100010
00000000000010000001100001000010
00000000000110100011011100011110
11111111111100100010001111110010
11111111110111000101010011000110
11111111111000101100110001110111
11111111111101110011111010011110
00000000000001000010110110000101
11111111111111100111100001111011
11111111111101001001001110011010
11111111110000010111010010000011
11111111111110100010000111111010
00000000000100100111011111110010
00000000000010111101101111100110
11111111111110101001011001001000
00000000000110010010010100011100
11111111111011001101011111100111
11111111111000101100100111111001
11111111111101001011100011110110
11111111110101100101001001100000
00000000000000011101000010001100
00000000000000010011011100110011
00000000000000010111100100101011
11111111111000111111011011110010
11111111110100001100011001110000
00000000001100110111101000100100
00000000000110111101000011101101
00000000000011010111110001000010
11111111111100101110111100101110
11111111111011011111000110111101
00000000001011001101111110000111
00000000000100000000100010111101
00000000000101001000100100100101
00000000000111010100100000011100
11111111111101010111011010100101
00000000001001111110010010111001
11111111111111111001111000010000
11111111111000011111100001110100
11111111111111111101011010100100
11111111111100110101111100000101
11111111111011001101011011010101
11111111111011111110111001000100
11111111111110101011000000000001
11111111111101000111111110001100
11111111111111101010011010011011
11111111111101100101111101011011
