11111111101110100101110001110110
11111111111000100110111100101101
00000000000101001011011100111101
00000000001000011001000111010110
00000000001100001101010001101010
11111111111011100110010101110111
11111111111010110001011010101001
00000000000111010000110110110111
00000000000010000011011000010001
00000000001101101010001010101100
00000000000110101010011111101100
00000000000110001010101100000010
00000000001001111011110100101000
00000000000000100111001111110001
00000000010001110110001101001110
00000000000001100101011010110111
00000000000111010100110001111100
00000000000100100111010000101110
00000000010001010001100010110111
00000000001100001110011010101011
11111111111101011010100011001000
00000000001011010110000100000101
11111111111110010011110101000110
00000000000011011011000011100100
11111111101110000011100101111010
11111111111000011001010101011111
11111111111001100100101110011101
00000000000010111110010101001110
11111111111011111000001100011101
11111111111010010111011010001101
11111111111000101100100101011000
00000000000001100100101001100111
00000000000111010000100010011011
00000000001011101000101101001110
00000000001010010100011111101001
11111111111101010011110011000001
11111111111010111001001010100010
00000000000010110010111100001110
00000000001001011100001001001011
00000000001010001100000101000110
11111111111010011111101000101001
11111111110001100000111110110111
11111111110111110100100001010100
00000000000101001111110010001100
00000000000000010111110100110100
11111111110111011000111101101100
11111111110110000100100001110111
11111111111110001000011011100101
00000000000011010010110000000110
00000000000001010110000001010101
11111111110110100000101101010011
11111111111000111101110100110110
11111111111001000011111110000011
00000000000001000111010001010011
00000000001011011010100000100100
11111111111100100110010110001100
00000000000001100011110111101101
00000000000100001101010100011110
00000000000010110001111100001011
00000000000010110011101100110010
00000000001101000101001001111011
00000000010000101111001110101111
11111111111100001010000001100110
00000000000100011111000000001111
00000000000011000101101001011011
00000000001010110100100110010110
00000000000010100111011011110000
11111111111001101110011001010110
11111111110001010110110110110001
00000000000110011100111111010110
11111111111101110100011100111110
11111111110101100010101101001000
11111111111010001001101000110101
11111111111100010111100010100001
00000000000101011110110110010010
00000000001001011001101011010011
00000000001000100100011010101010
00000000000011000001011101111100
00000000000011001001011110000101
11111111110111010101010110111100
11111111111000110010111000110111
11111111111110110000110101111101
00000000000001110000100010001010
00000000000011111110011101100100
11111111110100100000010001010000
11111111111000101010010111000101
11111111111101110111000100100111
11111111111001100001110110001011
00000000001011011101000111010100
11111111111010000110011010001111
00000000000111100010100011111110
00000000000111101110001010111110
00000000000110001110000000110100
00000000000100111101001010101000
11111111111000000101100010001101
00000000000100010100101000101100
00000000000001001011100100110111
11111111110111011110101111110110
11111111110000001001011001011100
11111111100100100000011011001110
00000000000011111110010101001100
00000000000010110000110111000000
00000000001011100110101010110101
00000000001011110001111111111001
00000000000001110110001110110010
11111111111001111101110011100010
11111111111110001101110001100101
11111111111110010011011111110101
00000000000110001101110000000000
00000000001011101111100001000100
11111111110101111010100001100101
11111111111011000001000010011101
11111111111110100100011111001111
00000000000111111011010011110010
11111111111111000100011111111100
00000000001010001011001100100000
11111111111101001110000111101010
00000000000100011100011001111110
00000000000011011010000100101010
00000000000001010101111001010001
00000000000001101001010001011001
00000000000000101001010010111101
11111111111111000010010100011101
11111111111100000110000001001011
11111111110101000011100110110011
11111111111100111111110110000011
00000000000111101011001001111111
00000000000010001000011011010010
00000000000110011111011000110101
11111111111111111110001100101010
11111111111111101100000111000110
11111111111101001000110110100011
11111111111111000010101011000110
00000000000010101011100100110011
11111111111111111011001001111111
00000000000001011101011101110100
11111111111011111101001001100011
00000000000010000000011011110011
11111111111110111100011110001010
11111111111110011001111000110010
00000000000000010101111110110101
11111111111111010101010000011100
11111111111111010101000111010001
00000000000001101110101000101110
00000000000000110011001110101001
00000000000111001100000010111100
00000000000011111100100011111101
11111111111100000110101110110110
11111111111101001010001100000000
11111111111111111000111101001001
00000000001000001100010000111110
00000000001001001010110010100010
00000000000101101110110101100001
00000000000001010100001011100010
11111111110000110001010110100100
00000000000000011010000000100010
11111111111111010101000011110010
00000000000001100001000111111111
11111111111110000100111000110111
11111111111110011011110000110010
11111111101101100001000111011101
11111111101111010111011011111000
11111111111111000101011110100000
11111111111111100111101111100100
11111111111000011001101000010101
11111111111111101000111001011000
00000000000000111001110000101111
11111111111110010000101001110010
00000000000110110100000111011010
11111111111010100000001100000100
00000000000000110111100100110000
11111111111111110001101010011001
11111111111110001011001110100000
11111111110101101010011111010101
11111111101101100010001010100110
00000000000100111001010101001110
00000000000010010110101100000111
00000000000100011011001000101011
00000000001000101100000001110010
00000000001000010011010000110011
00000000010111111110010110101101
00000000000011110111110110110011
00000000000011010111111001111110
00000000000100000111100111100010
00000000001001001001011111100110
11111111111001111110010100011111
11111111110100010000100101010011
11111111111011011101011000001000
11111111111111101010111011011111
00000000000010101011000111011110
11111111111100011010000010000000
11111111111110100011000000110111
11111111111101111100110010101010
00000000000100011000111000101001
00000000010100011001011101101101
00000000000011101001011111010111
00000000001001100000110111001111
00000000001001001000111111100011
00000000001110100001001111111100
00000000000011001000000101001000
11111111110111010101101000001111
00000000000000011000101101001101
00000000000101100010000011110001
00000000001001111111100110010001
00000000001111101101100110100111
00000000000001000111110001101101
11111111111111001100010111101001
00000000000001111101010110110100
00000000000010101011010000001001
00000000000001010001000000111010
00000000000011101100001000011101
11111111111110001100111111101011
11111111110111011000100010000000
11111111111100101111101000010001
00000000010100001111101101100101
11111111111001011101010010001110
11111111111110101100000010100101
11111111110110001100100100110011
00000000000100111100000110011001
00000000010001100010100111110100
11111111111000010011010100111000
00000000000000101001101100000101
11111111111110111011111110110101
11111111111010111110110000000010
11111111110000110011001001011001
00000000000100100110100111010010
00000000000011110000001100110010
00000000000010100101111010110010
11111111111100000101111000001100
11111111101001110110110000000101
11111111111000100001001111011011
11111111111101011110101001011101
00000000000000000111010000011011
11111111110011001000111101100001
11111111111011110111010011100001
11111111111110010111101010110100
11111111110111000001111101001001
11111111111110100000000110110101
00000000000100101111000011011011
00000000000000111000100100110100
00000000000110000110010101111110
11111111111010100111001110110000
11111111111000001111011101111010
11111111111101111001011101001111
11111111111100110001000100010000
11111111111001110001110010101010
11111111111101110011010101000010
11111111111011111101001110010010
11111111111001001011101100101001
11111111111110010001101011111011
