00000000000001001110011101111011
11111111111100111100110100101111
11111111111110001001000001111100
00000000000001001010001000000010
00000000000001000010011010110100
11111111111011110110010000111011
00000000000000100000110100100101
11111111111100000110001111000111
11111111111100011110000011111100
11111111111110100110100101000110
11111111111110000001101101000010
00000000000001010000110111101001
11111111111111010000110011111111
00000000000010001111000001110101
11111111111010010110001101000000
11111111111101011100111000101011
00000000000001110101100100000000
00000000000010101000001010010110
00000000000000011100101010101001
00000000000001011010000101100001
11111111111100110101000000111011
11111111111110010101000000110000
00000000000000100101000110011111
11111111111111000101110110011011
00000000000010110100101101000001
11111111111100100111110111111000
11111111111111010011001101101001
11111111111110000010111011100010
00000000000011001110100011001111
11111111111100010001101101110001
11111111111100001000011101000111
11111111111011001011101001011100
00000000000000011011100111100010
00000000000001001101101110000101
11111111111111101010111011111101
11111111111001100110110011000000
00000000000001110001001100000010
11111111111010101000001111100100
00000000000001101110111001110001
11111111111110101011100011000000
11111111111111100111110010110011
11111111111110001010101111110001
00000000000010000001000100011001
11111111111011111001010001010000
11111111111100111010010000100110
11111111111100010111101000100100
00000000000000110010110010111101
11111111111110101101001010110011
00000000000010000010110010101000
00000000000000011011000010000101
11111111111110101110110010010001
11111111111101111000101000000010
11111111111011110011100011000010
00000000000001000100010011110000
11111111111100110010011011111010
11111111111111111000111011001000
00000000000000111110111111101011
00000000000001110001010101100010
00000000000001110000010000100101
11111111111101001101011010011110
11111111111100100100001001011001
11111111111011010011001101001011
11111111111011010110000110000011
11111111111100011011111010001110
11111111111111000000101000101111
11111111111111010000111000011011
11111111111110000101000111111111
11111111111111000000110010000110
11111111111010111110101100110111
00000000000011011111011100110001
00000000000010001111000110000101
00000000000000001011101000001111
00000000000010100100000000010111
11111111111010010000010011111111
00000000000001001000110001101100
00000000000001100011011010000110
11111111111101111010011011011010
00000000000000001011010010001000
00000000000001010101101000011001
11111111111110100000000011110111
00000000000000100010100111111110
11111111111100011000011100010011
00000000000001010001110010111100
11111111111111101110011100111010
00000000000001001011011001001100
11111111111100010111000011011010
00000000000011001000110010111000
11111111111011001001011001100110
00000000000000001100100001010001
11111111111100100101011100000101
11111111111100101110011011110010
11111111111100100001000110100000
11111111111011111110110001001010
11111111111111001001001000101100
00000000000001110010001001000110
11111111111101010000010001000100
11111111111010100111000000110000
00000000000000000101111001001101
11111111111101110000001010011100
11111111111111110011100100000011
00000000000001011001000011100100
11111111111100011110101011110111
11111111111110011011010110010000
00000000000010001100100101111100
11111111111011000000000001101101
00000000000001011110100100011100
11111111111110010000100111010111
00000000000001001111101011001001
11111111111110001100100000110001
00000000000001000101100001101011
11111111111111000110111111100010
00000000000000000101000001010101
11111111111110001011111000000001
00000000000000100110010011000100
11111111111100011100010100010111
11111111111101001001101100101101
00000000000011001000100010111000
11111111111101001010011010001110
00000000000001000110100011100000
11111111111011101110110001110111
11111111111100001101101101011110
00000000000000110011110110101000
11111111111111101010111100110010
00000000000000000111111101101100
00000000000001011010100000011011
11111111111110000010011111001110
11111111111110010100101010111011
00000000000010100010001101100101
11111111111101010001100100100001
11111111111100110100001001111011
11111111111110110001110101100110
00000000000001110011111111000110
00000000000000000010101000001011
00000000000010100011000001110000
00000000000001110001010010001000
11111111111110100101101100011110
11111111111101010000001011011001
00000000000010110111001010010001
11111111111100001001001001011011
00000000000001011110111100011011
00000000000011000000111100111101
11111111111101111100101110110011
00000000000001011001100100010000
11111111111011111001010010000011
00000000000011000111101011111110
11111111111100001001111110111001
00000000000001111000011011111011
00000000000000110101001101000010
00000000000000010000100011000000
00000000000011101000001110110100
11111111111111101001001111111111
00000000000001000111101110000011
00000000000011110110101000010011
00000000000000011010110001101001
11111111111101111101010010101101
00000000000001011011100010100110
11111111111011111010000000001110
11111111111101001111000101110110
00000000000001000000000100000001
00000000000000110101101000011111
00000000000000000001111001110101
11111111111101001011001011110110
11111111111110111001100100101100
11111111111111101011010111001011
00000000000010011001000111001000
11111111111110010100001000100010
00000000000001111101000100111111
00000000000010010000111010101111
00000000000000110110000100100000
00000000000001101101111100001101
00000000000001010100011100010001
11111111111010111001111100001101
11111111111101100110001101001111
00000000000011110101110111010010
00000000000001111110011110010001
11111111111110000100101010000100
11111111111110010101111111010100
11111111111111011110000100000111
00000000000000011100101111000001
11111111111110001000010011101101
00000000000010000010111010000110
00000000000001100111001000100110
00000000000001111000101111100001
00000000000010000000110110000110
11111111111111010110110010110101
00000000000001011011111000011010
00000000000011001000001111001001
11111111111101100100110100101011
11111111111100010001110101111011
00000000000000101100011101100100
11111111111111100011000100101101
00000000000010110010011000100001
11111111111100001001011111100100
11111111111100000101101001010110
00000000000011111000001011111000
00000000000010000011100001110100
00000000000010011001101111100101
00000000000010101100101000011010
11111111111101001011101101111011
11111111111100011100011101110011
11111111111100001010000011010011
11111111111101101000000110111010
11111111111100011010101010000001
00000000000000010111101101011101
00000000000010000100010010100011
00000000000010011000001000100111
11111111111110110010011011010001
00000000000001101111001101010010
11111111111100010111011110101111
11111111111101111011101000000100
11111111111101110111101101000011
11111111111101111001100101000000
11111111111011001011011111010010
11111111111110100110101011000100
00000000000010001000001010110100
00000000000001011001111111110010
11111111111010001111110001001111
11111111111101011001011111101010
00000000000001010110111001110111
11111111111110110001000010101000
11111111111111111011001010110001
11111111111101011100110011001110
11111111111101111010001111000110
11111111111101011010111000010100
11111111111111001000100001111000
11111111111101000110000101000010
00000000000000111110100110111011
11111111111101100010001000011010
11111111111100100110011110111100
00000000000001011110001101111001
11111111111101101001010001100001
11111111111110101111101010000001
00000000000010100010100000110100
11111111111011100001110011011000
00000000000001001000011000011000
00000000000001111101011000011010
11111111111110010010100101001111
11111111111011000101111110110111
11111111111111000100001110011010
00000000000000010110100010001000
11111111111110000010011101110101
11111111111111010001001001000110
11111111111100001100011100100000
11111111111111001110000010010110
00000000000010111101010001111010
11111111111110110011011101010100
00000000000010110010010011110000
11111111111110010010011111111011
00000000000001000001100110100111
11111111111110111111100010010010
