11111111111110001111011100111100
11111111111101111110011001001010
00000000000100110011010010010000
00000000000000001010000111011011
11111111111110110000000110111111
11111111111111100000100011110101
11111111111111101110000011100111
00000000000110100111110000000010
00000000000001101001001011010010
00000000000011111101001010110011
00000000000000011011000111111001
11111111111101111011000010000100
11111111111111001000110011011001
00000000000010001010100110101001
11111111110111110111100000010011
11111111111100010111010010010111
00000000000110010001000110011011
00000000000001011000000001100111
00000000000001111010000101000101
00000000000010101011110110111101
11111111111110110011001100100100
00000000001000011010010101101101
00000000000100111110000111010101
00000000000000101011100001010011
00000000001010010101011111111010
11111111111011110010000011101110
00000000000001101000100100100000
00000000000110001101011100001010
11111111111010010100001010101011
11111111111000100110001100000010
11111111111100001110010010110101
11111111111001101010000100111010
00000000001100010010100101110001
00000000000010111101011011101111
00000000000001000011000101101000
11111111110111110111111101011001
00000000000000100100001101010000
00000000001100101111011010011101
00000000000101011100010010100011
00000000000001111110101010001001
00000000000001100101111100001001
00000000000011110010100001010110
11111111111011010010011000000111
11111111110111010111001010001010
11111111110100111100100101111100
11111111111110010000110000111001
11111111111101000110111011010110
11111111111000000111101101000001
11111111111110111000010001001101
00000000000111011101000011111101
11111111110110101010110110111000
11111111110100011101111011110101
11111111110010000110000001011110
00000000000010111010110011011000
11111111111010010101010111011111
11111111111110110111101010010111
00000000000110100010000011100111
11111111111100110001010001010100
00000000001000010001001000110101
11111111111111010001110001100110
11111111111000010101110011000111
00000000000001001000100000001101
00000000000001010110101100111101
00000000000100001001110110011111
00000000000001101101110110000111
00000000000010111100000010110000
00000000001101111010000001111011
00000000000000000110101001000111
11111111111111111111110000011111
00000000000010001011110011001100
00000000001110001011010011000100
00000000001000001100110100101001
11111111111110011010100001001001
11111111111001011011111110000001
00000000000110100100000011000100
00000000000000001111001010000101
00000000000011010001110111111011
11111111111010001101101010101000
11111111110111000011001111110000
11111111111000110100111110011011
11111111111011010001100000000101
00000000000000000010111101001010
11111111111111101111110101000010
11111111111001010101000010011001
11111111111011010001000000110101
11111111111110101010001011100000
11111111111110110010010100010001
11111111110101011011010000110001
11111111111010100001111100011010
11111111111101000101001111100110
11111111111100001111110001110001
11111111111100101001011100010001
11111111111001011100111010000101
00000000000011100001010100011001
00000000000000111010100100101100
00000000000110001110100011111000
00000000000010011011011101111010
00000000000011111110000101001010
00000000001011000001000001110000
00000000000111110010010001101111
11111111111100101001101100001010
00000000000011101111000101111010
00000000001110001101011100011101
00000000000100110100001011110011
11111111111000000000010010001001
00000000000000100001011000100000
00000000000100101110101010111110
00000000000110101110111011101100
00000000000111000100111111000110
11111111111000110101111000000111
11111111111000000111110100100100
11111111111010111000000010101000
11111111111110100001111111010011
00000000000001010110100111000001
11111111111100001100101110010111
11111111111111011011111101110110
00000000000000000101101001010110
00000000000010100011010000010100
00000000000111111011010100010010
00000000000101100101111001010010
00000000000000101101010011000000
00000000000011000111011010101101
00000000000001101010011101101001
00000000000110110000000101001110
00000000001001010000010100010000
11111111111111110010000101110110
00000000000000001100010011010000
11111111111111101111100010111101
11111111111001111110011011011010
11111111111111111111111110110000
11111111111101111010000110110101
00000000000111000000000100011010
11111111111101101000100010011111
11111111111111111011000011001110
00000000000001100110100111000111
00000000000100000101100011110111
00000000000011011111101011000011
11111111111101110110101000101001
00000000000010110001001100001110
11111111111101101010101111010100
00000000000001100000000010001001
11111111111010101000010001001110
00000000000010011000011010010011
00000000000010111110000111010001
11111111111101111000001011110001
00000000000011000011110100011001
11111111111110000000010001111001
11111111111110111111000101110110
11111111111111010011100011010010
11111111111101010100011110001000
11111111111101110100010011100111
00000000000100011101010011010100
00000000000000001101100011100111
11111111110110010011000111000001
11111111110011111101111100011011
11111111111010111110101101100000
11111111111010000000110110000000
11111111111001110011010010110011
11111111111100111100110010011000
11111111111011000001110101100010
11111111111001101111101001101101
00000000000000000010011000101000
00000000000001111011110000000100
11111111111010111000101010111001
11111111110111011110111011111010
00000000000000010001100101110101
11111111111110010001010100000001
11111111110011001110011111100010
11111111110001010011011100001001
11111111111100010001001111010111
11111111111110011010000010111011
11111111111101111001111000110100
00000000000010000000100000000000
00000000000101001000110000001001
00000000001001100001111101100111
00000000001100110110011011010101
00000000001001011011101101000011
00000000000101101011101101111000
00000000000000010010000011110101
11111111111110001111010101111011
11111111111101000011000000011010
00000000000011111111101100011010
11111111111100010100000001000011
00000000001011011001010000011001
00000000000101110011110011011010
00000000001101101100000110000101
00000000000001011000110101010111
00000000000101001010111001011101
11111111111011000101000111000101
11111111111001100001001000000101
11111111111001111000111100101001
00000000000011101111000010011111
11111111111111101001110001001110
00000000000001101001101000011111
11111111111010001001100011110010
11111111111101001100100010000111
11111111111101010110001011100000
11111111111101100001101010100101
00000000000000111000000000001001
00000000000010010010111010100110
11111111111110110111100000001110
11111111111110111000101110110010
11111111111110110000101101100110
00000000000011100111000001110101
00000000001000010011011001000011
11111111111001101001100101011101
11111111111111100000111000111010
00000000000000100011110100001000
11111111111111100011000000111010
00000000000001111010010100101000
00000000000011010010010001000101
11111111111010101000101000110010
00000000000000100010011000000011
11111111111010110111000000010110
11111111111011111111101010100010
00000000000000110100100100000001
00000000000111101100010000101111
00000000000011010101101110011110
00000000000000010010100001101001
11111111111111011100011100100110
00000000000110000010010011000111
11111111111110101101100001011110
00000000000010110111111100010010
00000000000000011111000011000000
11111111111010011110101101111110
00000000000100001000101001010110
11111111111011011110110101110111
11111111110110111111111111110000
11111111110000001110101110000100
11111111101100101010001001110101
00000000000011000001111000100011
11111111110111111101101011011010
11111111110111110100110011011111
11111111110101011100110101110111
11111111111011100000001011000101
11111111111101011010110110110000
11111111111101110000000100110100
11111111111111110001000010011101
00000000000110001111001110110100
00000000000001111010110000000010
11111111111011011100100110001100
00000000000101010010010000010111
11111111111110010001010100111110
11111111111100111010110010111001
11111111110010100010000110110010
00000000000010100001101001001001
00000000000100011101111110011001
00000000000100010000100100010101
11111111111100101110001011001001
00000000000011000000101111010011
