11111111111111110110111110000011
11111111111100011011010001100010
11111111111101000111010011011100
00000000000001001000111111101100
00000000000000110000100010000101
11111111111110001100011010101000
00000000000010001101000111111100
11111111111110000111100010010001
11111111111101101001010000010010
11111111111100011101001110101111
11111111111110001001100011110110
00000000000010001101100100111111
11111111111110110100010110011001
11111111111111000001010101001010
11111111111011110011110100101100
11111111111100010001111010000001
00000000000010000000111011111001
11111111111100101010101001011111
00000000000000000111011110111000
11111111111110101011111111110011
11111111111111100110010001000010
11111111111110001101111010010000
11111111111111111000001110110111
11111111111101101011010111101010
11111111111011011011111000001100
00000000000010100100101010101010
11111111111101111001111010001011
00000000000001111011111111100100
11111111111111111100000010111110
11111111111111110101100000111010
00000000000010111000001111111110
11111111111101010001011010010110
11111111111101101011110010111110
11111111111111000000010000100100
11111111111111001111110111000001
11111111111110110100100011001100
11111111111011111100011111010111
11111111111100001011001000110000
00000000000010001111100110100110
11111111111110110100110110101101
11111111111011011000100100011100
11111111111011101000000110000110
11111111111101010111010110010110
00000000000000010000001100001000
11111111111100101100011100000001
11111111111101001011111001001111
11111111111011100000101111001111
00000000000011000100110000001111
00000000000001001101101101110100
00000000000010100001000101010100
11111111111100011010001011100111
00000000000010011000000110101011
11111111111101111001010001011010
00000000000010000110100001000100
00000000000001111000100110010010
11111111111110101100101011110000
11111111111011111011011010101011
00000000000001100110010011011001
11111111111110001100101000001110
11111111111101110011100001100010
00000000000010011111110110111110
00000000000000111111101010000011
11111111111110110100011101111100
11111111111111001101100000110010
11111111111111111100101000010101
11111111111100101110111101001100
00000000000000011101010011011001
00000000000010100111010100100011
11111111111011101100111010000011
11111111111111001101100100101010
00000000000010101010100001110100
11111111111011011100010111010010
11111111111100001000111011110010
11111111111111010000100010000110
00000000000010101010100100101101
00000000000001001101101010001011
00000000000010100111001100010110
11111111111011101100000011000001
00000000000001111011000111110101
00000000000001010010000110100011
11111111111110100000111111010100
00000000000001001000101101010000
00000000000000011111100111000011
11111111111111110101101111101011
00000000000000110111111010001010
11111111111110100110110010110001
11111111111111111101110111000011
00000000000011000110100100110010
11111111111101111111110000100001
11111111111100100100111101111011
11111111111110100000110011110111
00000000000001111100011011101001
00000000000001000001011001100111
11111111111101010110100010110100
11111111111100111110000111110000
11111111111110001011111010011101
00000000000010011010101010110101
11111111111100000101111011101011
00000000000010110100100101001101
00000000000000100000101000010000
11111111111110010000110001111101
11111111111011111110100111100010
11111111111011010001111100001101
00000000000011001100000000111101
11111111111110001101100100110001
11111111111100111111110100001001
00000000000001010100111011101001
11111111111011111101101011001010
00000000000001110010101010001000
11111111111110010011110010011111
11111111111101010100100111110011
00000000000001100001100111011100
00000000000010010111101010011011
00000000000000001110010001010110
00000000000010101000111100010010
11111111111100000101111000000010
11111111111100001010011000000111
00000000000010011111010011000111
11111111111100011001111100111011
00000000000001001111011000011100
11111111111110001010000011111010
11111111111111101011101010111011
00000000000000001101101001110010
00000000000010011001101100010001
11111111111100110001011000110000
11111111111101011001010111111100
11111111111101000011101011011011
00000000000011000101010100110101
00000000000000010111100001011010
00000000000010110101101100100111
11111111111100110110000001111100
00000000000000011011000111100001
00000000000010110011001100101010
11111111111111111011011101011101
11111111111100010010010011011010
00000000000000001001111011001000
00000000000010001110001000010001
11111111111111010110001001000000
11111111111110100110000001000001
00000000000011000101011110011100
11111111111110110011011000100110
00000000000011010110000100111000
00000000000001110010000000101001
11111111111111111001001000111110
00000000000000011111110011101101
00000000000011111111100101101001
11111111111100010111100010011110
11111111111101110010100000001110
11111111111101011011110011011101
00000000000100000010111011111000
11111111111101100110100001110011
00000000000100001010011101001011
11111111111101000011110010110011
11111111111110111011010001110010
11111111111101010000100111010011
00000000000010100110110000001110
00000000000001001101100001011011
11111111111110110000001001110100
00000000000001011110111010101111
11111111111101000011000010111111
11111111111011000100101110110111
11111111111110010010110100111000
11111111111100111011111010001011
11111111111011100000110101110000
11111111111111101110010010010111
11111111111101101001011001010011
00000000000000110101110100110111
11111111111111110000001000011111
11111111111111011010101111011001
00000000000000000111000110000100
00000000000010010001001101001101
00000000000010110011110011100001
11111111111101000011000111100000
11111111111011011010000011001111
00000000000000101100110100011111
00000000000010001000001000011010
11111111111101001100110101101111
11111111111111100110010010100001
11111111111101110011111001010010
00000000000010011001010011100100
11111111111111101100110010001000
11111111111101000101100101111101
11111111111100110000000000000001
11111111111100110010011010011100
11111111111110101101001111000101
00000000000001011001000110101000
11111111111100111000010011100000
00000000000001110000110101000000
00000000000001111100110010010010
11111111111101110000001011000100
00000000000000101001101001100000
00000000000001111001101010100111
00000000000001000101100110001111
00000000000001010110000101101101
11111111111100111001011100101100
00000000000000000000011001011000
11111111111100100111011111100001
00000000000000101101101001011100
11111111111011100111100011100010
11111111111101110100100010001000
11111111111011010101000010111000
00000000000000010010101001011010
00000000000000100101001001101111
00000000000010100001010000010101
11111111111101011101001110101010
11111111111011011101000011011100
00000000000000100010000111011100
11111111111111111011110010000110
11111111111110110101101001100011
00000000000001000000001001110110
11111111111100001111000010000001
00000000000000111000001100110111
11111111111100001010010011101110
00000000000010001010010010010100
11111111111100001110101000101001
11111111111011111110111100001100
11111111111110011000001111001010
00000000000001010000010100100000
11111111111100000010011111110011
11111111111100111100011011100010
11111111111110010100111010000000
11111111111110100100110010111011
11111111111011001101100011010000
00000000000001111001111111011010
00000000000001101001100000100110
11111111111101001010000100111111
00000000000010100111010000110110
00000000000011001011010111000011
00000000000010011111110010111110
00000000000010110001010101011000
11111111111101111101011000001001
11111111111100111111010001011010
11111111111101100111001100111110
11111111111100111111011010101101
11111111111100101001111100011100
11111111111011100100111100000001
11111111111110100100011001001000
11111111111110011001110110000010
11111111111011111101100011110010
00000000000000110000101001011100
11111111111100111011001011100011
00000000000001100011110000001110
00000000000010000110010101111100
00000000000010110010111110111000
00000000000001000110010111111001
11111111111111111010110010101111
11111111111010101001101100111110
00000000000000000110011110101101
11111111111101101000111100100101
00000000000000000100101100101000
