11111111111110110011100010101110
00000000000110111001110110001000
00000000000010000101110010000100
11111111111110111000101110011000
11111111111001100000011011010111
11111111110101110001100011001011
00000000000000110010110100011000
11111111111000010011111000100111
00000000001001011011101111001001
11111111111111000100100001111101
00000000000100111010001110100110
00000000001100110001100010000010
00000000000001101010011000010110
11111111110011001011100100010110
11111111111101000010000110111101
00000000001100001010101001011011
11111111111011111010101111110100
00000000001011010011101010100010
00000000001001001101010100000011
00000000000010010001001101001100
00000000001101011110010000101000
11111111111100100001101001101110
11111111111110100111001011000110
00000000000001011010110110110111
00000000001101010110101000001011
11111111111111111011111000010100
11111111111010010101111100111001
11111111101101111101010100111110
00000000000101000011000110101100
00000000001010100100101110110000
11111111110111011001110111111011
11111111111001110111101100010011
00000000000011000011110011100111
00000000001001110000010111111000
00000000000101001100011010101101
11111111110110010111111101111110
00000000000000011001000001010110
00000000000000001000000000101110
11111111110110000001110000111010
00000000000111110100011010111001
11111111101100010100010111001001
11111111110100000001101001101111
00000000001100000100000000110100
11111111110111111100111010101000
11111111111101101010000010101100
00000000001000011101010001010001
00000000000010110010001110010100
00000000000111110010000000110011
00000000000100010010101111100001
11111111111100111011001101000110
11111111111011001110010000011110
00000000000001110101110011011011
00000000000010011010001111101100
00000000001100011101110100011110
11111111101101011111100111010101
11111111111101110101001101000011
00000000000001011101000100111110
11111111111110000110100111111100
00000000000111011000100001110010
00000000001011111111100111110010
