11111111111001101111000101100011
11111111111101011000100001001101
00000000001010110110000000010001
00000000000000101110111001010110
00000000000000010011000101000100
11111111111111010001111101111100
11111111111011001001101011001110
00000000000110111100110100000111
00000000001101111011010001010110
00000000001000000110001000100010
00000000000111010001111111011111
11111111111010100100111110011010
11111111111000110000011010100001
00000000000011010101110100010110
11111111101010000001111100010101
00000000000000001110101101000110
00000000000101000000110111111011
00000000000101111011111111110011
11111111111100111100111001010001
00000000001011100011110101010101
11111111111000101010010110010011
00000000000110001011001001111010
00000000001101110111001110100110
11111111110001101101011101110110
11111111110111111011010000101110
00000000000011011010101101110101
00000000000000000000110110011010
00000000001110101100011011100001
11111111101111011001011000111011
11111111111011111111100100100001
00000000001011100010110101110001
00000000000110010001010110110000
00000000000011110000010010001011
00000000001001111011111001100010
11111111110000110001001100110001
00000000000000111011000111001111
00000000001110000000111110000100
11111111101101011111111101011110
00000000001000010101101101000111
11111111111010010010011011011110
00000000011010010110100100000111
00000000001010101110101010100100
11111111111110100110001111011000
11111111110100010111100101111000
11111111111110010100011110110111
11111111111101101000111101111101
00000000000011111001100001011000
11111111111011110101011101100110
00000000001100111100110011100010
00000000000001100110110010011111
11111111110010101110100100110111
11111111111011000110011001111111
00000000000100111101100000110000
11111111111010101111100011000110
11111111111011111101011100110100
11111111111101111010110101100100
11111111110101010001101011110111
11111111111110011010010111111001
11111111111110000011011101111101
00000000000110111011111100011011
