00000000000011111101111000000010
11111111111100011110110100001000
11111111110110000110000101001111
11111111111011011110111011000001
11111111111001110001000111111111
11111111111100110010111111001011
00000000001001001100011111010010
00000000000000001011010000010010
00000000000010011100111000110111
11111111111000100111100111000011
11111111111000101100011001110001
11111111111111111000110100111101
11111111110110100000101001011100
00000000001011100000011010001000
00000000001010000101101011111101
00000000000001000001001010001001
11111111110101101110011000010111
00000000000100110101101001111101
00000000000011110011010100001111
00000000000100100010000110100001
11111111111010100001101011110110
00000000000111110001110011100001
11111111101111010011100011110001
11111111111101100010001001101000
00000000000011000011101101010101
11111111111001101001011111011000
00000000000101110010100101000101
00000000000011000000010111010000
00000000000111111001101010000101
00000000000011011111010011000000
00000000000010111001010001110110
00000000000111001101001010000110
00000000000110110101010100101111
00000000001000010000011010010011
11111111111000101010010010001010
00000000010000011100001111111010
11111111111010000101111111000011
00000000001000011001111001011110
11111111111110101100010001010001
11111111111010001100000100011100
11111111101110110111111110111100
11111111111000000010101101101110
00000000000111001111101000001001
00000000001010010100110010100011
00000000001000011001010111100001
11111111110100001001000010111001
00000000001111100111000110000010
00000000000101000010000011001010
11111111111011001101010100010001
11111111111101110110101110000001
00000000001010111000110111001011
11111111111110000110101111010100
00000000000000111101000111000100
00000000000111111111011001101100
00000000001101000010000000110111
11111111111111100000101010000101
00000000000011110000001101010010
11111111111101010000101001010001
00000000000111100110001011000100
11111111111110111010011000100000
