00000000000110011000110111001000
00000000000110110010000011001011
00000000000010010110100011011100
00000000000001100110110011101010
11111111111010001011110100001010
00000000000110110011110111110100
00000000001000100111011111110010
00000000000100010111010110000010
00000000000100110011011000110111
00000000000011001110111010001101
11111111111101111011100001000001
00000000000100111000110001000101
00000000000100111100001010111100
00000000001011100011110111101001
00000000000100000001001101011011
11111111111111011000111100010000
00000000000011100001011111001110
11111111111101100000111010101000
00000000000101010100001011110110
11111111110110100011111010010100
00000000001010001001000000100011
11111111111001000001101110000100
11111111110111011101110111010000
00000000000101100001111001110001
00000000000101110000000110100111
00000000001011010111011010010111
00000000000001111101100001000101
11111111101111100101101110101001
00000000001011100000110110000111
00000000000001010100001111111111
11111111111111000101100000010110
11111111111100111011001101000001
00000000000010110010111011101000
11111111111000010011101010000111
00000000000011011010111000111100
11111111111110101111101010011110
11111111110001010000001011000010
00000000000111000100000111111101
11111111111011010001011011011001
00000000000011110101011001001011
11111111110101001001100011101110
11111111110101000011101101111100
00000000000110100011001000110011
00000000001000010011101000101010
11111111111110100101101011100101
11111111110111011001110100111000
11111111111100111010011010100110
00000000000000010101001011100100
11111111111001111010101010001001
00000000000101010001101100100101
00000000000000111101000000001101
00000000000110011000111101101001
00000000000100101000111111010011
00000000000100001110100001110000
00000000000111111101001010000100
11111111111101000000000110101011
00000000000010110110001000111011
00000000000001110111110011010100
11111111111100001100100100100000
00000000000010001111011111000011
