00000000000101101110010100011111
00000000000011000000110011101011
11111111111001001101000000111101
00000000000001110110011101111011
11111111111101110011100110110101
11111111111000010011101101101011
11111111111101110000101110110011
11111111111010011000000110001011
11111111111001010100110001111000
00000000000011011010100111110101
11111111111100101010000010110100
11111111110111010010100001001100
11111111110011010011111000010110
00000000000000000110000001101101
11111111111011001001010011010101
11111111111110001010010011001010
00000000000001101001001101100100
11111111111011010100100110001011
11111111110101011110001001010010
11111111111011011110101001001111
11111111110110011100010011010100
11111111111010001110110001001000
00000000000101011010000111111110
11111111111000111011111000000010
00000000000011011001011001101001
11111111110110100001100111001000
00000000000100110001011111100001
11111111110111010101001010011101
11111111111100110110101111110001
11111111110100001101111110110011
11111111111111000101111111100001
11111111111000011100111111111110
11111111111011111001111001010001
11111111110110111010111010110000
11111111111011011001011111001100
11111111111100111011101100001011
11111111111000111011100001000011
11111111111010111100100001110011
11111111111010010100100011101101
00000000001001101011110011110000
11111111110110000100010011100101
00000000000010110101011100001001
11111111111011100110011101110100
11111111110010010101110000111101
00000000000110111111000001111010
11111111111001100001110110001000
00000000000001011111110000001011
11111111111111001000111000100111
11111111111100001100111111101000
11111111111111111011001110000101
11111111111111011101001111001000
11111111111110011101001001110110
11111111110110101101110010101111
11111111111100101011000001011110
11111111111110001110111101111111
11111111111111011111001000010101
11111111110011110101010011010101
00000000000011111100011110110111
11111111111000010111100011110100
11111111111010110111010010111011
