11111111111100111010111111110101
11111111111000110111011110001001
11111111110000101110111110100001
00000000001100000000110000011101
11111111111001000000101011010011
00000000001000111000100001011100
11111111111001100000100010111000
11111111111111010110100110100101
11111111111010100111010100010001
11111111111101000000101011111111
00000000000000001111100000100101
00000000000100010101100011011110
11111111110011001011001011010001
00000000000100100101100011100010
11111111110001111110100100100001
11111111111111100000101100100010
11111111111101000011100010011101
00000000001000100100111000101011
00000000000001001011110110000011
11111111111111001011100100101110
11111111110111111110011000111101
00000000000010110000011111110110
11111111101001101001100001010000
11111111111011100101010101110000
11111111111111101001100011101101
00000000000001101001100011011001
11111111111110000001001100001001
11111111101111100000000011101101
00000000000010101111111010111010
00000000001000111111001111000111
00000000001001101101100100011110
00000000000001101101111011010010
00000000000010101100011000111110
11111111111111101110010010110100
00000000000001000001000101001011
11111111101010100110001010100111
00000000010010000110110101101111
11111111110110110101101010111001
00000000000011000100101011010110
11111111101111010000010011111001
11111111111101010010100001100110
00000000000101100110110010011111
11111111111001010011110100100000
00000000001000011111110001111011
00000000010011101000011001101011
11111111110000011111111011001010
11111111110010101111111001000101
00000000000011011011110110001000
00000000001110110101000111001111
00000000000101111100011111100111
00000000000001101101100110111110
11111111111011101111000011100011
00000000000010101110001000100111
00000000001011101110000111010010
00000000000001011000101011011110
11111111111110101100001100110010
00000000000101011110001011000111
11111111111001101001011000000000
11111111111000101101101011010110
11111111110111101101000100100111
