00000000000010001111011100100101
11111111110101010010000110111101
11111111111100000011111001001101
11111111111011000011101111100111
11111111111001000101000100100101
00000000001101100011111100110011
11111111111110100010011111001010
11111111111001100111100100101101
00000000000111010000001011101101
11111111111001010100110011001111
11111111111101101111011001110011
00000000001001001110101001100000
11111111111110100011000000111001
00000000000100000000100101110001
00000000011001101011111010000000
00000000000100111110100111011000
11111111111001010110101111101100
00000000000111100110010101111011
00000000001010110110011001001101
11111111111111000011100011100000
11111111110111001111111010001001
00000000000100010101110100000011
11111111101110111111101010111101
11111111111011000110111101110000
00000000000111110111001111101011
11111111111100111111011110101100
00000000000101110101000010001101
11111111111110010011101101011011
00000000001001101001000110010010
00000000000110111010100110101000
11111111111011101001010011000001
11111111111111100110000101100110
00000000000001000101100110010001
00000000000100101111000101001010
11111111110110110100111110011101
00000000010000011011100010010100
11111111111111111110000001000010
00000000000001101100010100010010
00000000000100000100110011101100
00000000000100111110100100001001
11111111111011110000101110011000
11111111110111110100111101010000
00000000000000101110010010010101
11111111110111110100110000111100
00000000001110100110110111010001
11111111111000110101010110001110
00000000000110100111111011101101
00000000001001111001000111001110
11111111111101100010100110011010
00000000000011101111111001000010
11111111110111000110101101010100
11111111111010000011001101000010
00000000000110110011111110011110
11111111111001111100101010110000
00000000000001000100100011101110
00000000000011011010000000000000
11111111110010111011010100100000
00000000000111110010101011001011
11111111110010101101010000111000
00000000000011100101001011001111
