11111111110000111100110101110111
00000000000011110001110110011100
11111111110110001011011111100000
11111111101000010100000000101011
00000000001010000000010011100101
11111111110111100000111001000100
11111111110111100110000111000110
11111111110000010001010010100101
00000000001010000100001001100001
00000000000000101100101100101100
11111111111010110001000010011001
11111111111110100000110101101010
00000000000110101111000000101011
11111111111111010010111000100110
00000000001100111000100001001000
11111111111010001110010011100001
00000000001000001110010100001110
11111111111100100010000000111010
00000000001000101101001111000101
11111111110110011111110110001000
11111111111101000100011011100010
00000000000111000101010100100101
00000000001110110110010110101011
11111111111100011111110101111011
11111111110100100001001100011011
11111111110101110000000110001101
11111111101110001100111100100010
00000000000000001110101101100101
00000000000101110001001111111000
00000000001111011001010101011111
11111111110111000110000000110101
11111111111101101001001011001000
11111111110111010100110100010110
11111111111110100010111010000110
11111111100100100111010010101101
00000000000100011100001100100111
11111111111100011001110000111111
11111111111010111000000001000111
11111111110111000110100110001001
00000000000110010100000011100101
00000000001101000101110111101001
11111111111000011000111110111111
11111111110100011000110000001010
11111111110011100001100011000100
11111111111011100001110010110010
11111111110110100111000110101010
11111111111011011001110000010101
00000000000000000000100111011110
