00000000001011000101000010001100
11111111111011111111100100111011
00000000000001101011001110111110
00000000000010101001001011000110
00000000001011001010001100100011
11111111110111111110110111000000
00000000000100010001010001011110
00000000001010101100101010111011
11111111110110111011111100011011
00000000000110110011011000111100
00000000000100010100111110011000
11111111110101000010000110000101
00000000000011111100101101101010
11111111111000100101001001101111
11111111110011000010011100110100
11111111111101011000011010011001
11111111111000001111101000000010
11111111111001111001000101101010
11111111111000011101010110110001
11111111110001100001101101001010
11111111110111110000000001100001
00000000010000101010010010110001
11111111111100110000110001011111
00000000000000001110001001111100
11111111101111000100110111011111
11111111111110101001100000111011
11111111111100111001000101011110
11111111101011110110011001101101
00000000001000001111010110011101
00000000000110001110111111110010
00000000001001011000001011110001
11111111111100011010001010001011
00000000000110011100000010001110
11111111111011011100000110100110
00000000000101101110100101111110
11111111110010001100000001100011
11111111111101101111001100111000
00000000000011010111001110011110
11111111101111111110111100111110
11111111111010110111000111101000
11111111110001111000100101000111
00000000000011111110000000000001
00000000001000010001010001010100
11111111110110011001110111100011
11111111111000100110011010010010
00000000001111001111100100101000
00000000000010111100001100010000
11111111111001001100110111110000
