00000000001011110101111110000100
00000000001001000111100011000010
00000000010001001111011110111010
00000000001101101111110101001001
00000000001101000101001010111000
11111111111100111010101111000011
11111111111111011111011110010011
00000000000111000101100110100100
00000000000011100110111110011000
00000000000101101011111011010011
11111111111100010110011111000100
11111111110111011000101111100111
11111111111001101100001111111111
00000000000010100001111110100110
11111111111011001000010000111000
00000000000100111101101111000010
00000000000010100011100010010011
00000000000011101101101010110101
00000000001000000111001011110001
11111111111010000101111001100100
11111111111001111100010000101100
11111111111110101011001111110110
00000000000000011010001101101111
11111111111101011100100011000000
11111111110111101011011010001010
11111111111101011001001100010001
00000000001000000111101100101001
00000000000010100110100101011101
00000000001010101100010011110000
11111111110111110110111001111100
00000000000111111011100110011001
11111111111011011001110111010101
11111111111101000001101001001101
00000000000011110110011101111010
11111111110111001110011011100111
00000000001110110010110011010110
11111111111010011111110111010010
11111111111110011101111000110110
11111111111010110010100110111100
00000000000100100001100111101001
11111111111010001111001100101111
11111111110101111110011101001010
00000000000000010101101000101011
11111111111010000110110001010111
00000000000001111011111111111000
11111111111100101111010001100110
11111111111101001010100011111011
11111111110010011111000000110010
00000000000001010001001011001110
00000000001000101011010010000001
00000000001000001010010100000011
00000000000101100110101110111100
00000000000011101110101100111100
00000000000001010110000100110000
00000000000001010011010001011001
11111111110111101010101010000000
11111111111001010101110101011010
00000000000010101011111100101010
00000000000000100000010001010110
11111111111110001110011111011000
11111111110010010111111111100011
11111111111110010001001000000001
00000000000000110001101010000011
00000000000100000011010001010011
11111111111000111010011011111011
11111111110111010001101101011000
11111111110110011010100101000101
11111111111101100100101001010100
00000000000001001001111000110101
00000000000101100000110010101010
11111111111000101111010011001001
00000000000010110110001001101100
00000000000100010011010010100001
00000000000100101000010000001110
00000000000110011010000000011100
11111111111110100000111100001101
00000000000010100001011010010001
11111111111011100000010011001011
11111111111010101110010110001110
11111111111100100000110000110110
11111111111111101101010110000111
11111111111110111110010101111111
11111111111100000101111011110100
00000000000000011101110010110110
11111111111111000001111001111100
11111111110100010100000110110011
11111111111101011000010011100110
00000000000010011000111001001110
00000000000010100001001001011011
11111111111111101001011101111111
00000000000000001101100000111011
00000000000001111000101100110011
00000000000001010011000010000011
00000000000101010111100110101001
00000000000011001010010100101101
00000000000001110111100011101110
00000000000101110110010100000011
00000000000000010111011110001010
00000000000111011101111010001011
00000000000101111101000101010001
11111111111000110011011001100110
00000000000011101111111001110010
11111111111000000000110110010111
11111111111001101001010010110101
00000000000001111100100001111000
11111111111100111000111111111111
00000000000101001110001111011100
11111111110101101001110011100000
11111111110110000000101111101100
00000000001001100000101101110001
00000000000000111100011110100011
00000000001000010111000010111001
00000000000110111001011011100001
11111111111111111101110000100111
00000000000000000010001010010010
00000000000110011011110000100000
11111111111111000011101110010101
00000000000110100111000011100001
00000000000010011111100000010110
00000000000110101101100011111100
11111111111111110000001001001100
00000000000001101011000101111101
00000000000100010110110111011111
11111111111101110101101001000100
11111111111011100100101010101000
00000000000110001010110000100111
00000000000000001011000110001110
11111111111111001000101100001011
00000000000111010101100101110010
00000000001000100001010100001100
00000000000000110111101000100101
11111111111010100011001011110100
11111111110111001011000011001100
11111111111011001000011000111111
00000000000000010011100010010000
00000000000011010011000100111110
00000000000001010010001010101101
11111111111110001100110001101010
00000000000010001011100110110111
00000000000010000101100101110000
11111111111100100011110011110001
11111111111010100011000000101000
00000000000000000100100101010101
11111111111010101111110001101010
11111111110101101101100100010001
00000000000011011110001011000010
00000000000100000000011101011011
00000000001000011001011110110111
00000000001001001111010110000000
00000000000111000000100101110000
11111111110111111100111000100100
11111111110011011100001111101010
11111111111000011111011110100101
11111111110111001101100101100101
11111111111010110010010011111111
00000000001011010011010101001011
00000000000100101001110010111001
00000000001101100100110011001111
00000000001101010111110001001011
00000000001011100010111010111000
11111111111101101101100011100110
11111111111111010100100000000010
00000000000011110001001011011100
00000000000000010100010011100000
11111111111011100111100000110100
00000000001011010101011001111010
00000000000100010100101110111100
00000000000001110100000010100011
11111111111100111111000010110110
11111111110000011110011101111000
11111111110110101001111010110000
11111111111111101101000111001100
11111111111111101100000011010111
00000000000010110011100000011000
11111111111010100000011111111000
11111111111111001101000100111010
11111111111101011101110000100000
00000000000100110110110110000010
00000000000111100001101010111010
11111111111011111000000000000010
11111111111101111011010010100100
11111111110111110001010010010101
11111111110101110010011001110100
11111111101010111100101111011000
00000000000100100010010010000110
11111111111000110110111110001011
00000000000001000011100001010010
00000000000000100111001101110100
11111111111111110000000111101011
11111111111010101110110110111011
00000000000001110111011011011010
11111111111100111001001101000111
11111111111100110000111110110100
00000000000010001000101110100111
11111111110010001011110000011001
11111111111011101101100101000001
11111111111101011111000001001000
11111111111111110011100000100100
11111111111010111011100101001001
00000000000001000011100001110001
11111111111000110011010101000011
11111111111111110101001110010110
00000000001100000010000101100010
00000000010000001000010001111011
00000000000101011101010110111101
11111111111010001100001000011101
11111111111111000001001101001011
11111111111101011110010011011000
11111111110101000001111011101010
11111111100110000100101111111101
11111111110111100011001010001011
11111111111111011111100101011010
11111111111010111001011001110101
11111111110101100101000111000101
11111111110000101100001111011011
11111111111011010110101000010011
11111111111111110110011010010011
11111111111101000110010000111111
00000000000010010110111111101111
00000000001100101111011001111000
00000000000100000101010001101101
11111111111001001110110111001011
00000000000100010011111111111010
11111111110011110010100011011110
00000000000000111111100010110110
11111111111001110010011001110110
11111111110011100011110101010000
11111111111000000010100111011011
11111111111000100101101000010010
11111111110100011100110001001111
11111111111111110010011000011101
11111111111010001111011000101001
11111111111101110010101001101110
00000000001111111111011110111110
00000000001100100011011101101001
11111111111101001110100110111111
11111111111011110101100100011001
00000000000000100110110011010001
11111111110101111100111010010100
00000000000110100011001100000110
00000000000100101101111111101011
00000000000110011001000001110111
00000000000010001001110000101001
00000000000100100011101001011000
11111111111011011001100001100110
11111111111001110111010100000110
11111111111111000100110111011111
11111111111110110100011011111101
11111111111110100011100010111001
11111111111001011100000110111011
00000000000010100100100101110111
11111111110001101110000101100010
11111111111100101000110011101101
00000000000101111110100111011001
11111111111100000110110011100011
11111111110101100110110000010001
11111111110111110100001101101101
00000000001000100010001000101000
00000000011001101100110000011000
00000000010011101101101011001011
11111111111000100001000001111100
11111111111010010001110111110110
11111111111110110010101010010001
00000000000000000110111101101001
00000000000101100011011001111001
11111111111011000110101100001001
11111111111010000100011011110111
11111111111100010011000010001010
00000000000100001101111000000001
00000000000010001100111011010110
11111111111010111001101100001001
11111111111100011000011110001010
00000000000100111100111000101000
11111111111111011000111010010000
00000000000010000100101110000001
00000000010011101011100010101001
00000000000011000010110011000100
00000000001000001101001010110100
00000000000111110110101100011101
00000000001001010010111001010001
00000000010000010010010000110010
11111111111001110100100000001111
00000000001010000000110101100000
00000000001001000010110101001101
00000000000011111000100001000110
00000000000000100110000100001000
00000000000000010011010100010011
00000000000110001100101100010001
11111111111111111100110101011011
11111111110101110010111111111110
11111111110100100111110110000011
11111111111100001110011100101001
11111111111111001000001010101100
00000000000000100100101101010011
00000000000110010010101011011111
11111111111110101100000010110110
00000000000011110000110111100101
00000000000100001110011100101111
00000000001100101001000110000010
00000000000101000110101011110100
00000000000001100100101011110100
11111111110011000111110010111111
11111111110001001011111110100000
11111111110000001111111010000111
00000000000001010111111100101000
00000000000010001100001101110100
11111111110010110100011000000101
11111111111000010110010101110100
11111111110011111001000101110010
00000000000011111010011010011001
00000000000000000000010101010001
11111111110111010010001110110000
00000000000101111101110011000110
00000000001001010100111011010010
00000000000111011101110101001001
00000000000101011111101110011111
00000000000001011100001000011101
00000000000010010010100100011100
11111111111111111011001100000000
00000000000000011011000110110000
00000000001001011000101100000110
00000000000011001111101100111111
11111111111101101101110000101010
11111111110111001101100101001110
11111111111001010010001000101110
00000000000000111000100111110101
11111111111101010000010011010011
11111111111100000010110101101011
11111111111101101001010110101111
11111111110100001001100001010011
00000000000001101010110100011100
00000000000111010100101000101010
00000000000110001110100011000011
00000000001100100111110110001001
00000000001100101100101110011110
11111111110101010001110011100001
00000000000110011000001010010001
00000000001010111111111010000110
00000000001000101101100010001111
11111111110110011110111101100100
00000000000000010110001101100100
11111111111110001001100000010000
11111111111111011001000010101101
00000000001001010010101101111111
11111111111110001010111011110000
11111111111011110010100101010001
00000000000010111100001001100001
00000000001000000001100010111001
00000000000011010000000001101101
11111111111101110011100001001110
00000000001100110010000111110111
00000000001001010100110111010000
00000000000100101000110111111111
00000000001001101000100011000101
00000000000010000010000100001001
11111111111001110101011111110100
11111111110001101110011011110001
11111111111111010000001100001110
11111111111111010101101111011111
11111111111011011010010000001101
11111111111110001011110110101010
11111111110111101001110011100011
00000000000111010011111000011010
11111111111100111110100100010110
11111111111000111000011001111101
11111111101000100010001110100100
11111111101001111111100101101111
11111111111110101010001100100001
11111111111010101100011001111100
00000000000110001111010000110001
11111111100011010001101010011010
11111111110101011110011001000000
11111111111110110111010100110110
00000000000001010001001000100011
00000000000110010011000000110100
11111111111010111010101010101110
11111111111000000110011001111111
11111111110101001001000000101000
11111111110100000111101001011000
11111111111101010000010001010010
11111111111100010110110000111101
11111111111001010000100110101110
11111111111001100011101000110011
11111111111100000011000110011110
11111111111000000001000110101100
00000000000011010110111010101001
00000000000011101001110100101010
00000000001010111010010100101010
00000000001111100100000000111110
00000000001001110011001111010111
00000000000001111101111110101111
00000000000001110010010011111100
00000000000010100001010111010001
00000000000100001111010011110000
00000000000101111001001111001110
00000000000011100000001110100000
11111111111110010101101001101101
00000000000110011111101011110000
00000000000010100011100101101001
11111111110101111111100010111010
