11111111110111100001110011001100
11111111111111011111011010111100
00000000000011010100111000111101
00000000000001111111100000100101
11111111111111100010101101110011
11111111101000110001100001100101
11111111110100010011010010101011
00000000000110111111100101000110
00000000000100001101100011010000
11111111111111111000111010110111
00000000000000000001000011010011
11111111111100010111011001100000
00000000000001011111010001011000
11111111111100110100101011001000
11111111111110110000011111100000
00000000000000101101110011111110
00000000000100111100000110100010
00000000000011101100101010000110
00000000000011010110010110010011
11111111110111001101000010111001
00000000000001001100011101101100
00000000000110010011010010000011
00000000000010010011010101101111
00000000000010010110110110001101
11111111111101000101000101011100
11111111101111100110011011101110
11111111110001110011111100100011
11111111110000110111111011000010
11111111111111100101110000000010
11111111111100011111010111000101
11111111111001011000101100000110
11111111111110101101110100110000
11111111110000011011101110101011
00000000000100100000001101000010
00000000000010110100110011011010
00000000000100110111110001101001
11111111111011101100101010010011
11111111111101100110111010000111
00000000000011010011110011110100
00000000000110010001110000100001
00000000000101010111010100011010
00000000000100001100011111110110
00000000000011010000100101000100
11111111111101000111101111110011
00000000000110100100000100011100
11111111111101001011111100111001
00000000001001010100101011011110
00000000000011101111011000001111
00000000000100010110110110001010
00000000001000011010011001110111
00000000000010101010001100010010
11111111111100110110001111001111
00000000000011101100111001000010
00000000000011110100110111111101
11111111111111100100001111101010
11111111111100000110011111100011
00000000000001001100111100100000
00000000000110110010110101011001
00000000000010010111100111101011
00000000000011001101011100001100
11111111111001000011001011011001
11111111111110010111000001000000
11111111111100101010011010010010
00000000000101100101011100010001
00000000000011010100011000010010
11111111111100000100011101010100
11111111111111010101000111011100
11111111111100010001010000111110
11111111111110010101010010110010
11111111111001011110111001110101
11111111111111110010101000011111
11111111111101000011000001011010
11111111111010100011110101000110
11111111111110001111101110110011
11111111111100111010010010101001
11111111111101111001011010111110
11111111111111100101001111010011
11111111111111110100110110001000
00000000000010100011100100111111
11111111111111110111011000011100
11111111111101010001110000111000
00000000000011010011001000011101
00000000000100101100101101110001
00000000000001110110100101011000
00000000000001001110010011100111
11111111111100001001110011000111
00000000000001000101111011000111
11111111111011001111011100110010
11111111111111110110001001001100
11111111111111011001010110110011
11111111111100011111011111110011
11111111111011100111000110100100
00000000000001011100100110110001
00000000000010101011001010111000
11111111111001111111111001101000
11111111111101110000000011010000
11111111111110111101101110101100
11111111111100000111100111000111
00000000000000010011010111110010
11111111111100000111101001110111
11111111111100011100110111100111
11111111111110010010101110111111
11111111111111001010111011100110
11111111111101011111111101110010
11111111111000010000000101001011
11111111110110101101011100001101
00000000000100001011101101011011
11111111111010000100100011101110
00000000000000100001010100101110
11111111111101110010000010011100
11111111110010100100001010111000
11111111111011111100100110011110
11111111111111010111111101111011
11111111111111101000110101111010
11111111110110101010001111001111
00000000000110111000001001110010
11111111111111010000011101111101
11111111111111011001011100110110
00000000000000010111001101000011
00000000000111110000110111011011
00000000001010010000010001101110
11111111111110110100001111101110
00000000000010010010110001100111
00000000000001011010100010101000
00000000000010110100000011101000
11111111111111000010100010111110
11111111111110110100000000011101
00000000000100101100101101010101
00000000000110010000001100010000
00000000000100001001000000101111
11111111111111100101001101110010
00000000000000111101100100100100
11111111111001101101111000101111
11111111111101000111100000011111
00000000000101111111011011001111
11111111111101110111011000101110
00000000001000010011111010111010
00000000000100111100000101101000
11111111110101010110010110110101
11111111111000111001000001110010
11111111111111101001110000000011
00000000001000001110111001101000
00000000000101110100111001010010
11111111110111001110110101011111
11111111111001110001000101101100
00000000000100001011001000101100
00000000000111010100010101111010
00000000000011011110011001010000
11111111111111000011000000111100
11111111111010011100110101010011
00000000000100110101011011111101
00000000000111000100100100011011
00000000000010010001101010110010
00000000000011010110010111000101
00000000001010100011101100110110
11111111110100000000101011010011
11111111111100111101011101111001
00000000000011000000010100101001
11111111111101000100010010001000
11111111111110011001001111011100
11111111111011001001000000101001
11111111111110001000010000111000
11111111101111111001100100110100
11111111110100111011001000011010
11111111110011001110101111011001
11111111111110011111101100011100
00000000000100011100011010011111
11111111111010011111100001001101
11111111110110100101110010100101
11111111110000001001000101010100
00000000001001010100001001000010
00000000000011011001100001010111
11111111111001100101001111011010
11111111110101011011010111000011
11111111101001011111000011100010
00000000000010000101101011101110
11111111111100010000000001111001
00000000000101111011110010110010
00000000000001001110000110111101
00000000001000110001110100110111
11111111110011000000100111010111
00000000000101111001000110101100
11111111111010100101000101000111
00000000001000011101010110011101
00000000000111111100111010011111
11111111111110010011101100001110
00000000000000000101111000010011
11111111111010000011010100010011
00000000000000101010000100010101
00000000000000101011000110111011
11111111111100110101010100011001
00000000000000010101100101010110
00000000000110010001110010000010
00000000000100110111101100000001
11111111111010101101001010111111
00000000000011111000111001101000
00000000000101100100000010000110
11111111111110001001000110100100
00000000010001100000000101100101
11111111111000011011010101101010
00000000000110001001110001000000
00000000000000111001001111000111
00000000000101000001000010000011
11111111111101111010001001011010
11111111111011110010100100001010
11111111111110100110100001111100
00000000000011011010101000011011
11111111111111000100110101101111
11111111110001000000000000101111
11111111111010001001010101101110
11111111111010100011101100011001
00000000001010111100010100100010
00000000000000001010010011111111
11111111111011010000110010000000
11111111101101100010000000000110
11111111111001110001001111011001
00000000000011111000101111001100
00000000000110100001010000011000
00000000001010001101100101001011
11111111111111101000011011110000
11111111111000110111010010110101
00000000000001001100000000010001
00000000000000011001001111100111
00000000001110010001110100011010
00000000010010101001011011001100
11111111111100111010111001100101
00000000000011001010100011101111
11111111111000111001101110001000
00000000000000101110101001100110
00000000000000101000011111010010
11111111111100110011100000110100
11111111111010111001011100010011
00000000000010010101100000001000
11111111111111110001111110101111
00000000000101001110110111111011
00000000000010101010000101000110
00000000000111001111100001110010
11111111111011001000010110111010
11111111101011100111101001011110
00000000000001000010010010111100
11111111111101001111000001101101
00000000000100000001110010100101
00000000000000001111110011101000
11111111111100010011110110001101
11111111111000110101101101101000
00000000000001101011011110101110
00000000000111001100110101000101
11111111111110001100101110110100
00000000000011100110110001111111
11111111111101111101000101100011
11111111111010001101100110010111
00000000000001101010100000101101
11111111111100011001110110000001
00000000000011100011101000101100
11111111111111101101010010000100
11111111111111101010001001110111
11111111110111000100101100110001
11111111111110111110101011010100
11111111111111110111000110011010
11111111111110001111101110110010
00000000000000111001001100001001
11111111110111010110100001011111
00000000000110011010111010100111
11111111111011111111001110110110
11111111111111011101000100100100
11111111111111010011000011000110
00000000000001111101100010001011
00000000000110010010010111001100
11111111111110000101100011010001
11111111110111010111100000001010
11111111111000011010100111001000
00000000000111010110011001110111
00000000000111100011111001111000
00000000001010111010001111011111
00000000001000000010110011010110
11111111111100010101011001001011
11111111111010001011000001101111
00000000000101110111110011001101
00000000000111011010110001100000
00000000000110011100111000111111
11111111111111111011110010010101
11111111111110000001001100010010
00000000000010110011111100101000
11111111111001100100100011001101
00000000000000010101001011011100
11111111111010001011001111011110
11111111111110101010011111100011
00000000000111000001110011010110
00000000001100110111101111100110
11111111111010001100111100001111
00000000000000100110010010111000
00000000001011101001011101011101
00000000000001000101001110001100
11111111111110001111110011010010
11111111111001000001111111011011
00000000000010101011101100100000
00000000000011101100011110011010
00000000001000001000100010011011
00000000000101111010001100101000
11111111111011101100100101100100
11111111110010010011010010100001
11111111111010111110101100011110
11111111111111101110100001100001
11111111111111100011000001101010
00000000001001010111100110101000
11111111110111101010100011100000
00000000000000001010101100001111
00000000000010100010011011011110
11111111111110100111000111011100
11111111111010001011111111100100
00000000001000100110100100010101
11111111110011000001100000100011
00000000000100001110101010100101
00000000000101010110110110110000
11111111111100001101001110001011
00000000000100010101100101001000
11111111110101000101000101001011
11111111111111011010111101100100
00000000000100000010111011010011
00000000000000110100100110001000
00000000001001010100011111001111
11111111110101110010010111000101
11111111111011000111011111001101
11111111111100000101010111001000
00000000000011001010101000100011
11111111111101011110001111001110
00000000000000101100000111010001
00000000000100001001100101011101
11111111111110001010110110101110
00000000000100101001100101000111
00000000000000001101011001111111
11111111111101100100110100001001
11111111111100010101111101011001
11111111111110001011101111010101
00000000000100100001100101010010
11111111110011110111011010111011
00000000000101011100010001010010
00000000001011101001110101101001
11111111111010110110101000000100
11111111110011001010000110110011
00000000000000101110100110111111
00000000000110101001010110100001
11111111111101111000111011101011
11111111110110110111000111011110
11111111110011001111111100101000
00000000000001110000111100100111
00000000000011111101010001010010
00000000001000001100001000101011
11111111111001011010110011100000
11111111110110011010110110001000
11111111101000100001001110101101
11111111110110011110101110101110
00000000000101111100101101100100
11111111111110110100000010100000
11111111111101100000100111101111
11111111111001100010100111010111
11111111111110011011111110111110
11111111111010011100001101110110
00000000001100011000111110000110
00000000000100101100101001101110
11111111110000001010001010010001
11111111111001011110001100100111
00000000000000101001000000001110
00000000000011010010101000100001
00000000000011111001100010100101
11111111110010001001111100101011
11111111111110111100000101001000
00000000000111001110111001100110
00000000000001010001000111010001
00000000000011100100010010001011
11111111111010000011100110001101
11111111111110011111000101001110
00000000000001110000011000101100
00000000000100010001100111100111
00000000000001111000101011110100
11111111111011100010011101110010
00000000000010001111111110000110
00000000000001001001010110101001
00000000000111001011000010011010
00000000001010101010011111100110
11111111111010101011111001011001
00000000000000010001100110100000
00000000000010001110001000110110
11111111111110001101111110000100
00000000000000001100000011000101
11111111111111010111111100000010
11111111111011011010111101010110
11111111111110101100010100011011
11111111111101011000110011110111
11111111111011111001010111011111
00000000000001000100100001001100
11111111110110001011001110010100
11111111110101111010010100000100
11111111111110111111011010110111
11111111110111001111010100010110
00000000000101111111100001001011
00000000000001100000010100001111
11111111111001000101011001101000
11111111111000010001111111011011
11111111110101001010010100101100
