11111111110110110010000101101000
00000000000011110100111001101000
00000000001111001110100011001111
00000000000110100011111101000001
11111111110011101111011010100001
11111111111110000101000000011110
11111111110011011010011111001110
11111111111000001011100101001110
00000000000010110001110110100001
00000000000110101011010111010110
11111111110010110110111001011111
11111111110101000111010011111111
11111111111011111110110011000101
11111111111100111010100000100110
00000000000000001111110011001111
11111111111111010111110010111101
00000000000101100011100111100111
00000000001010011001110000010000
11111111111000000100011010111100
11111111110001111100001001011111
00000000000011100001101100111100
11111111111111111100001000111011
00000000000110001010110101111111
11111111111100010100111100000111
11111111111100111001100101101000
00000000001100000100110111011011
00000000001011101001011011111101
00000000000110010010001111010010
00000000000001111001110001011101
00000000000100101101010001100010
00000000000111111010010100100101
00000000001100001101111010010101
00000000000111100101010011010101
00000000000101111011111011010101
11111111111001100110100101001111
11111111111110100011001000010000
00000000000010011000110011001110
11111111111110010101001110010001
00000000001010001001000101101111
11111111111100001011010101111110
11111111111000111011000000101111
11111111110000100011011001011000
00000000000110100000001001101111
00000000000100000001101011010010
00000000000000000000010011010100
11111111111010011001100000100110
11111111111110011101110001001011
00000000001011000100101100101110
00000000000001101101000000001001
11111111110111110101101101110110
00000000000010101011111001011000
11111111111010011101010110100000
11111111111011111000010110011101
11111111111110001111101111000001
00000000000001110110001111010000
00000000000010101111110110011001
11111111111111000010000111100111
00000000000100111110110011010111
11111111111100000111111110100000
11111111111111100011000011101010
00000000001010101011101100100000
00000000000101010111111001010101
00000000000010011011101010101001
11111111111101011000011001001000
11111111111001010011010011001100
00000000000010010001100000101110
11111111111101111111011111011000
00000000000000011101101001011100
11111111111110100111010111101100
00000000000010110010100110110011
11111111111110010011000000110011
00000000000010111010110110010001
00000000000000010010011000101111
00000000000010011100110101100100
00000000000001010001110010110101
11111111110111100101010010001010
11111111111010101100010110011010
11111111111001111000010010001111
11111111111100001011001001100110
11111111111110111101000111110111
00000000000000001110010110000010
11111111111101110110110001001100
00000000000100110101111110101100
00000000000110101000110011111001
11111111111011111111101110111001
00000000000101010010110000001001
00000000000110100111001110010011
00000000000101110100100011110001
00000000000001001100110011000010
11111111111111000010010011010101
11111111111111011001100000011000
00000000000110010011100011001001
11111111111110010101000100000011
11111111111011101100111010110100
00000000000000100011110110110011
00000000000011010111101011111011
00000000000100001111100110110111
00000000000101000000000001101110
11111111111101110110100000101010
11111111111100011100010111101100
11111111111110101000001101011110
11111111111111101010000111011000
11111111111100011110010110000010
11111111111101110111011110000000
00000000000101110011101111111111
11111111111111101011010010111011
11111111111111010101010001001110
00000000000011001001001000011101
11111111111010010100100100000110
00000000000001000001100010111110
11111111111011011111100110110110
00000000000001101111100011111110
00000000001000111110000101101100
11111111111101010101101101010010
00000000001111010011001000011101
11111111111111001100000010100000
00000000000010111010001100100111
11111111111101110001101110000100
00000000000010000100111111011001
00000000000001111000110010101110
00000000000110110100110100011010
00000000000000111010011011110000
11111111111000100001011010010011
00000000000010001010001000110111
11111111111110010011000101011000
11111111110011111010110100110011
11111111101110010101000011100101
11111111110010100110011001111010
11111111110000111111111010111011
00000000000111010011101000011110
11111111110111000001011011111110
11111111111100000000001110101101
11111111111111101000101001110100
11111111111010101010000010110100
00000000000100110111110010110001
11111111110001101100000000110000
11111111111101000111000000111000
11111111111010000000100100111001
11111111111101001110001111110111
00000000000001100001101000111000
11111111111110010101111110011110
00000000000010001001011110100111
00000000000010101111010101100001
00000000000001000000011011100011
11111111111010101001011110101101
00000000000000110011101111000001
00000000000010100100111011101011
00000000000101010100011111101111
00000000000001001011101100000010
11111111111000101101011111110111
00000000000000010101110001111110
11111111111100011010010111000111
11111111111110000101011111001101
11111111111101011100110001001101
00000000000001010011010100111111
00000000000000001100010101010100
11111111111001010010010101110010
00000000000011001011001110100111
00000000001000011011101001110100
00000000000001110010100001110000
11111111111100000010100010001010
00000000000111010111101101010000
00000000001100000111001011001110
00000000001111110111010010010111
11111111110100100101110100001110
11111111111110110111010000111111
00000000000110001011010010100110
00000000000011100000001011111010
11111111111100010001010011010010
11111111101110101100100101111111
00000000000011001110011101011101
00000000000110011000100110000101
00000000000110011000101000001101
11111111111001011100001010011100
11111111110101011111001101110011
00000000000111001111010111011110
00000000000010100011011010011000
11111111111110111111000110101001
11111111110010011001111111001001
00000000000111010000001101101111
11111111111101011010100111001010
11111111101110000101001111111001
11111111110101101100000000011001
11111111111010010001110111100100
11111111110100111001010010011011
11111111111111001111000000100110
00000000000010010011000101101100
00000000000000000100111011011011
11111111110110001010101100100001
11111111110110001101000011100001
00000000001000000010111000100010
00000000001000010000001001010000
11111111110111000000000001001001
11111111101111100000100101111111
11111111111100110001000000010001
00000000000000011100101001101011
11111111111100000101011100000110
00000000000000100110111010101000
11111111111111000100000101100011
11111111111000110101000101000111
00000000000011011011011110010001
00000000000011001010000101111111
00000000001001101011011010110110
00000000001000010011001101110110
00000000001111100101110101110101
00000000000101011010010010011010
11111111111111100000011010100110
11111111111000100000111011011011
11111111111010101000101001000110
11111111111100100001110010111001
11111111111101110100000001110000
00000000000010101010101100110000
00000000000101011010101011100000
11111111110110110111100111111010
00000000000000110111010111110111
11111111111110010010011010001100
00000000000010110111010001101000
11111111111111101010110111000010
11111111101111011001100111011011
00000000000100110110100011001100
00000000000000100110101100110111
11111111111110000100111101011001
11111111111100001000000101111011
00000000001011010100001010000101
00000000011000001011110100111011
00000000000001100100001101000001
11111111111100100110110101010011
11111111111110110010001001101000
11111111111110000100101000000110
11111111111010001010100000000000
00000000000100110001111100000111
00000000000101100001101011000111
11111111111011000101110011000000
00000000001100011010010101101111
00000000000110010100000101010100
00000000000010101100100111110101
00000000000010010001111011001000
00000000000100001001010000101000
00000000001011011010111001010101
11111111111100001110001100101011
11111111111110111111111001111101
00000000000111100010011010111110
00000000000101110101101010011000
11111111111001100010011100011111
11111111101111110101001111011010
00000000000010101011011010101110
11111111111110101101000110011110
11111111111100011001110100001010
11111111111101010101000001110011
11111111101101110000111100011000
11111111111011111101111111100100
00000000000001110101011111101000
00000000000001110110000011001111
00000000000100011010110110000011
11111111111110001011000011001001
11111111111111000110010111010100
00000000001001000001001100100011
00000000000011111001011000000100
00000000000100111101001000001101
00000000000100111111000100011010
00000000000100100111011100011111
00000000000001101010001111011011
11111111111111100001100111100011
11111111111001011011100110001000
00000000000100001100110001101110
11111111111110111010010101010110
00000000000000001111100001110101
00000000000000001010110011100111
11111111111110111101101001000000
11111111110111101011101001110101
11111111110101100010110010101010
00000000000001010101001001010010
11111111111110110000000111010000
11111111110101100111010111101111
11111111110110000110000001001001
00000000000010101100110010011100
00000000000100010101100101000100
00000000001111010111011100100001
00000000000101000111111011111111
00000000000110011001001101110011
11111111111110110011100111010010
11111111101111100001001100111010
00000000000110101000011001000011
11111111111010101110110110101000
11111111111111001011110011101001
11111111101101111101001000100000
11111111100111100110111101111110
11111111111100010110011100111000
00000000000101010110110001111011
00000000000010100111100101101101
11111111110010101111100100101101
11111111110011111110100000001001
00000000000011010100000110010001
00000000001000111001001100000000
11111111111110101101000010010001
11111111110001001101000110110011
00000000000000111110110101001001
00000000000011010101001000110001
11111111111010011011101000100010
11111111110011011101000110100011
11111111110001100010010100001101
11111111111010110000010001010111
11111111110110111111100010111101
00000000000110001000111000110111
11111111111010011101110101100001
11111111101111000000100010011110
11111111111011011001011100111100
00000000000100011000100001001110
11111111111101011001001111100100
11111111111100101110010111110000
00000000001010011101010010010011
00000000011011000110000101010001
00000000001110011011101101001110
11111111111011100100111001111010
00000000000100001011000110001100
00000000001101111110111110001101
00000000001100010111111101110111
11111111111010010010000100010011
00000000000010001101010101000100
00000000000001101101100111100011
00000000001000111100001011001010
11111111111110000111011101101110
11111111111000111100010100010011
11111111111100101001101100010011
00000000000111110111001110100110
00000000000110100100011001001001
11111111111111010000000010111010
00000000000101100110100111111011
00000000000010111001111110000110
11111111111100010011010010111001
11111111111010011111010111100011
11111111111010000001101010100001
11111111111001111110101000010000
00000000000000011010011001010001
00000000000000000100101100011010
11111111111000001010110101001001
11111111110111001111010001000101
11111111111011011111101001101101
00000000001111000010001010101000
00000000001010100001001111101000
11111111110110011111110011101010
11111111111101111011001100010010
00000000001010001110100111011000
00000000000100011011000001110110
11111111111101101111100110111100
11111111111111011101110101100000
11111111111110011010011001110000
11111111111011111100100101101000
11111111111100111100110101110111
11111111110011010001011010001111
00000000000111101001110101100110
00000000000111010100100110110100
11111111111100100100001000110010
00000000000010001100100000000110
11111111111111011100101010000011
00000000010010101011111100000000
00000000001100110101101100111011
00000000000010001110010011100001
11111111111000111100101110111101
11111111111010001100001101000111
00000000000101011011101101110111
00000000000111101110110010110011
11111111111001001111000001100111
00000000000010100011111111101100
00000000000011101000011100000101
11111111111011010110111101100110
11111111110110000101111001101000
00000000000000001101110101010100
00000000000110111111111010011000
00000000000010101010011111000001
11111111111001000111110111010010
11111111111110001110000010100001
11111111111101010100010100011110
00000000000000111011000100000010
00000000000001110100110011111010
11111111111010110111101110000001
11111111111010001001101100000110
11111111111010010100110010011001
11111111111111100100101000111110
11111111111100010000000100101010
11111111110111100010101011010000
11111111111000000000011100100001
11111111111100000101010111110000
11111111111011000011000110110110
11111111111101001001000110010110
00000000000111111111011010000011
00000000000110000110010110101011
11111111111111000100111111000000
11111111110110100010000010000001
11111111111100110001111000001111
00000000001011100110101000101000
00000000001011101111010111010101
00000000000010100010010111000100
11111111111110100110011010101010
00000000000000010110100110000111
00000000001000000101100001011011
11111111111100011100011111111001
11111111111000110110011110001100
11111111110111110110101110001010
11111111110110100001101100111100
