00000000000001000001101101101000
11111111111100001000010111101001
00000000000010001101111000100100
00000000000000101011011101011100
11111111111111101010110110100111
11111111111111010111110110100000
11111111111101000101011010111010
11111111111110000100010000011011
11111111111110010001111101111111
11111111111100011011110011010011
11111111111111101110010110010100
00000000000001100000000000101011
00000000000010001100111110010000
11111111111110011010100110001101
11111111111100101001111100110011
11111111111101001011100011011111
00000000000000110001001011110001
00000000000010010100001001011100
11111111111101100101111011101000
11111111111110000011111001111100
11111111111111011110100100101110
00000000000001111010100001100010
00000000000000100100000010011100
11111111111101110001010011010011
11111111111111000101011011111010
11111111111100011010000100011101
00000000000010001111000100010001
11111111111110111011101010110110
11111111111110101000100011010011
11111111111100011001100111111001
11111111111101010100101001100011
11111111111110111111001011100111
11111111111101011000101111001010
00000000000000110111001100110111
11111111111110110111111111010011
11111111111100000110011110011000
00000000000001000001111000000101
11111111111111010001001100000101
11111111111100110001001111010110
11111111111101100100011010110011
00000000000001100011110010110111
00000000000001101110001010010100
00000000000000010011010110011010
11111111111101111011001001101100
00000000000001011011111100001011
11111111111101100010100110011010
11111111111110010111000100001111
11111111111111100000110101011010
11111111111100110100011000000000
11111111111101000100111111100000
00000000000000011000101110111001
11111111111111011010110000110101
11111111111111000000100000000011
11111111111101001110010111010001
00000000000001011011000110010011
00000000000001101100001010110010
11111111111111000011101111101010
11111111111100100011110010100011
00000000000001101110010110000100
00000000000010010111010000111100
11111111111100110111001001011010
11111111111111101100010011101101
11111111111111000110000110100001
11111111111110110000001110011000
00000000000000101100111100111000
00000000000001111000101111001110
11111111111111101000010010001011
11111111111111101000000111100110
11111111111110000101101000001101
11111111111101101001010000000110
11111111111101100011000110100010
11111111111100100010001111010100
11111111111110101110000101000000
00000000000001111010001011110000
11111111111110010111011100011000
11111111111111110110111001101110
11111111111111001001100001101101
11111111111110001101011100101000
00000000000000110001101010110001
11111111111110001100101000011011
11111111111110101111010000011101
11111111111110001100110001110100
11111111111101010011001011011010
11111111111101000100111010001101
00000000000001100111110001011101
00000000000010011000110011101101
11111111111100101000000110110010
00000000000010001000010111111111
00000000000000100011111100001100
11111111111111110101010110101001
00000000000001000100100100011000
11111111111110100000100010011011
00000000000001001101100100111110
00000000000001111100110011111010
00000000000001000101000111101000
11111111111100110010001011100110
00000000000001110111010010011110
11111111111110010000001111100000
11111111111111010000010001101110
00000000000010000011111011000001
00000000000010001101111101000010
00000000000010011011011010000000
11111111111100011101001111001010
11111111111100010110000000000000
00000000000010001010100010101011
11111111111100111111011001110110
00000000000000101010111110101111
00000000000000001011010000000111
00000000000001010010010010011000
11111111111110001011101010010011
11111111111100110111001001000000
11111111111100011110100111110110
00000000000001111101010010000101
00000000000000010110100101110100
00000000000010010100100010111010
11111111111100010000101001001001
11111111111110010101100010101111
11111111111101000110000110101010
11111111111110001000001001000101
11111111111100110110101111100011
11111111111100100110001101101110
11111111111100011101010011001101
11111111111110010010011000101101
11111111111101011000111111010001
00000000000001001101011011011101
00000000000001110111010010000111
00000000000001100001100001100111
00000000000000100100101001011001
00000000000000111010000011001010
00000000000010011100111011010110
11111111111110100111100100101100
11111111111111100110000001111100
11111111111101011010001000100110
11111111111111000110011110101111
11111111111101010101000111011110
00000000000010111111010100101001
11111111111111010000100111111010
11111111111100111110011111100100
11111111111100011001100101110100
11111111111101100000110001111010
11111111111110110111100000101101
11111111111100110111110101001110
11111111111111011001100111001010
11111111111110010001100111100101
11111111111110110011001000000001
00000000000001100100111101000110
11111111111111010000110110111011
11111111111111101111110001101111
00000000000001010100110001011111
11111111111100110001100011101100
11111111111111000111100100001110
00000000000010000000010011010111
00000000000001101101111101001100
11111111111111110100100000100110
00000000000010001101101101101010
11111111111110110111000001101101
11111111111111110110001101101011
00000000000001110011110100100101
00000000000000100100100001010110
11111111111101001001011010010000
11111111111100100100010001110110
11111111111100000110010110010010
11111111111100000111111001001110
11111111111100100101001010001010
11111111111100010101000001101101
00000000000001001111110100001011
11111111111110011001010110011110
11111111111101100110101001101100
11111111111101010110110110011100
11111111111110000101111100001100
11111111111110110000111010001100
11111111111110011100110110111001
00000000000001110111101011001000
00000000000000001010100101000110
11111111111100100011111110000011
11111111111101011111010011010110
11111111111111010011101110111010
00000000000001100001000101100101
11111111111110010011010101100101
11111111111111000110100010100110
11111111111101100101100101001000
00000000000001100001010101000000
00000000000000110010111110100011
00000000000000111111010110111001
00000000000000001011101001000101
11111111111111010110111110100110
00000000000001110111001010010010
00000000000001000001011001101000
11111111111111001100001111010011
11111111111101111001100010110010
00000000000000010110111001010110
11111111111111010010111010101101
11111111111110011011010000110110
00000000000010000110101010101111
11111111111100100110100011001001
00000000000001101111101100100111
00000000000000101011100111101100
00000000000010001011111110000011
11111111111100110110011110100101
11111111111100000100101101100110
00000000000000100101010101000001
11111111111100111100001100001010
11111111111111010111001000011111
00000000000010010101110101000001
00000000000010110001001110100101
11111111111111110100101110011000
00000000000001010001000101011011
11111111111101101101100001001001
11111111111111000111101010011101
11111111111100111110111101100110
11111111111101111011000100100011
11111111111110000100101001110001
11111111111100100010101111111001
00000000000010100011111011111101
11111111111110011000010111111001
11111111111111010000100110000011
11111111111101011100111111001100
11111111111101111110000111100100
11111111111100111111001110011101
00000000000000111100001000111101
11111111111110111100100100001001
00000000000001011110101110111000
11111111111101110101000011010111
11111111111111100111100101010100
00000000000000000010001010011011
00000000000001001001101001110010
00000000000000111000011000000101
00000000000000001001101111000101
11111111111111011101111011111000
00000000000000000100100100111000
11111111111110011101001001010100
11111111111100110000011110111011
11111111111100011101111110100011
11111111111111010110011010111010
11111111111101010101110010110001
11111111111110000010000001100101
11111111111110110001010101111110
11111111111111001111011010011011
11111111111110001010011101010111
00000000000000100000010101111100
11111111111100000101000001111101
11111111111110010101010000110011
11111111111110011001011011001100
11111111111100111101111011011101
11111111111110011101101001000110
11111111111110010111100111100011
11111111111101111000011110011100
11111111111101110001011001011001
11111111111110011111111110011100
11111111111100100000000100000000
11111111111110011010110010011101
00000000000001100101111101010010
11111111111111001100110011001100
11111111111110100000101101001000
11111111111110111100100010011000
11111111111100100101110101100101
11111111111111111010110111101010
11111111111110100101101000000010
00000000000001100000111111011000
00000000000000100010111100001101
11111111111100111000111000001001
11111111111100011011000100010101
11111111111101111110000110011111
11111111111100001011100100010111
00000000000000011010001010101110
00000000000010011100010100110110
00000000000000100010010010110100
11111111111111011000110101100101
00000000000001010010100011100010
11111111111110111110100010011001
11111111111100010000001010101100
00000000000001001010111111010001
00000000000000001010011011000110
11111111111101100000111100010001
00000000000010010011000010110111
11111111111111001100010101000100
11111111111110000010110000101111
11111111111100011001101010000100
00000000000000110001011101000000
00000000000001111010101110110111
11111111111111010011111111111111
00000000000000010011110101001110
11111111111100010001110000001110
11111111111101111011100111101010
00000000000001000110111010101011
11111111111100101010000001011101
00000000000001100011100110000011
11111111111110001001001100110000
00000000000010010001010101100000
00000000000001010111001011010100
11111111111101100111110010111101
11111111111110100011111000100000
11111111111101001111111100011000
11111111111110110000000110110000
11111111111110101100100110000110
00000000000001001111000011100110
00000000000001011011101010001000
00000000000000011011001110110001
11111111111110011101010111101110
00000000000001110001100001000000
00000000000010000011110110000111
11111111111101011010010001111001
00000000000001000100010101111101
11111111111111001001101100100010
11111111111100001010011011011100
00000000000001101110011100101011
11111111111100101111010111110010
11111111111110111011011011101111
11111111111111000000010101011110
11111111111101110101111000101010
00000000000010001100001110110000
11111111111101000100100011000000
11111111111110001111110101001111
11111111111100010100001110001001
00000000000010010111110010011101
11111111111101111101101100000011
11111111111100100100000111111010
00000000000001101000011100000010
11111111111101101010011111001110
00000000000000110100111100000010
11111111111100001101110000110111
11111111111100001101110110110110
11111111111110100001011110010010
00000000000010010111100101100101
11111111111100111010001100110010
00000000000000011100100001010101
00000000000001101100111111011101
00000000000001101010001000111111
11111111111111110010010111100001
00000000000001111111111101001111
11111111111110100001110100010010
11111111111101010010001000000110
00000000000010010001010011010101
11111111111110010010110010111111
11111111111100101011111101111110
11111111111101110000010000100101
00000000000001001000001101011001
11111111111111001101111101001110
11111111111111111000011001100110
11111111111100101111001111000010
11111111111111101111000010110010
11111111111100001111110001000100
11111111111111110010111010111001
11111111111101010000011110000001
11111111111110000110101001001010
11111111111100110010011011110011
11111111111111111100011011100011
00000000000001001001001010100101
11111111111110001111111011000011
11111111111110111111001101010111
00000000000000101100100001101010
00000000000010001101000100011010
00000000000010111000111110111111
00000000000010000101111000001010
11111111111110001000001101001111
11111111111101010111111100100101
00000000000000101100101111010011
11111111111111101000010100100010
00000000000001001100010011100011
11111111111100010000010101111001
00000000000000010010010011001101
11111111111111110011110000010100
11111111111111100011100101101111
11111111111100011000001100001000
00000000000001111110000000011001
00000000000000100011010100101110
00000000000010011010011010000111
00000000000000000100100101000000
00000000000001000001101101101010
11111111111110101000110000101110
11111111111101101101011001101010
11111111111110100110101000001111
00000000000001011010101101011111
00000000000001010101111000001111
00000000000001110001011000011111
00000000000001010000110110000110
11111111111110000000111100011010
11111111111101110110101110011110
11111111111111111000101000010001
00000000000000111010011100110010
00000000000000000101001110011001
11111111111101100110010000001010
11111111111100010111010111100100
00000000000010001111010111001101
00000000000000101101101110110101
11111111111100100110100000000010
11111111111100111101000110001100
00000000000001101101001111110001
11111111111100101101000010110011
11111111111100110100111110111100
00000000000001111110111001000010
00000000000001101101001010111100
11111111111110101101110111010101
00000000000000110011111110010101
00000000000000011000000010000011
00000000000000011110101001001110
11111111111100111001110111000110
00000000000001000010111110111010
11111111111100100100100010000001
00000000000000010000000111000010
