11111111110101010110011100001100
00000000001000111011010110111110
00000000000100101011010011111101
00000000001011001111000010001110
11111111111011010010100010001100
11111111110010011101000100010000
00000000000000000111011000111001
00000000000011101110001110010110
00000000000010011011010111111010
11111111111110000111001111100011
11111111111110100100000001010111
00000000000000010011010010000101
00000000000011100110001101111011
11111111111111010000111001010100
11111111111100111100011101101011
00000000000100011010011111111000
00000000000001010001100001100000
11111111111111010111010010010011
00000000000100110011011110000011
00000000000101011000101001001101
11111111111111111010001000011011
00000000000110110000000011011101
11111111111111100100111011110101
11111111111100111100000100001000
11111111111100001101010000011101
11111111111000111100000110101011
11111111110001111100000110110100
11111111101110011001110111000101
00000000000000101110101001000111
00000000000001110100010110111110
00000000000101010001111001011110
11111111111010001110100110100110
00000000000000010001100101101001
11111111111100001011111001010001
00000000000001100011010001011100
00000000000110100010010000011100
00000000000110111001010111110011
11111111111110101011011000011101
00000000000100111101111111001111
00000000000010010000111110110111
11111111111011011010000011000101
11111111110100000000000111101010
11111111111110001010000111101100
00000000000110010011001111000001
11111111111010100011100100011001
11111111110110011110001000111100
00000000001010110100101111010110
11111111111101010000001100000101
00000000001000110011010100011101
11111111111111111100001101001010
00000000000001010001001111100110
11111111111010010101011110011011
00000000000010100011000011000010
00000000010110010110010011001000
00000000000111110000001100010010
11111111111011011010010111101000
11111111111011001111000110100010
11111111111110100110010000111100
00000000001000010111011001111110
00000000001100110111001000011001
11111111110110111011010110111011
11111111111110010010010110100100
11111111111101000101000000101011
00000000000111001010101110000011
00000000000010101110000101111101
11111111111101000101000111101100
11111111111011101001100011100011
00000000000001110011111000011100
00000000000110001110101111000111
11111111111100000101011000010100
11111111111100101010111011110111
11111111111111110111011000000110
11111111111110010011100010011100
00000000000000010000010010001111
11111111111100001111100001110110
11111111111100101100101010101011
00000000000001010101111101011100
00000000000000001001101011000101
00000000000011011110100111101000
11111111111100101010001111001010
00000000000000110000101101000011
00000000000010000100001110111101
11111111111010011101010010111110
11111111111101100011000100101011
00000000000011001011001110100101
11111111111111001010111100100100
11111111111111011010001001011110
11111111111100001110110111111100
11111111111010110111110001001101
11111111111010111111000010110000
11111111111100011010000100010111
11111111111101110011110101110000
11111111111110010010101010111011
11111111111111101101000010010001
11111111111111011000010111111100
00000000000010100111001001110000
00000000000000110000111011110000
11111111111110011101010111011010
00000000000101101010111011101111
11111111111111110010111110000000
11111111110010010000011110001011
00000000000010110100011100100010
11111111111101000101110001101010
00000000001001000001010101100011
11111111111100111101110011000010
11111111111111111101010110101010
11111111111100110111001111000101
11111111111100110101100001001110
11111111111010100000001001010011
11111111111001110101101101101000
11111111111010010011011111011011
11111111111000001010101010010001
11111111111010011100111100010001
00000000000000100001001010110011
11111111111101000100100111001011
11111111111101001110011000001011
00000000000010011010001111100111
11111111111010101011101010001101
11111111111010001010000101010010
11111111111111010110111101111111
00000000000101111000101000110110
00000000000001101001011000001001
00000000000101110011011100000110
00000000000011110100100000101100
11111111111011011001101111101100
00000000000101011111010110101100
00000000000100100101010001110110
00000000000010101110011101000001
00000000001101111000011010110011
11111111111100010110001011001010
11111111111100110000110001010101
00000000000100111101111011010100
11111111111111100010011101101111
11111111111100001111110000100011
11111111111101110001100000001111
00000000000010001100100110011100
00000000000000111111110111010010
11111111111100110010101010101001
11111111111100010110001110111110
00000000000000111010110101010101
00000000001010001100111011010100
00000000000011001010111001011100
11111111111010001011011001000010
11111111111101101111101011010000
00000000000011010100100100101100
11111111111101010101101000111011
00000000000001110001010001000000
11111111111100111101100100001010
11111111111001111101000111010111
11111111111110010111101111011101
00000000000010011101111101110000
00000000000100100010100001110111
11111111111101010010001111011001
11111111111001110010100000000101
11111111111000000100000000010010
00000000000110000010010000001111
00000000000010111000101101010000
11111111110111100010101011010000
11111111111000001111100011001010
11111111111110110000011011001110
00000000000100000111110011011110
00000000000010100101001000000010
11111111111001010100001101101000
11111111101101000000111101000110
11111111101110011001011100101100
11111111111110010101101011001110
11111111111111000011100111010110
11111111111001100110000101100010
11111111110100100100100011111010
11111111111100111100000001011000
00000000000110000001010011000111
00000000001000100011101010011000
11111111111110100010111010100111
00000000000111011111111001001010
00000000001001100010011111100011
11111111111101111011100000110111
00000000000110110101100010011000
00000000001010011010001110111101
00000000000100110101111100000101
00000000000001111000100111010101
11111111111110010111000111100100
00000000000011100111010001001101
00000000000001000000111001001111
00000000000001100100101000000101
11111111111110000110110011011010
11111111110011111101100101110101
11111111111001011110101010100100
11111111111111100001010011000000
00000000000110110001010111000001
11111111110100111010110001100101
11111111111110000101000101000000
11111111111110111010001000000011
11111111111101110010000100101010
00000000000011111111001000011110
11111111111111111000010111000000
11111111111110010010101000011000
00000000000100100001100101011011
00000000000000101011100101100100
00000000000100011001010011010111
11111111111011110011000010000001
11111111110001001101101001011011
00000000000100111001000100100100
00000000001101001101110011010010
00000000000100011011001111010110
11111111110111000010100101110001
11111111111000001001101001110001
00000000001000001100010011010100
00000000000000101100111101001100
00000000000010010010100100001000
11111111111001001100110001111111
11111111110100010001110111010010
00000000000000011100011010101000
00000000000011011011110011010110
11111111111011111110101001001010
11111111111001000011101011010001
11111111111000011101011000001000
00000000000011111110101111001101
00000000000000010000100110011100
00000000000010101100100101001101
00000000000100011000001010011011
11111111111110001001111101001000
00000000001000100101101011011101
00000000000011011001010101110000
11111111111100111000110101100000
00000000000111011001110010110110
00000000000010001010100110000100
11111111111111011111110010001110
11111111111111010010101000000110
11111111111001110011011111100001
11111111110110010101010010011100
11111111111001111011101100010010
00000000000000001100101101111101
00000000000010111010000000101011
11111111101110011010010001000001
00000000000001000001111001100001
11111111111010100011000110010001
00000000000001111100111100101001
11111111111110101111111101110110
11111111110110111110000101011000
11111111101100110100100110001111
00000000000110011110001010111010
00000000000101110110111100111001
00000000000100110011110111010110
00000000000001100100100100100100
11111111111111000100011110110001
00000000000100000110010001100001
00000000001000110110011011010010
00000000000110001110101101101111
11111111111010010000100001111100
00000000001001000100111001100010
11111111111111101110111000011011
11111111110010100110111001111010
11111111111111101100110010110101
00000000000110111010100111100010
00000000000011110000000101101001
11111111111110000111010100111011
11111111110101111000010110110101
00000000000100100010000110101010
00000000000100010001110111110100
11111111111100101111100001111101
11111111110011101101010101101101
11111111110101110111010110100000
11111111111010010001100101100100
11111111111100011101011110101011
11111111111010011100111010100001
11111111110011100011011011101011
11111111110101100111100010111110
11111111111001010000101101001001
11111111111001100011010010000110
00000000001000000011111000000001
11111111111011100100011001101110
00000000000101101010101111101100
00000000000100010010100010000110
11111111111110011010111100010101
00000000001111010111101110000001
11111111111111110010011011111000
11111111110111110111100000101011
00000000000111110100001011110100
00000000000100111101010111010101
00000000000000011001001001100100
00000000000101001001001011010101
11111111111111100011110101000100
00000000000111111001100101101111
00000000000010010010111001000111
11111111111110011001101011000111
00000000001000001100011011011000
00000000000100011001111000111001
11111111111110101100110000010101
00000000000010110011100101000010
00000000000000111001000010000111
00000000000010100101111110010101
11111111111111010110111000110001
00000000000001110010001101011110
00000000000000000101111110101000
11111111110110000001100011101000
11111111111001110100010000111100
11111111111110100000011101000101
00000000000101100010110001100100
00000000000010110010111111000100
00000000000011111010010001101010
11111111111100110010111101110011
11111111111001000110001111010111
00000000001010000000110010000000
11111111111011000001100010010011
00000000000100100011101101101101
11111111111111011000101100011001
11111111101110110000010101000001
11111111111111111101111111010110
00000000001110000010010110101000
11111111111111001111100011011011
00000000001010010000001110000011
11111111110111010100000110000011
11111111111011001000011000101100
00000000000000101101110110110001
00000000000011000101011001110000
00000000001010000111001110110000
00000000000001000011010010011011
00000000000101110001011000011010
11111111110111000000111110010010
11111111111011111101111101110011
00000000001101011101110010110100
00000000000100001111111110001011
00000000001010010010111111110110
00000000000011101000111110110011
11111111111101100101101000110101
11111111111110010001100001000001
11111111111100000000010101011101
00000000000001011110110001111101
11111111111110010001101010110001
00000000000000011001010001100101
00000000000001011100111111010111
00000000001111000100101110111111
00000000000110000011100100011011
11111111111001000000011010011101
00000000000011111110001011001000
11111111111110100100010001011101
00000000000001001000110100101000
00000000000000001000001000111101
11111111111111011111100110111100
11111111110110111011111110001111
11111111110100110111101111001100
11111111110100101001100011101000
11111111110010111001010111111100
11111111110100101001100001101111
11111111111000011011110101100111
11111111111011010110100101110111
00000000000101110000101100100100
00000000000110011110100001101110
00000000000101010110001000100101
00000000001000111011110011001111
00000000000010100100110011001001
11111111101110101100100001111100
00000000000010111111111000100100
00000000001001011011101000111101
00000000000101001010011000000000
11111111110101111001101101011011
11111111101100101101100011010111
11111111111101010100010110101100
00000000001010101000000111111000
00000000000100111000101100110111
11111111111001001100110100100101
11111111111001001011011100001001
00000000000011101111001000011000
00000000000100101011001000101111
00000000000110111010011110111101
11111111101111100101100000010100
11111111110101001010111011110000
11111111111100110100111001001011
00000000000101010111110000010001
11111111111010100001100000001100
11111111101110000011010110000011
11111111111010010010100101110100
00000000000010011100100100011111
00000000000001010111111111010001
11111111111100111101110000110110
11111111111101100111100111111001
11111111111110110000111001011101
11111111111100111000011111101101
11111111111101101111110001011010
11111111111101011010111101111010
11111111111101001010000000010100
11111111111110001101101000011011
00000000000000100101110100000101
00000000000010000001001001001110
00000000000000111101101110101101
00000000000111110101001101111001
00000000000010101011010010000111
11111111111011010100011011111001
00000000000001011001111111010010
00000000000001010001100101000010
00000000000110110010111001010000
00000000000011010000101110110111
11111111110100110101110100000110
11111111110110111010111111001110
11111111110100100000110111110001
00000000001100100111111110111110
00000000000011110000011011110000
00000000000011110110100001001010
00000000000101111101000010101111
11111111111101010101101000111000
