11111111110111001101010101110110
11111111111010101111110001110100
00000000010010000000111101111001
00000000000000111100110001100101
11111111111010100010000101011001
11111111111111100100100010110000
00000000000000110001010010111101
00000000000101111110000111100011
00000000000000110111000100001100
00000000000001010110001100100100
11111111111100101101001100101000
11111111111011100011001010110110
00000000000100111101001110001110
00000000000010001110000001110100
11111111111100000000111110010100
00000000000001001101101001111101
00000000000000010111011010110010
00000000000100111001100000110111
11111111111000110010001111001010
00000000000010000100000011000101
11111111111010001000111101011101
11111111111000100000011001001101
00000000000000101110100101011010
11111111111001111101111100001111
11111111111100010110100001101110
11111111110011101101010001110101
11111111111000110111001000001000
11111111110110001000000000110111
11111111111110010000001011101111
00000000000011010101011111100110
00000000000000010110110011001110
00000000000101111000101001100111
00000000000010000011111011011011
11111111111101011110100101100011
00000000000010000011100110101001
00000000000001000000010100101010
00000000001001000011000101011001
00000000000100011000100010010111
00000000000010101101001110110100
00000000000100101110010110000110
00000000001001101000010100010011
00000000001000000100101110111010
11111111111100001101101010101110
00000000000000101100111111001011
11111111111111000101110111011100
00000000000000000001101111101000
11111111110111111000111011010101
11111111111110111010110110101100
00000000001000111100011010110101
11111111111111010101000111000001
11111111110111100011100001010010
11111111111011011000001010110111
11111111111100000011010100101000
11111111111101100100111011011011
11111111111110000000011111101001
11111111110111101001000110001001
00000000000000000111011011011111
00000000000011001111001011000001
00000000000000110100000001111101
00000000000001000101011101100111
11111111110010101000111001100011
11111111111011010110100111001001
11111111111100100111100110010101
11111111111110000101110100010000
11111111111100101100011001011010
11111111111111100011111001001001
11111111111110000101001011010110
11111111111111100001000111101111
11111111110110111010100100111100
11111111111110111110111011110000
00000000001001001100110000010011
00000000000000101011110011110101
00000000000100010101010110101101
11111111111110111101110001111110
11111111111011000010110111110001
11111111111000111000011001111001
00000000000010000000000001011010
00000000000011011010110010101001
00000000000000010111110001000111
11111111111100100001011111011101
11111111111001111101111100110011
00000000000000010101101001001010
00000000000000010011000000010010
00000000000011001011111101010110
00000000000100111110000101010010
11111111111011101011011010110010
11111111111011100110000000000111
11111111111010100100110000011000
11111111111101000010001101000011
11111111111010011110101110010111
11111111111011000000111001010110
11111111111110000010100010001100
11111111111101001011101011011100
11111111111100100110101000111101
00000000000001000111101100011110
00000000000101100001010000010010
00000000000100101110110001000010
00000000000101011100010000000111
00000000000000101100010000011001
00000000000110101001001011101101
00000000000001110110011000000100
00000000000101000001010011010000
00000000000001111101100101010010
00000000000110011110100110100111
00000000000010111010111000101001
00000000000011111000100111010011
11111111111110100001011011100100
11111111111010101100110110000010
00000000000011110101110100000101
00000000001001010011010110010011
11111111111001111011110011110101
11111111111110000010000100110101
11111111111110100100011000111100
00000000000011001010100001010011
11111111111011100111101101110110
00000000000101110011111100001100
00000000000000110110010011010000
00000000000011100100011110000011
00000000000110000001001011111111
00000000001000110111001001100101
11111111111001001110100100111001
00000000000110100011010110110001
00000000001001111010001000011001
00000000001000111111100010011110
00000000001000001001011010100001
11111111111111001001011100100110
11111111111010110001000001000111
11111111111010001011100100110001
11111111111010001001111101001110
11111111110011000110101001100001
11111111111101000100101100011110
11111111111100110001110110111011
11111111111101100001110000010010
11111111111110101001010100010000
11111111110110100011001000000111
00000000000100001100101001010100
00000000000001110101010010011111
11111111111111100011101100010011
11111111111011111011111011100011
00000000000100100101101111001000
11111111111100000101011111100000
00000000000000100001000111111110
11111111111100101000110100110001
11111111110111111100100010010001
11111111111010000100100000001100
11111111111100110111100111011110
11111111111111111011111001001011
11111111111001010110010000011000
11111111111001101011110111000111
11111111111110001010100011100000
00000000000011001101100010111011
00000000000101010100010000111100
00000000000100101111100100111110
11111111111111111010111110001011
11111111111011111100011110111110
00000000000011001011111110101000
00000000000000110101100110001000
11111111111111011010100111100011
00000000000010000010000010110010
11111111110101000110000110000001
11111111111001011101010010110000
11111111111011100111011010101000
11111111111100001101101000100010
11111111111011010010101010101111
11111111111010001001001011000100
11111111111011001101001000100011
11111111111010111010101011000110
00000000000000001111010101001100
11111111110111011011111000000000
11111111110110111100001100011110
00000000000011001011110000100001
00000000000111011110001000001111
00000000000001110011111001100100
00000000000100001000101001101110
11111111111100000001011111011001
00000000000110001011010101110010
00000000000100001111000011101001
00000000000100101010000010010000
11111111111000010100010011100111
11111111110101011111110010111101
00000000000000101110101011010001
00000000000001110010101011100110
00000000000000110111110100011100
11111111111011110011010010110100
11111111111100011010111101110101
00000000000001101110110011000110
11111111111001101100101100001011
11111111110111111101001101111101
11111111110011000101000110100001
11111111111111000011001101111011
00000000000001010010001011011110
11111111111000111011000000010010
11111111111101001001101001010000
11111111111111111111100000101000
11111111111010010110100011110110
11111111111010000111001100000000
00000000000111000010011101110111
11111111111100000110111001001100
11111111111100111111011000011101
11111111110110111011101000011111
00000000000110010111110000110101
00000000000001001000111100001001
00000000000011010110010011110010
11111111110111101001101100000001
11111111110011100111001100000101
00000000000001110100011010100101
00000000000001000011101101110110
11111111111111100110001110010100
00000000000001100101010100101111
00000000010011010110001110011000
00000000000010111100011100111000
11111111111111001110000110111011
11111111111110011110000110001010
11111111111000111000010001000001
11111111111010111010011100111000
00000000000111001000100100101101
00000000000000000011110111110001
11111111110110011100100110010010
11111111111101011111001010100110
00000000001010100111111110111000
00000000000010101011110101000110
11111111111111011111000001101001
11111111110101000011001100001101
00000000000100111101100101110101
00000000011110010111100100010111
11111111111010011100010110011100
00000000000110100011001010100100
00000000000000011011001000111110
00000000000000000111111001010001
11111111111101001011000011000101
11111111111110111001011111011101
11111111111111010010011111010010
11111111111010110011001011100011
11111111111101110011001011000101
00000000000100010000101100000001
00000000000001101111111011110010
11111111111011000001000000110100
00000000000110010010001001110110
00000000000010101011000001111011
00000000001001101111111001001001
00000000000010001010110000101111
11111111111110101010010100001001
00000000000000111000000000100111
00000000000101001011000010010111
11111111111001110111111001100100
00000000000110000011100110110000
11111111111111111010001111110001
00000000000101111010110101001101
00000000001011111100010111010000
00000000001110010011101001001000
00000000000000000000111000111011
00000000000001110010011110010000
00000000000000100000000110111010
11111111111111000000000100101001
11111111110010001101011010000000
11111111111110010101001010100010
11111111111111000001111011110000
00000000000000000001110110100011
11111111111110110011101010111010
11111111110110110011110010010100
11111111111011011100011100111001
11111111111101001110011011010011
00000000000011101001111011011100
11111111111011000001111010011011
00000000000001110001010010010100
00000000000010000110011001010101
00000000000100010000010101000000
00000000000001111001100101111000
00000000000000001010011000001101
11111111110111010000110010011001
00000000000110001011110000110010
00000000000101011100110100101100
00000000000011110001011011001011
00000000001000010100100010010000
00000000000101101011110101111001
00000000000010101000010101001101
11111111111111111101010010000111
11111111110100110001011011011101
11111111111111011010100000100000
11111111111011010001000001000011
00000000000001001000111001101000
00000000000001000000011000000100
00000000001010010000100011011000
11111111111101110100111011000000
11111111111101100001000111110010
11111111111011101101010011100001
00000000000110000010100110000100
00000000000011101001000100100001
00000000000010001010100000100101
11111111111111011011000001101000
11111111111111001011101111010100
00000000000111010011100100111001
11111111110111111101110000111001
11111111110111100111110101100111
11111111111000000111000101001111
00000000000100001111011000110100
00000000001010100011111110001011
00000000000111100111010000101111
00000000000011110011010011010011
11111111111110100011100010001010
11111111110111101001100110110011
11111111110110001101010111010001
00000000000001111110101000010001
00000000001000010101011011111110
00000000001000001011111110100011
11111111110000101110000101010100
11111111111001010000111001000010
00000000000001010110111110110100
00000000000011010000001010000001
11111111111111101101100110000101
11111111111010111100110000001010
11111111111011110111001011010101
00000000000111001101010100100100
00000000000001011011100011010000
00000000000001100100100001010011
11111111110101011101011101111011
11111111110111011111100111010001
00000000000111011111011010110101
00000000000100001011111111011001
00000000000011011111100111011110
00000000001111110100000010100011
00000000000000110101100111001011
00000000000011100000101010000010
11111111111100001111101111100010
00000000000001101001011010100010
00000000000000110000100011100010
00000000000001011000001101110000
00000000000100011000010101110010
00000000000011111010100001001100
11111111111111001010001100010011
00000000000000101101010111110000
00000000000110001000100001110110
00000000000010011111000101000011
11111111111101010101111110101101
11111111111000110010101110111110
00000000000100011110101101000100
00000000000010001011000110001011
00000000001000000111111010011000
00000000000001011101001111100010
11111111111000000011101011011110
11111111111101001101110011111011
00000000000011010000011100100011
00000000000100110110100011000111
11111111111110010001110000111011
11111111110001010110111110111000
00000000000000100100110010110001
00000000000000010100100110010101
00000000000111101000011100001101
00000000000000100100110001100100
00000000001000001011000110110011
11111111110101011001111011010010
11111111110010010101001010101001
11111111111101101000011101101001
00000000000110000111001010101110
00000000000100101111111110011110
11111111110000101000010001010111
00000000000000001010111101100001
00000000000000010001110100011010
00000000000110000011100001100100
11111111111110100101011100001010
11111111110010011001001000001100
00000000000000001111001101100111
00000000000011001010110011011110
00000000000011001000011001000100
11111111111011110100001110101000
00000000000001110111010001110100
00000000000000000000110101101011
00000000000011101011011011011111
11111111111101100110010110110100
00000000000000101110010011101100
00000000000010000001101000000000
11111111111011110111101110010011
00000000000000010000100000110001
00000000000000111101011000110011
00000000000011011001101110001000
11111111111111000110101010011101
00000000000101101110100101110110
00000000000111000001011110111101
00000000000011111101110000101111
00000000001001011100010100111000
11111111111000111001110110010001
11111111111000001010000101101011
11111111111101111100010010101111
11111111111101110100010111110000
00000000000011001111010001100101
11111111111011001101100110001000
11111111111010111101010101000011
11111111111010100100001101111010
11111111111111110011011110110100
00000000000000001110000101001001
11111111111001010111010100011101
11111111111010000011111110000100
11111111111101110100000010101110
00000000000101000110011011001010
00000000000001001101100101100010
11111111111011011011100011110001
11111111111100001111100001100010
00000000000001111011110001011000
11111111111101011010011001001101
11111111111111101010001010001110
