11111111110001100010011011001111
11111111110111110111100000101000
11111111111111110101100000110100
11111111110110011100010111000100
11111111110110011101010001010011
11111111111101001100100010110111
11111111110111001011110001011000
11111111111101000011100101001100
00000000000010100111111011100011
00000000001001110111000101000100
00000000000011001001010100110111
11111111111110000010001111110111
00000000000011011010001111110011
11111111111100100011011111100101
00000000000100111110001001010110
11111111110111000010011111100110
00000000000100101111000001101000
00000000000101001011111010001000
11111111111011101100011010000111
11111111111100000111010111011100
11111111111001010110011101010100
11111111111010010110011011011001
11111111111111011111001000001110
11111111111000011010001010110001
00000000000100001100011001010010
00000000001101001000100011100001
00000000000100110010100101111101
11111111111000001101101110001000
11111111111001010110111010001010
00000000000111110100011110110011
11111111111100000101011101010000
00000000000001010001101000111011
00000000000100111100100010111111
00000000000001000000011000001001
00000000000000010001010001100010
11111111110111110010101001110111
00000000000001010010000110010101
00000000000100110101001010010111
00000000001000000000101011001111
11111111111110110100101010100110
00000000000001000010011100101101
00000000001010000111101111010000
00000000000001111101010000101011
00000000001000101101000011110010
11111111111001100111001011100000
11111111111111100001000111000111
11111111110110101111100110010111
00000000000000010000010100110000
00000000000100100001000001001001
11111111110101010001110010001000
11111111110110001111000100001111
00000000000001000011010100001010
11111111111011111001010011110011
11111111110101001010110100010001
11111111111011100011101101100011
00000000000010100110001000010011
00000000000011010000000001011000
00000000000001101100000100001000
11111111111111000110000101110110
11111111111000100011011101011110
00000000000001111011000111001000
00000000000001010101001000000100
00000000000000010111110100010100
11111111111010100010011101011010
11111111111110011111101101110000
00000000001001000111011101011100
00000000000000000101000100011101
11111111111100001111011001000110
11111111111101001010101011011101
11111111111100000010011010001001
00000000001010100101000110000011
00000000000011111100010111000010
11111111111101000001101111100000
00000000000000100010011001010011
00000000000010110110111100111001
11111111111010011100000101010011
11111111111110001011111111101100
00000000000001110100111110011001
11111111111101110111010111110110
11111111111100111011101100110111
11111111111110111010101100010001
11111111111111111111101101010110
00000000001010110101001001000100
00000000000111100000011010011011
11111111111011111010110100011011
11111111111110011000110111110111
00000000000000110110011101100110
11111111111101010010010100011111
00000000000001010010011000000010
11111111111001111011100110110000
00000000000011101111001000110100
00000000000100010011110001111101
11111111111011111010101101011100
11111111111001000001000100100101
11111111111001101010101101110001
00000000000101001000001100010000
00000000000100010011000010010000
00000000000000110010100110101111
11111111111110101110100110000100
00000000000001001011010101010010
11111111111110100101110110001100
11111111111111010111000110111101
11111111111110101011110100111110
11111111111111111001001011011000
00000000000110101001001100000100
00000000000000000101111010111110
11111111111111010011010011011001
11111111110100010111000001001110
00000000000000111000010011000011
00000000000110101010010000101101
00000000000110011010110011101000
00000000000001100011100011101111
11111111111101110100011100110101
11111111111111001111000001010101
00000000000110110110101001001000
00000000001000001101000100110111
00000000000110110101100110101001
00000000000110101000000100010001
00000000000011100010100101111010
11111111111110000000100010101011
11111111111100100110000000011000
11111111111110111100000001001011
00000000000011011011001010010011
00000000000110011110111000110101
00000000000111001000010010110011
11111111111101110011010110001011
11111111111101100111000001001100
11111111111111110111000100111010
11111111111100001001111001110101
11111111110101011100000110111110
11111111111011100111001010111000
11111111111110010111101010001010
00000000000000010110111111001011
11111111111101010010011100001001
11111111111101110000001001111101
00000000000001001010111010000011
00000000000101110001010100001101
00000000000010001100001100100111
00000000000011111000010011101101
00000000000100000100100010001010
11111111111000101110101000101111
00000000000000000101101001000111
11111111111011111101000000100110
11111111111111001101010101000111
11111111111110111101101010100000
11111111111101010110000111100010
00000000000010001110111100001110
11111111111110011001001000011100
11111111111100100001110100110010
00000000000001001000011000000010
00000000000011001001111111111100
00000000000000100100001000111110
00000000000101000101111110010001
11111111111010101111001011010010
11111111110111110100011100011000
11111111111110010100111000000001
00000000000100000110111111111001
00000000001010100101101010001000
00000000000010000110011101011011
11111111110011011001011110001001
00000000000001101111100111010110
11111111111111111100000011001010
00000000000111010000110011100010
00000000000100001111111010011110
11111111101101111010101000101000
00000000000000001110011100111111
00000000001010011000111011110000
00000000000001110111110111000000
11111111111011110110110010110111
11111111110101100101011100010101
11111111111110010110111010111000
00000000000011100111110010111100
00000000001000010101001011101100
00000000000101010010110000100110
00000000001000101011100100011110
00000000000110000010010111010001
00000000000100000111010011010100
11111111111001110011100011011110
11111111101011011000100101000000
11111111111010010000011011000010
00000000000000010010011010111110
11111111111011110100100001110111
00000000000001011111001111010001
00000000000100000001010010001100
11111111110110000011000111111001
00000000000100100110100011111100
00000000000110111010111111011011
00000000000010100111110011001100
11111111111101001101101010100100
11111111111101000101100101101001
00000000000000100110110100101001
00000000000001101101001101100001
11111111110111011110110010001000
11111111110001010111010101111111
11111111111111101010001000010110
11111111111110110001010000000110
11111111111110100001101011011100
11111111101110001010011001111001
11111111110110011110000111001001
11111111110111101111111001100000
00000000000011001110100010010111
00000000000001011100101110001101
11111111111010100001101110111000
11111111101100000101001110100111
11111111101000111001001001011011
11111111111111100010110100101111
11111111111101010010100100011110
11111111111001100011010100110101
11111111111100100101010101010111
00000000011000100110110110010000
00000000000011111101011100101011
11111111111011001011100111111000
11111111111101101110110100001110
11111111111111011110100100111010
00000000010000111001001101101100
00000000000010010101001100110011
11111111111010100111101010100001
11111111111110001101011100001010
11111111111100001101000101011111
11111111111111101110000000001110
00000000000011010110000011011111
11111111111001111101110111010011
11111111110000101001000111101010
11111111111000000100010110011111
00000000000101011111000001000101
00000000000010000110100101111001
11111111111111100111000111011101
00000000000101111001110010101000
11111111111111111010100000111001
11111111111110010000011110010000
00000000000101100110111000111111
00000000000100101111001111010001
11111111111011010001010010110001
00000000000100000001011010111000
11111111111000101011100100100000
00000000001101111010110010010110
00000000000100011000000011010111
00000000000001111010011000111000
00000000001101100110100011001001
00000000000000100011001100101000
00000000000011001100000010011011
00000000000010000001011101101111
00000000000011000100000101111001
00000000001000001001011001000010
11111111111000111111010001101111
11111111111011010000000001101010
11111111111011011111100000001010
11111111111111100101010011001111
00000000000110000000001001101111
00000000000101100001000010011010
11111111111010111000001001010010
00000000001001001111101001000110
00000000000001010100110101110000
11111111110100100000001001001111
11111111101111101100001110101111
11111111111111100111010100011101
00000000000011101111000100001000
00000000000000011111001100000010
11111111110110010011110010110101
11111111101000001101011101011000
00000000001001011100001101101001
00000000000100010001110101100101
00000000000001111000100110010010
11111111110110011100011010001000
00000000000110011011001101010111
00000000010011000001110101111110
00000000001001111100011111100101
11111111111101010100110100100101
00000000000000100111111011000111
00000000000001101101000010110111
00000000001100000010000111011001
11111111111100100011010010011011
11111111111110100001110100111011
11111111110110101010001110000001
00000000000110001100011100111001
11111111111000111001001011100011
00000000000101000101010111110011
11111111110001100110111100010001
11111111110110100100100110111001
11111111111011000010000110100111
11111111101100100011111000111010
11111111110010011101010111011011
11111111111101110011101100110000
11111111111100100101010100101010
11111111111101111110001000100011
11111111101010101110100010110100
11111111111000000101000010100110
00000000000010001001001000001010
00000000000101101101111101000100
00000000000111111110100101100001
11111111101011101001000001111011
11111111110101100010010111010111
00000000000001101100000011011100
11111111111010101110010100110111
11111111111110101110100110011000
00000000000010000001111011001011
00000000000011000001111000100000
11111111111111000101011011000001
11111111111001000010011001001100
11111111111011000111110101100100
11111111101000111011100101010101
11111111101111011010000000101100
11111111111110000001101110100011
00000000010000001011111001101000
00000000001000001100011011111101
00000000000010001111111011100000
00000000000110101011000000010111
00000000000101110101001010110101
00000000000100010111100110111100
00000000000100111111110111100110
11111111111011010101000001111010
00000000001011011010000001110110
00000000000110010110000110110010
11111111110110110100001000000001
00000000000001000010111111100011
00000000000000111000010010100100
00000000000001010111000111010010
00000000000011010101000100101100
11111111111011010010100100000100
11111111111101100110011101001000
00000000001001001111010001111011
11111111111111101111111000000111
00000000001000111011010110000100
00000000000100001101100000111011
00000000000010100000000000010010
11111111111111101101011110110111
00000000000011000101110011100000
00000000000010000010111111111011
00000000000000011110101100010101
11111111111100100000010010000100
11111111111010100101100001100110
11111111110101011001110010100111
11111111111011100111111010011111
00000000000110000101101100011111
11111111110001110011101111100011
11111111111000110011010001001101
11111111111011101000100110011110
11111111111101111000101110010110
00000000000000110110001001100011
00000000001000100101100111110001
00000000000100101101100111110110
00000000001000101011011010101101
00000000000110001000010011001111
11111111111111111000100100101011
11111111111110100111000011010110
11111111111110001100111101000000
11111111111010000101111110010000
11111111111011100110110011110000
00000000000001000100101110011010
00000000000000010111110011010010
00000000000110111011011111111000
11111111111010000011100001110111
11111111110100100100011010111000
11111111110111111000000010110010
11111111111011110000001110011110
00000000000101101011010010010010
11111111111100001100111011001011
11111111111110100110011011011101
11111111111010100100110010001001
00000000000000000000101000010011
11111111111111011111000001101011
11111111111100001011001001011111
11111111110111100011010011100101
00000000000010100111101011110110
00000000000001001001010110011011
00000000001101101110110110011100
00000000000000010101110111100000
11111111111101000101010101000110
00000000000011111011011001111100
00000000000000111101100001111111
00000000000110100111011111101000
11111111111100011011100010000100
11111111111110011111011001101010
00000000000010011111010011111101
00000000000000011001001000010001
11111111111010000010110000110111
11111111111111111000010101101001
00000000001001010011001100011000
00000000001001001110101000110001
00000000001010111101100010010000
11111111111111101000010000000100
11111111111110101011111001101011
11111111111101000011011100110110
11111111111111110001010011110010
00000000000011011101100100100011
00000000001000100001101000000100
00000000000101101011111000100110
11111111111111011110110100110000
11111111110101010010000111100101
11111111110011101100100101111001
00000000000111010111001110100100
00000000000010010111000011011101
00000000000001010110111000001100
11111111111011101100100011011101
11111111111001001100010110010111
11111111111101100100011110010101
00000000000010010101111001010111
00000000000101000110101100101111
00000000000000011011000111111111
11111111111010001000010000011100
