11111111101101100111110111000111
11111111110100100011011010111000
11111111111100011001011011010011
00000000000011001001101111111000
00000000000000001000100010111100
00000000001100001111111110010110
11111111110101011001101000101110
00000000000001111101101001000010
00000000001000101101011100001010
00000000000001110110111000001110
11111111111001011100010010101001
00000000001010010001101100111001
00000000000111110110010010000100
11111111111100001101110000011011
00000000000001111111111111110110
11111111111011001001110010111011
00000000001100111101111010000101
00000000000011101010010110101101
00000000000010101010000101111100
11111111111110111111011110111111
00000000001011010100010001100001
00000000000001100110100001110101
11111111111100100001001000101011
00000000000010000000111100100110
11111111111010101001100001101010
00000000001000011101011111001000
11111111100011110110011110010011
11111111110010001000001110001010
11111111111010111101000110101001
11111111111011101110010100100011
11111111110110010111011000100011
11111111111110011111100000011100
11111111111000001110110111110010
11111111111111110101001110000010
11111111110001001100001100001000
11111111110110010010101011001101
11111111110011100110110111001011
00000000000000000010111010101110
11111111110110011101100000100010
11111111111000100110100111110110
00000000000000010011110000111000
11111111111000110011000100011010
00000000001001011110111101101011
11111111111110110011101010011010
11111111111010100001010111000100
00000000001000100100110001010111
00000000011110111011011100000111
00000000001000100010100111011000
00000000000110111001000000100011
00000000000000101101101000111010
11111111111111101110110111100010
00000000000010000011010010000111
11111111110111111110100110001101
11111111111010101000101000001011
11111111111000000000100101101010
11111111110011000110110100110110
11111111111111101010010010110110
11111111111110001010010101101010
00000000000010101001100101001110
11111111111101010111000011110111
00000000000100101111010100001110
11111111111011001000001100000101
00000000000101110110110100111010
00000000000110101010001100011001
11111111111111010001010110101011
11111111111110010001011101010010
11111111101011111011000110100100
11111111111100100000111111011001
00000000000001010001000110010010
00000000000000100011100101101100
11111111111100010011101010111101
11111111111010110111101100010101
11111111111111011110000101000111
00000000000010100000100010001101
11111111111011011101111011111101
11111111111111000100101110101010
00000000000000111100001100111111
11111111111111010101001000011000
11111111111111010001001110000011
00000000000001010100110111000011
11111111111101001000100111000100
00000000000100011010110101111010
00000000001000100011110100110000
11111111111111111100000111000100
11111111111001110000111001101100
00000000000000110110100100111001
00000000001010010111010010110001
00000000001000011010101000010000
00000000000001010101100101000011
00000000001000011101001110010101
11111111111010111011100100111010
11111111110110010100010110001111
11111111111001011100000110000001
00000000000001001100001100010110
00000000000110000101101001101001
11111111111011000011001100010100
11111111110010010111000010110000
11111111110100100011110010011011
11111111111011011100111010111100
11111111110101110100100111110111
11111111111111001000111110000010
11111111111100110001100100110100
11111111111111100000110000010000
00000000000011001000110011110101
11111111111001110000000111000101
11111111111111110110100101110001
00000000000101111110011000011001
00000000000100110011100100111111
00000000000010010010111000100100
11111111111100000111110011010111
00000000000001110001011101000110
00000000000011001111010101001100
11111111111101001111010100000011
11111111111001110011111000000100
00000000000011010000000101000101
11111111110111010001101100010000
00000000000010101101111011111100
00000000000010010101110001001001
11111111110110010000000101000001
11111111111010001000111110001101
00000000010100100110100000010010
11111111111101010100000001001000
11111111101110100110111010001101
11111111100110011011000101101110
11111111101101110010010110100101
00000000010001001101100001000100
00000000011100110110010010100100
00000000001110000110011000111101
00000000000010100101001000101001
11111111101111011110110000000010
00000000000101100010010011001110
00000000000010001010010011010110
11111111111111010111100000110100
11111111111100101110000011001010
00000000001001001011011111101010
11111111111011000011110000010111
00000000000010111011000110100110
11111111111100111111010001110101
00000000000000110100101110100010
11111111111011100111000101010111
00000000001011100010100110001110
00000000001110000100011000001100
00000000001011011101110100010111
00000000001010101011000101010011
00000000000000111111000110010111
11111111110110111010100110101000
11111111101111110001011110011110
00000000000001011100110010111010
00000000001011111100000000100100
00000000000101001100101001101100
11111111110111111000000001010011
00000000000010011110011011010110
00000000000100110010111111000000
00000000000100001010001000001101
00000000000010101111111010000001
11111111111000010110111101101101
00000000000010000111111110111010
00000000001000110010000100000110
00000000000010010100101000011000
00000000000011101100111110100100
00000000001000111001010101100011
00000000001111100100001010010001
00000000000110111100010101001000
00000000001000001010001100000011
00000000000010011010011010000010
11111111111101101111100101010111
11111111111100011000101001111101
11111111101101101001110010100101
11111111111001111101010101101010
11111111111001110001111101010110
00000000000010010011010110110100
11111111110101101111111110011100
11111111111101111100001111001001
00000000000011110000010111011100
11111111110010001001000111110010
00000000000010000010011111011101
11111111111110110110111101011010
11111111101111100101001001111101
11111111111101010011001010011000
11111111101001001010010111111101
00000000000010111110000101011111
00000000000100100010101111000011
00000000000010000001111101010000
11111111111111100100100100000100
11111111111001010101010111011101
00000000000001100001111001011101
00000000001101101110010111000011
00000000000011010101100111011111
00000000000011011011000110011010
00000000000111001001101011110000
00000000001001010101011111001111
00000000001000001011001011000111
11111111110111110011111010110101
11111111110111011111111001000011
11111111111000001010001000000001
00000000000111001110001111100010
00000000000001010101011000000011
11111111111110100011001010100011
00000000000111011011100100101001
00000000001111100111010100110110
00000000000000011100011101110001
11111111111011111010110100101111
11111111110101110111101000000000
11111111110001000011000101010010
11111111110001110111101111001101
00000000000010000010001001011001
11111111111110000010000111001101
11111111111110100000110011010111
11111111111000111101001011001011
11111111101101111010001001111101
00000000000001101001000001001110
11111111110110001110000001011101
00000000000100110001010000000100
00000000001001011100101001110011
11111111110011101010101110001010
11111111111010101001001110110001
00000000000001001010101010001001
00000000001010101010111000011101
00000000000011110101111100101110
11111111111100010110111011010001
00000000000010010111011100001001
00000000001100000111101011100011
00000000001110011101111011011000
11111111110110100110101011011001
11111111100100101011111110111010
11111111110100111010110000100110
11111111111111000011001000101010
00000000000101111010000101100010
00000000000010101111010010111011
00000000001011110110100111111011
00000000000100110010001011010100
11111111111101111001011100010100
00000000000011110100111000110100
00000000000011000011111001100011
00000000001010001111110100001101
11111111111110011010001100000100
00000000000011011011110100000011
00000000000101011110100111101110
11111111111000111111001010011110
11111111111100010101111111000111
11111111111110111101110110100101
00000000000101011010001101110010
11111111111010111000010001111011
11111111101110111011110001010100
11111111101111100011101111010101
00000000000010010001101010000001
00000000000000000101011110011010
11111111101111101100010011110010
11111111101101111101100000011000
11111111111000100000100101100010
11111111110010100100010111001000
11111111111011111110110000000110
00000000000000110000101000011110
11111111111110101011011100101100
00000000000010010110000110001101
00000000000101111001011110111011
00000000000001011101011100010010
00000000000011111010111111001110
00000000000101111110101100010011
11111111111111101001111001001110
00000000000010100110101100001100
11111111111001010000010101111111
00000000000011010011111111000001
00000000001000010111010001000011
00000000000000000100001011011000
11111111111000111110000001001110
11111111111011010111010101011000
00000000000110000011001110100011
00000000001000111010101000101110
00000000000101010110100000011001
00000000010010100010101100000111
00000000001111010001100111010110
00000000000110011001110100010111
11111111110010100010101001011101
11111111101000100010011010111101
00000000001101101111100000000010
11111111110011101010100101100001
00000000000000101000000111100001
11111111111101111001000000011000
00000000001110101011001010000010
11111111111100111001111001000001
11111111111101000100110000100100
00000000000101001100011011000111
00000000001001000001111010100111
00000000001100001100011110000011
11111111111101001100000110111000
11111111111111111001011000100011
00000000001001000111011011111110
00000000000111001001101011011010
11111111111111010001001111011100
00000000000111011110011101100111
11111111110110110100101110000001
00000000000110101011011000100110
00000000001100010100011010000111
00000000001011010001010000100100
11111111101111110111101100000100
11111111110010111010011101101111
11111111110100001000100001011100
11111111110111010001111011111101
11111111110011111100101000100101
11111111111100000011110100110000
11111111111001111111110011001111
00000000000110001000100111111110
00000000000010000100001110111101
00000000000000111000101001100001
00000000000111101010100011001011
00000000000010010001110111001010
00000000000000100100000111101110
11111111111111111001110011001011
00000000001011100000010111111100
00000000000100011001001011011010
11111111111100101101110111100011
11111111111001000111111001001111
11111111110011100111100110101101
00000000001011000111001010101011
11111111110001011111101100010011
11111111100101001010111011010001
11111111101110101100100001001100
11111111110010110101011010011001
00000000000110010010111000100011
11111111011110010110101100000000
11111111110100001101101011001010
11111111111100111011011100101001
11111111111001011100010001010111
11111111110111000100101011001101
11111111111010000110101110010010
00000000000001101010101001000011
00000000000001100100111010000111
00000000000011000110110010111010
00000000000100100101111100001011
11111111111101101001100011011001
00000000000001000011011000100010
00000000000010110001110001111011
00000000001001111011011001011101
00000000001110101010000101110100
00000000000001000111001010101100
11111111110111010111010100100010
00000000001000011011011100100000
00000000000010000010011000100101
00000000001000001100001110000100
11111111111110110100010011010010
11111111110110010101111110101010
11111111111010011101001110001101
11111111111101011011100111011111
11111111111010001010010011110101
00000000000101101110110010100000
00000000000000010000101011000111
11111111110010110100101010110110
11111111101000011011000000100010
11111111101100001001000001110001
11111111110011110011000001100100
11111111110110100111100101110101
11111111111001000001010100101010
11111111111101101111100001110101
11111111111100000110100100110110
11111111110000100001110111001000
11111111110001111010101010010000
00000000000100001011101000001100
00000000000011100011110011101111
11111111111110000011000011110011
11111111111001110101010000010110
11111111110110110100110110000110
00000000000010110000000000110010
00000000000110101000000101011110
11111111111111010110111010011001
11111111110111010110111010110001
11111111101101001010101111000110
00000000000100111100100111010011
00000000000111111010111001111001
00000000000000101010000100100110
11111111111111100011000101010111
00000000010010111011110001000010
00000000001100110000010000100110
00000000000101101000000100110110
11111111110001001000010011110011
00000000000011010000000001110111
00000000000010100110011101011000
00000000000001111111010111111101
00000000000100001100110111110111
11111111111000001111001011010011
00000000000001000110101001100010
00000000000100110111001101011110
00000000000000010100011101011110
00000000000111101010110111011001
00000000000110100101101111001110
00000000000111011001100010100010
00000000001000100101110101010000
00000000000000001111011000001111
11111111111100010110001110001100
00000000000010111110010111101011
11111111110111101010111000101010
11111111111110111100101110001100
00000000000000011000001101101010
11111111111101111110000001001001
00000000000000010101111100100001
11111111101111100100000110101111
11111111101000111001010011110011
11111111110011011000100101110001
11111111110111111011011010110110
11111111111101011101101011110110
