11111111110011000110101111000110
00000000000000001001111101101110
00000000000101000000010111010111
11111111111010110100001010110110
11111111110100000100010110011111
11111111111011000110101111000011
11111111111110001101000010000101
11111111111101001111001001110101
00000000000010011110111111111101
11111111111100011010000100100011
00000000000001010010010100000001
00000000000001001110101100011010
00000000000001101001000001100011
11111111111111011010100001110111
11111111111111110011101100111111
00000000000011100000100111101000
00000000001010101000101011111100
00000000001001011101100001111110
00000000000011000101001011101101
11111111110101001111011000111010
00000000000011101100101010110110
00000000001100010111100011010011
00000000000101011110110010001111
11111111111011111010011011101111
11111111110011111010000100100100
00000000000000000110010001010010
00000000000100011111111110000111
00000000000011111100111010000110
11111111111101100111111111111000
00000000000100100100000111001000
00000000000001110001101010100110
00000000000101001100011010011110
11111111111111001011000101100100
11111111111100000011001101001111
00000000000001111010100111001110
11111111111110111011001110011000
11111111111011100010011100110001
00000000000100011100100001100101
11111111111000111101001100001101
00000000000001101010110110010101
00000000000000111110010111011000
11111111111010111100110111111001
00000000001010000110101001111011
00000000000010100111111001111111
00000000001001110001101110110001
11111111111110011101110100100011
00000000000001111111010001011100
00000000000101111011110000101010
00000000000110111100011011111110
00000000000111101010001100010110
11111111111110001111110010100011
11111111111111110100000011100001
11111111111110011100101111101110
11111111111000111101001010110101
11111111111100011010010100001110
00000000000000110001111110010110
00000000000101100100011110110011
00000000000111101110111001101111
00000000000011010101111100000010
00000000000100111000100011110000
00000000000001010111010010100111
11111111111111111001111001000011
00000000000100111110100011101100
00000000000110011111011101011001
00000000000110011010110110000010
00000000000100101011100111001001
00000000000000111101111001001111
11111111111010110101100000110110
00000000000000101111101101000101
00000000000001100101011010101110
00000000000010010011010100010101
11111111111100100111110100100000
11111111110101100110101100010011
00000000000001110100010011000010
00000000000110011000001110101100
11111111111111101011011101001000
00000000000000101010100110100111
11111111111110100101101000110110
11111111111011101110001001100100
11111111111011101010101001111110
00000000000101101101001001010011
00000000000010110111000000111101
00000000000110011000011001000000
00000000000110100011000111111100
11111111111111101011011110101100
11111111111011101010110101101110
00000000000011100110101011111110
00000000000111110011110101110001
00000000000010111111011111001000
11111111111100101110110111000000
11111111111101111111100001101101
11111111111101010011000001110100
00000000000000010111001101010011
11111111111110111000010011110001
11111111111010001100000100111100
00000000000010011010001011011100
11111111111101110001100100101011
11111111111010111101011001001010
11111111111001110110100011110001
11111111111010010001011101110001
11111111111110001010011111010000
11111111111111010100111010000100
00000000000011000000110111000001
00000000000000111001001010111100
11111111111110100010101010010101
11111111111110101000011101100111
11111111111011010111011110100110
11111111111101010101000010000100
00000000000001001010010011110001
00000000000010100110110111111101
11111111111111111011010010000111
11111111111110110010011101011000
11111111111111010001001000001011
00000000000011110000110010110010
00000000000110000001001000001111
11111111111001010011001001110010
11111111111110001001000011101110
11111111111011100001011001110001
00000000000010011000010101110100
00000000000100111111011001100111
00000000001101010000101001101001
00000000000110111101001111111000
11111111111011010100101100011111
11111111111110000100101100000101
00000000000000001100001100101100
11111111111101101101000010100011
00000000000100001111011110111110
00000000000100011111001000101100
00000000000000110101110101000010
11111111111111101000101001010001
00000000000110010011111000000000
00000000000000000111010100111100
11111111111111001111000100111110
11111111111011111000110010101110
11111111111110000111101011110101
00000000000010100011110111110111
00000000000111111110001001101100
00000000001000100101000100000001
00000000000011011011101000101011
00000000000010101001010101011110
11111111111101010010101000101000
00000000000110000010101101001000
00000000001001111110001011100001
00000000000010100010010101100100
11111111110100001001111001100000
00000000000001111101001101001101
00000000000110000111000011101100
00000000000001000010100001010101
11111111111001011011011011001001
11111111110001000010010000110011
00000000000000100000100010111000
11111111111110101111110111110111
00000000000101001001100000001111
00000000000001001100100111010010
00000000000001110111100100100101
11111111110100010110011101001011
11111111111001110111111011110001
00000000000001101111001010101100
00000000000001100110110100000100
11111111111010100101110000111001
11111111111110010110000000111010
00000000000010011111101010001100
00000000000011111010000011011011
00000000000100010111110110000101
11111111110011001111011011000011
00000000000110000011001100001000
00000000001000111000000100101101
00000000000101000110110001011110
11111111111101110101100011010000
11111111101010000001010100110000
00000000000101101111011100101110
00000000000100100100001100001010
00000000000000000111111010100110
11111111111011101001100000010001
11111111101101000110011011100001
00000000000101001011001001111110
11111111111000101111101110111010
11111111110010011011011011010101
11111111110001010111000100101000
11111111111000100010000101000010
00000000000111010001010011001010
00000000000001000101001011110110
11111111111010001001101001110111
11111111111110111110010010111011
11111111111100011100000101001000
11111111111011100111010111100101
00000000000010110000111101110101
00000000000111011101000010001111
00000000001011000000111100111100
00000000001110011001111000011110
11111111111111000010001011100100
00000000000110111011011111010000
00000000001001111101000010101110
11111111110111011010000110101000
11111111111111001011100011001001
00000000000000111001110011010000
00000000000110111100000001001010
11111111111111110011111110011010
00000000000011001011000110001100
11111111111110000011110011011110
11111111111111010111011000001011
11111111111110110011000000011110
11111111111100110110000101001110
11111111110001011000011001101000
11111111101010111001101010100000
00000000000101001001100011011111
00000000000100011011111010011011
00000000000001111101011101011000
11111111110100010101011000100010
11111111111000001000100001100110
00000000000100100000000110101100
00000000000001101100100001001110
11111111111111101001110010010101
11111111111111101100110011000101
11111111111111100101011100100111
11111111111100101110000110000101
11111111111001111100110101010101
00000000000011100010110100001000
00000000001101101000001111000110
00000000001001001111010010100000
11111111111101001001101000010100
11111111111011000000101011110101
00000000001100110110001111101011
00000000001100011011001010010101
00000000000100100010000000100010
00000000000001000000101110110101
11111111111100101011110010100101
00000000000011010101001101111011
11111111111111001000101110001000
00000000000110100010101100101001
00000000000011001101000001101101
11111111111100110011010100010000
11111111111111100000000000101011
11111111111110111110010100000101
11111111111101000100110011001011
00000000000011101100101000001110
11111111111111010110011111010011
00000000000000110000110101110110
11111111111011110010011111111111
11111111111011011101100010000011
00000000000001100101011000100001
00000000000001100100000100001110
00000000000000111111110010101010
00000000000110010100101110000001
11111111110100010001010100110011
11111111111101110010011111001010
00000000000101100010101011000011
00000000000100100111100011001110
00000000000000000100111100001110
11111111110110010110101110111011
00000000000101111101011100101101
00000000000101001111001001101001
11111111111111011110000010010110
11111111111010111011010111010110
11111111111111111010000100110001
00000000000000000101101010100000
00000000000001001100000010100000
11111111111111010010011110100000
11111111111010010011111010011010
11111111110010001101110110011101
11111111111111100011100000010010
11111111111111111101010100111001
11111111111101110011100100011101
11111111111100011000001110101111
00000000000001010110001101110111
00000000000001000011111011001011
11111111111000011011000100011100
11111111111101010000100001110111
11111111111110011110010000111011
11111111111101101101001011111011
00000000000000001110000101110111
00000000000011100110011000010000
00000000000100110001110010000110
00000000000011001100110100000101
00000000000010010100010101011001
11111111111111001111101011101100
11111111111110000001011110111110
11111111110110010101000010010111
11111111111011100010111100000000
11111111111101001110011010001101
00000000001000110101100101101101
00000000000000100100000101011111
11111111111011000000111101010111
00000000000001001111110001111001
00000000000011101001001111010111
00000000000101111101101001011001
11111111111111101000101000101100
00000000000111011011001011110110
00000000001111001011111000001111
00000000000101110010001010000010
11111111111010000011111011100100
11111111111101000011000001101010
00000000000000111011111110011000
00000000000010011000111001001011
00000000000000100000010101011010
00000000001000100010001110011010
00000000000010011011010100110000
11111111111011100110000000011100
11111111111001010000011100110000
11111111111000001010100000010001
11111111110110000011001011110010
11111111111110111110101001001110
11111111111010111101111101011011
00000000001000111100101111111011
11111111111101111001100101100100
00000000000011110100001110001011
11111111111111101111001011101010
00000000000010001011010110010111
00000000000100000011010010111010
00000000000100101100001001111110
00000000000011110100111011010100
00000000000111101010111001000010
11111111111110000011111010001111
00000000000011111000000010011000
00000000000001010011101000110110
00000000000000111011110101010111
00000000000001001100001011000010
11111111110011100000011000110010
00000000000011001101010011011110
00000000000001000100111100011010
00000000000100100000011010111001
11111111111001000111100110011001
11111111111000111101011000001000
00000000000110011100100000100011
00000000001001000000000011011001
00000000001001111000011101101010
00000000000110100001011100011111
11111111111111111001111101011111
11111111111101110110110010011000
11111111111100100000100100011111
00000000000011101000001110011011
11111111111100000111000100011001
11111111111110010010000010110100
00000000000111011101110011110100
00000000000001010011011100100100
11111111110000011110001000110110
11111111111000000110010010011000
00000000001000101001010000110001
11111111111111110110011110100100
11111111111101110000110001101111
11111111111000010001000011000000
11111111111011000011110010111110
00000000000100000111110111011001
00000000000010100001111110000111
11111111111101000110111010001111
00000000000011011101101100000110
00000000000100110000000011101011
11111111111111110100010011011101
11111111111001011001001001100010
11111111101111010010011100111000
11111111111110101011110001000011
11111111111111011110010010010111
11111111110110110111110111010010
11111111111011111100010110010111
00000000000010011010101111001010
00000000000000001111100001100000
00000000000010110001100000110111
00000000000101110010010011010100
00000000000100100011011110110001
00000000000110000011100001100001
11111111111101000000000110010001
11111111110110111011110101101100
11111111111110100100101010111100
11111111111110110000000001011011
00000000000010001010111010100011
11111111110101110001110100011100
11111111110101100111010100001111
11111111111010100011010011011101
00000000000000011111111100110011
00000000000011010110111101100110
11111111110111010010111001101001
11111111111010000001100011011101
11111111111101101111010001010110
00000000000111011100000101111110
00000000001011000000110100001100
00000000000100110000111111101000
00000000000001010000100100011001
00000000000101011001100101111001
00000000000010001100011001001010
11111111111001111100011000101010
11111111111001100111011111000010
11111111111110000101101000000010
11111111111101111110101001000000
00000000000000011010011000001110
11111111111011101011110001001110
11111111111101010110101100000001
00000000000000100000010110001010
00000000000100001010100101001011
11111111111001101110000011001101
00000000000000011100000100101001
00000000000001000001100101000100
00000000000010011001011001111101
11111111111101111110111011001001
11111111111100100110010111000001
11111111111111100011011000011010
00000000000101111000010010100111
00000000000101000101001001011010
11111111110111011000100000011101
11111111111001101101000010011111
11111111111011000111101101110000
