11111111110100100000001011000011
00000000000110110100001111001011
00000000000111110100110110111001
11111111111011001010000011100111
11111111111101110011001011100100
11111111110111101101100010011111
00000000001111001011000001010110
00000000000001000011011011011110
11111111111011111011110101111111
11111111111001111001100011001011
11111111110111010101100100111000
00000000000010001110011101001001
11111111110101000101101100010110
11111111111101000111101001101101
11111111111111001011110011001111
11111111111100010101010101111011
00000000000110110100000010111111
11111111111100110111110001111011
11111111111010001101111000100100
00000000000001000110110010011110
11111111101111100011101101100011
11111111111010101001011101110100
11111111111000111000010011111110
11111111110011110100001101000111
00000000000010110010010100110101
11111111111100000101000100010010
00000000000010000010101101000100
11111111111111001110101010011010
00000000000010100000010001010010
00000000000000011101001000111110
00000000010000000111011011000100
11111111111101001010101010000111
00000000000101101000011000000000
11111111111100110110111110010101
11111111111111011110110100101100
00000000000000110111000101001111
11111111111001101111001101001101
00000000000110100111110101011001
11111111111011001100010001011101
11111111111101111011011000010111
00000000001001010111010011000111
00000000000101000101001101010011
11111111110000011000111000101010
00000000000010100000111101110001
11111111111100001010111100001101
00000000001000000001100011000100
11111111110110101111011111101011
11111111111001110111001001000000
11111111111001000111101011101111
11111111111010001000100010101010
11111111111101101100001001010100
00000000000010100001110011001010
11111111111011000000110001010110
11111111111010101000011111111011
00000000000011010110101011100001
11111111111100100111011110100010
00000000000001010011001101010001
11111111111100110001000111100111
00000000000000001100001101100010
00000000000010100011100001101000
11111111111100111011111111101110
00000000000000101010000011001001
00000000000000000100000100010000
00000000000000111100000011011111
00000000000001101101011011000111
11111111111101110010100010101110
00000000000101000010010110000011
11111111111111111110000111100100
11111111111111001111100011100000
00000000000100101011100111010111
00000000000101011011110110111101
00000000000111101111100001010010
00000000001000101011101100011110
00000000000000011100110100010010
00000000000001000100011100001011
11111111111101011111001011110011
00000000000000111010000110101000
00000000000011101101110110111011
00000000000000110011101110000010
00000000000001001000101011011100
11111111111100000010101110100001
00000000000011001110001011111011
00000000000010111011111111110101
11111111111110100101001011010011
00000000000111011011000000100100
11111111111100001011101001011011
11111111111110110000001001011010
11111111111110011110000000011101
00000000000100010010001100111001
11111111111110111111101001111110
11111111111100101011101010101000
11111111111110011111101011101011
11111111111111010010110110001010
11111111111011000100100101110011
00000000000011111000110010011100
00000000000000000111111100111011
00000000000000101010000000110010
00000000000000001100110100001100
00000000000011110010010001100110
11111111111111010111010110100010
00000000000010000010010011011111
00000000000111010011101110101110
11111111111111100111010111001110
00000000000011100101100001011110
00000000000001001000110001110100
11111111111010110000101111000011
00000000000001000110010010010011
00000000000110010101100011101001
00000000001010001111010010011001
11111111111100011000010011000010
11111111111110110110010100100100
11111111111010110001110010001101
00000000000010111010111100110111
00000000000010000111001110111011
11111111111100101001100000100000
11111111111000000101011000100110
11111111111011111111110100010010
11111111111110101101101000001101
11111111110100100000101010000110
11111111111011000111110011000101
00000000000101011100011001110001
00000000000111100000011100000110
11111111111101001000001111110111
11111111111101010100001001111011
11111111111010100001000010001011
00000000000111001110101111100110
00000000000100111111001110010011
11111111111110110101100001101000
11111111101100101110100000010011
11111111101000011111001010100010
11111111111110000101101011001100
11111111110101011101101100010100
11111111111010111100011111001000
11111111111100100011011100011101
11111111110111110000101110001110
00000000000001111101001110111010
00000000000010000011101011010000
11111111111010001101111111110010
00000000000111101000001100001011
00000000000111101001110101000010
11111111111111100011010111100100
11111111111100010000110000100100
11111111110110000010000100011011
11111111110001100000111001001100
00000000000011010011101100011011
11111111110001110100000011101110
11111111110100111100100010010101
11111111110101110111101100000111
11111111111110110000010010111101
00000000000100111001110011010110
00000000000011100000000011001000
00000000000111000011000010100011
00000000000011001110000110000011
00000000000000010100110000000000
11111111111000000100000011000000
00000000000100000101001010001101
00000000001010000010111000000111
11111111111111101111010101100111
00000000000110001001000110101101
11111111110111100011101010111001
11111111111010100110010111101110
11111111110011101010111011100100
11111111111001000111001000100110
11111111111101110100001110000111
00000000000001001000000010111001
11111111111000011001010011010000
00000000000000110011111101100010
00000000000010001111111011111001
00000000000000010000111011010100
00000000000010000111111100110101
00000000000100001101110000111000
00000000000010000111011011110100
11111111111100011000001010010110
00000000000011001100100011101101
00000000000111011000110000000110
11111111111111110110111101111010
00000000001001000010100100111001
11111111111010110110100011010110
11111111110011101101000111000101
11111111110100110000000000011001
00000000000011111001000111001001
00000000000110101111001011010000
00000000000101001010100000111000
11111111111011100010010000110111
11111111111000110100010011111001
11111111111010011001111110111100
11111111110100010001110011010010
11111111110001010011100001011001
11111111110111110110110101100011
11111111111011101001110000011010
11111111111111111101110000101100
00000000000011111010001010101110
11111111111101101110000001100101
11111111111011100111101010100010
11111111111110110000000100011010
11111111111011001100100110101111
11111111111111010011000000101001
11111111110101100111101010101001
11111111111001010100101001111100
00000000001001000010000101111000
11111111111110110001000001001011
11111111111010011011011011010000
11111111111010100000011011011000
11111111110101000110000011011101
11111111110100000011101011111111
00000000000011111000100101101010
00000000000111111100011010010111
00000000000101111100010111100101
00000000000101000101111110110101
00000000001011111100100111010010
00000000000101100110111001101111
11111111111100010011010110000010
11111111111101111110010110100111
00000000000110010001100011000001
00000000000101111001011100011001
00000000000001101100100001101001
11111111111110000010101111001110
00000000000010001101001111100101
11111111111100101010111000110000
00000000000000100110011100011010
00000000000101111101111010110110
00000000000100011111100011000101
11111111110100011011110101011101
11111111110010010011000011101111
00000000000010110100100110111100
11111111111000111111110000110000
11111111111010000101110110110001
11111111111111100101100101111111
00000000000111110001011110111010
11111111111100010001000001101001
11111111111011111100011000111101
11111111111110111101010100011100
00000000001000011100111110100111
11111111110111100111101000100110
11111111111100111111001101110101
11111111111101111011101110101010
11111111111011001010001011010000
11111111111100100010011011111111
00000000000001010100101110100001
11111111111110111010110100101100
11111111111011101011011111110110
00000000000001000101000001111011
00000000000111110001110100101110
11111111111101011100010000110000
11111111111010000010110110001110
11111111111101010101110000011110
11111111111101001100100001111111
00000000000110011001001001111100
00000000000100001111110011111011
00000000000101011000001101011101
11111111111101111100011100011000
00000000000010011011010010101000
11111111111110000010001111110101
11111111111111101111110011001010
00000000000000110001100100111100
11111111111000001100000111110000
00000000000000111010000110101111
00000000000100011101100000001110
11111111111101101010101001010110
00000000000100111001011000110010
11111111110111100111001000000010
11111111111110001001001001110100
11111111111011010111101010001100
11111111111010010011111110101101
11111111111110101011111010000001
11111111111100011010001110011111
11111111111001011001001101101001
11111111111100000000001111001000
00000000000011111010000111101011
00000000000011001110010101010011
00000000000101001001001011001001
00000000000010110101001111101100
00000000000110111101100000001010
00000000000100110001101010110100
00000000001000011000000101001011
00000000001000100000110011010001
00000000000111010011110101010011
11111111111001100111101101101010
11111111111011010010100000010010
11111111110101110100101001011110
00000000010000010011011001000101
00000000001000101001000100110110
11111111111101010101000010010101
11111111110111011001110101011111
00000000000111100110011010000110
00000000000001100001000001111000
00000000001010000110000100110010
11111111111111000011110001111111
11111111110111001000000001111110
00000000000111001110001001111101
11111111110100100010001000001001
11111111110010100000000001100000
11111111111000011000010111110010
11111111111111100100011001101100
00000000000100000110000000110100
11111111110111010000001111101000
00000000000000110110010000001011
00000000000011101110000100010101
00000000000001001001101000110100
11111111111101011100011001100011
11111111111101101111011011100110
00000000000111011011101001100001
00000000001001000000011011101111
11111111111100000010110101110000
00000000000001100001011010001010
11111111100010100001111111011001
11111111110101011111000000111011
11111111111000011001001011101000
00000000000101111001111001001000
11111111111110101110001011010101
11111111100101110010011101010110
11111111110100100100111000100010
11111111111101101111010101011101
11111111111101011100111011001010
11111111111011110000010011110100
11111111110111001111011000010111
11111111111100011110010000100111
11111111111110101100100001001011
11111111111001000000110001101010
11111111111101110000010000010101
00000000000001100010001101110110
00000000000111010111110000110101
11111111111100100001100010011011
00000000000001110000101011011101
11111111111111101000001011010110
00000000001000111111101111011010
11111111111001010011110100000010
11111111111100100000100011010111
11111111111001001011110001110010
11111111111010111011001011111101
00000000000100111100111111011010
00000000000101110111111010100010
00000000000101100011000100000110
00000000000011101011000010100111
11111111111111110010011111100111
00000000000100111100111110110110
00000000000011101001011111001111
11111111111101011010011001100101
11111111110110011110110111010000
00000000000100100001000010010011
11111111110110010000011111111000
11111111101111111010111010000011
00000000000001110100010000000111
00000000000010100110111110011001
00000000000110100000111100011010
11111111111101101011010101010010
00000000000110110011011011101101
00000000001000010111101110100101
00000000000101001000010001111100
00000000000010011000011100111100
00000000000000111101110011011000
00000000000100011001001000010101
11111111111111101101000010000010
11111111111001011010000001000111
00000000000001011001111000101001
00000000000110000111001110000011
11111111111101111110000010010001
00000000000101011110100111110010
00000000000010000111110010110001
00000000000011011011100000010111
00000000000010110010011100100010
11111111111011111000111010101011
00000000000110101111101000100110
11111111111110100101111111001101
00000000001000000011101000000010
00000000000000000000010000011000
11111111111111110000101110101010
11111111111010011101111110110100
00000000000011010100011001001101
00000000000110000010000100100000
00000000000001111111010111011001
11111111111101111011111100010111
00000000000111100111000100001101
00000000000111101110110110110110
11111111111001010111010101010000
00000000000000000100100011010001
00000000001000001110001110000000
00000000000010101111111101111110
00000000000000111111101001010101
11111111111101000110010100101111
11111111111001111110011111001001
00000000000001001011111111111101
00000000000011000001110100010100
00000000000010100110000000010101
00000000000010101001110110011011
11111111101110100111010111100110
11111111110000000110110001001111
11111111110111000111101010010011
11111111111011010100111011011001
00000000000000100111101011111000
11111111111010111111100111111101
11111111110111110000011000001100
11111111111011101111110101111001
11111111111011011111000101000000
00000000000000111011001000110000
00000000000010010011110110001011
00000000000101000011110010110011
11111111111111010100000100001010
00000000000011111001000000101100
11111111111110101000110101100001
