00000000000111111000101101001110
11111111111010010001101000100010
00000000000100101011010010010100
00000000000111011101100101110011
00000000000011101001100000110100
11111111111010000110000101011001
00000000000001111100101111011001
00000000001011000011100111000110
00000000001010111100001001010110
00000000000011100100110000111001
11111111111011001101111010000001
00000000000100001110110010000111
00000000000100000101111101111101
00000000000000001110110100100011
11111111111110100001110000010001
11111111110110101101001110101011
11111111111010010101100010110110
00000000000000110011011101000010
11111111111111111010100100101010
11111111111111010101111000110100
00000000000000011110110111110011
11111111110111100100110001100000
11111111111110010110100011111000
00000000000000111101101100001010
11111111111100001010111010111011
00000000000001010010011000000010
00000000001100100010010000010101
00000000000100111001110010000111
00000000000100111100000101100001
00000000000101001010101100011010
00000000000011001101111100111001
11111111111000000000001011100010
11111111111010101110001001000111
00000000001001111111010001100000
00000000000010100011110101010011
11111111111011111100111000101111
11111111110001000110011111110000
11111111111010110111011001101010
00000000000100101010010110101111
00000000000101111010110110111000
11111111111011011101111111001010
00000000000100010010001001101011
00000000000000101111011010000100
00000000000011000110010010111001
00000000000100101101111001011111
11111111111101011001110011110110
00000000010100000000101110110111
00000000000100001001110001110100
00000000000111110000110010001011
11111111111101001101111001010110
11111111111111101110101000111011
11111111111100000100110100000110
00000000000010101011010001011111
11111111111011001010101111011010
00000000000000011011001001111111
11111111110111111010010110000100
11111111111010110000111111011111
11111111111010011110010110000110
11111111111011111111010000011011
11111111111001010111111010001001
11111111110011110000101000001111
11111111110000111001101011100100
11111111110101110101100010100001
11111111111010110011011001110011
00000000000000010110111100110111
11111111111110010110001001001010
00000000000111000110011001111110
00000000000010101101010010011100
00000000000000111111000110001101
11111111111110111101100010111010
00000000000100010101110101110100
00000000000101011000011001000101
11111111111110110101001101111000
00000000000001100100110111000100
00000000000011011111010010100110
11111111111101011101101001000110
11111111111101100101110111000011
00000000000010001111010101010000
00000000000100101000101110111001
11111111111010011101000110111110
11111111111100110101011010010000
11111111111011011011100110000110
00000000000100111011010001011111
11111111111110101011101100001110
11111111111110100101010110010100
11111111111101111110011100111111
11111111111110101010010010010110
11111111111100110100100000110000
11111111111111001101111101000101
11111111111011100100010111110001
11111111111111100110111110111110
00000000000001000000100100110011
00000000000101001010100010100001
00000000000001001001110110010100
00000000000010110010101001101100
00000000000001010100010111110100
00000000000010101011111001111000
00000000000010011111111011100001
11111111111100010001000111100001
11111111111101111010101010100001
11111111110111111000111111011001
11111111110010011110000101111010
11111111111001111100010100100000
00000000000010100000110011011110
00000000000011001101101110001110
11111111110110101111100000100111
11111111110100001100001100110001
11111111111100010010010010100110
00000000000100010010010000110100
00000000000010110101110101111011
00000000000010100001111101001011
00000000000100010010100011000010
00000000000010101001010111011110
11111111111101111011010101101011
11111111110001110010100001100111
00000000001001010101011111010000
00000000000111101110100110110110
00000000001001100001011000100011
00000000000010110111010101001001
00000000000011011010111000111011
00000000000010100010101000111110
00000000000010100001001101111010
11111111111110101010001010100011
11111111111010111110111110001001
00000000000010101000110000110011
00000000000101111000101111000100
00000000001001111100010000010000
00000000000111110101000001101110
00000000000110110001001001100111
11111111100111001100100101011000
00000000000010110001111010101001
00000000000111010010100110011110
00000000000101001000100010011100
00000000000101001011100011001001
11111111110011100110111000011001
00000000000110011010001001101101
00000000000110100110110101110000
00000000000010101001111100001101
00000000000011100010101111111011
00000000000010011100101111011111
11111111110010100100101111011011
11111111111101000111001100001110
11111111111011111101111111001001
11111111110101110001011100001111
11111111111001100000111101100110
00000000000100010001101010111110
00000000000010010010000100100110
00000000000001101110011100111111
00000000000011011001011011011000
00000000000100010011000111110000
11111111111101000101100011001100
00000000000000111100011101001101
00000000000101101111110001101010
11111111111110111001011000111010
11111111110110011001010101000010
00000000000010001110001110111100
00000000001001110010111111000000
00000000001101010001011110010011
00000000000001101011000110111001
11111111110100110000100011010101
00000000001000100100000001110100
00000000001000101111001000110100
00000000000110101101010010101010
11111111111011011011011011010100
11111111111100000010101010101010
00000000000010100110110100100100
11111111111111111111000001001010
00000000001000010001111100010010
00000000000010000010100111000010
00000000000101001100101001000110
11111111110100101101111101000011
11111111111100000101010000110100
11111111111111011100110001101101
00000000000001100110010011100101
00000000001001011001101001101000
11111111110101000010011011010010
00000000000101010010001111001110
00000000010000111110010111011110
00000000000001111111010000101000
11111111110111100101010101111011
11111111110101111010000010100100
11111111111110111000111100111011
00000000000110100110101110101100
00000000000011100101110100110110
11111111101000100010100100101101
00000000000101110111011000000001
00000000000101111011101001100100
11111111111100110110010110101101
00000000000010001100100110010000
00000000000100001011010001101100
11111111110001000001101111001011
00000000001000110010000110110000
00000000000000010001101010100100
11111111100111000011000000010000
11111111111101011001101011101010
11111111111110000010100110110000
11111111111010110110001011101110
11111111110110000001100000110101
00000000000001111000101110111011
00000000000011101011110101101000
11111111111000010001110010111010
11111111111001010001000001111111
00000000001100110110011101101101
00000000000101011001101000011000
11111111111101001101011000110011
11111111110010000001101111111010
11111111110011011101000001111011
00000000001011010010010010011110
00000000000110001100110000101001
00000000000111101000011101101101
11111111110010011101001000111000
11111111110101110000001011000010
11111111111110001110101011101110
11111111111101101101101000100000
11111111111100011110010001100001
11111111111101000000000100010111
11111111111000111011110010001000
00000000000101111101001010001111
11111111111111110001110011111100
11111111101111100101010101011110
00000000000101111001111011100111
11111111110110100100000011100010
00000000000001101100111001111100
11111111111001111010000111000101
11111111111110101101000001010100
11111111111111000011110011000111
11111111111011101111110111000100
11111111111101011001101000110010
00000000000010101101011111111011
11111111111010100101110000100000
00000000000010001111111111111101
00000000000011101111100001111110
00000000001001111000001000100010
00000000000001101111010100111100
11111111110000111110001101101110
11111111111111011001110011101000
00000000000011111001010101110011
00000000000101100110010101100001
11111111111110010101000101000000
11111111111101111010000000110000
11111111111110110000111101010001
00000000000001010000101101010010
00000000000110011010001100111000
11111111111101110010110110100111
00000000000000010100011000001000
11111111111101111111000111100111
11111111110100010110111001010011
11111111111110000101110100010010
11111111111011000001010110110010
00000000000010000000101010000000
11111111111100100111110111110000
11111111111111011000111100111101
11111111111110011001111100001111
00000000000000010100000110010110
11111111111010111100111010010000
11111111111101011001110101011110
11111111111001100001100110111111
00000000000010101101111101110011
00000000001001110011101111011110
11111111111110100001001000001011
11111111111011000010000011010001
00000000000011100101111110000001
00000000000111000101001000110001
00000000000101100110010110111110
00000000000000101011010100010100
00000000000100111110000010110100
00000000001010110001011000101000
00000000000100001000001101010111
00000000000011011100111011110110
00000000010011101101100101101011
00000000001011000111001110110010
00000000000011101101101100010011
11111111111100100011100111110100
00000000000000011101011100000010
00000000000001101001100111101111
11111111111111100000101000111101
00000000001010100001010011001010
11111111111110101110110110110111
00000000000101000010011101101111
11111111110111011110010101111110
00000000010001000111111010000000
00000000010001111111100010111001
00000000001011001011001010101100
00000000000010010000000001010100
00000000000110100101010000101100
00000000001010101101010100101110
11111111111100111001001111110001
00000000000111011100110110000110
00000000000101001110010011000100
00000000000011001111111011010101
00000000000110000001010001010100
11111111111110110001011100110010
00000000000010000010011010100000
11111111111100011100110011000110
11111111110110000101001110000010
00000000000101001100111111100101
00000000000101011011001101110001
00000000000010111011000011000111
11111111111010110010111110000000
00000000000000111010010001110010
11111111101011100000100001101001
11111111110010101100110110001000
11111111111100111111001010101010
00000000000010010010000010000001
11111111111110111010001101101000
11111111110101010110000110010110
11111111111000000000010110101100
11111111100011101110100011110110
11111111111011100001010010111011
00000000000000011011000111001001
11111111101110000111100110110100
11111111101100111010111011001011
11111111110111010100101101101111
11111111111000110101000101111110
11111111110110100000111101101001
00000000000000011010010011010100
11111111111110010100000110011000
11111111111111111110111011101010
00000000000011011110011111100001
00000000000000000100101000000001
00000000000000110111110110001100
00000000000000111101110000001111
00000000000100011100001100110111
00000000001010000001011101001110
00000000001001101111001001011100
11111111111011011100000000000011
00000000000100000000000011100110
00000000000111011001000010001011
00000000000110010010101011110100
11111111111000101100100110000001
00000000000110110001011000101011
00000000000110111101011001110001
00000000000101101100000111000011
11111111111101110110100101010000
00000000000000000101011011000110
00000000001001010110110011001101
11111111111100111111111101000000
00000000000101101110111101111101
11111111111100101101110011110011
11111111111010100001001110100011
00000000000010101100111101100111
00000000000111000101101100011011
00000000000000011100101101101000
11111111111101010101000111011000
11111111111101100101001110011010
00000000000111001010010100100111
00000000000001111000011001100100
11111111111101100110000110111110
11111111111111100001110110100101
00000000000001111001010101101110
11111111111100011001000100110001
11111111111110010000000101110101
11111111111110001011011101010001
11111111111010111000010100001000
00000000000000001010111111010010
11111111110011111000110011001010
11111111110101100001011000110101
11111111110101010011111001001010
00000000000001010100111011101010
11111111111111001010010011011101
11111111110011110011010010111011
11111111110001101010010101111110
11111111111000110110010001101011
00000000000101011001001101001010
00000000000011000100000000100101
11111111110101101010010011111101
00000000001000000000011001001100
11111111111111111011100111010111
11111111111111110101110110001010
11111111111010010000101001001011
00000000000100001000101011111101
00000000001100011110000001010111
11111111111110101111101110100011
11111111111000001110101110011000
11111111111001110001001110011000
11111111111001000100101010111010
11111111111011111001111101010110
11111111111110011110110010110000
11111111111111110011011110101101
11111111111101101001010001011100
11111111111011010110000010001010
11111111111011110010000011111000
11111111110101110010110001101101
11111111110101101101001000011101
11111111111110101101011001110111
00000000000010011101111011101100
00000000000110011010011111100011
11111111111111101001101111011101
11111111111010101110001101001000
11111111110100111001000011111000
00000000000110110111111100001100
00000000000001100101000001011011
00000000000100001000011011011111
00000000000100000101111000100100
11111111111111010101110000000101
00000000000011010001101110110110
00000000000010001001010111000010
00000000000101111100100011000001
00000000000101000011110101001110
00000000010000010100100010111011
