11111111111111001110001110100101
00000000000000001110011011000001
11111111111111010010000100000011
00000000000010000001101000100001
00000000000000010100001010000010
00000000000010000011000100001111
00000000000000101010010011111000
11111111111110010011100000111100
11111111111101100001100100110110
11111111111111001110111111001111
00000000000000110001111101001011
11111111111100100011101010111111
11111111111111010011011000111001
11111111111100110000111110101111
11111111111111101111110001010000
00000000000000111001001100001110
00000000000000010000000011101100
11111111111101001011101111010011
11111111111100111101100101101001
11111111111101010111100011111000
00000000000000000000101011001100
00000000000000010011101000000110
11111111111101010011011011001110
11111111111100000010010110011111
11111111111111111101100010000100
00000000000001001001100110000000
11111111111100101101101101111000
11111111111101100001111010000000
11111111111111110100111110100101
11111111111110000110101110000011
11111111111110011110010010011000
00000000000001101000011010001100
11111111111111100110000011000000
00000000000010000011111010101100
00000000000010000101010111101000
11111111111110100001101010001101
11111111111100100111100100011001
11111111111101010100000111101011
00000000000010001111111000011000
11111111111110000010011100110011
11111111111110010010110011111011
00000000000001110000101101111000
11111111111101100011100110001110
11111111111111111010011011001011
00000000000000010010101111011100
00000000000001100000011001010001
00000000000010010100000011111010
11111111111110100100110100001010
11111111111100010001111000110010
11111111111111100100101111100101
11111111111110010010101111000101
11111111111100000100110010010110
00000000000000100100010001111001
11111111111110101111100010100110
11111111111110011101011010101000
11111111111110010111010010110100
11111111111110010110011110110010
11111111111111111011101000001111
11111111111110010001010001101000
11111111111111111001000111000001
11111111111110001000000011011110
00000000000001010000110110001010
00000000000001001010000001101000
00000000000000111101000111110110
00000000000000110111110001100011
11111111111100110000000001100001
11111111111100111100010111000101
11111111111100101001100010011001
00000000000000010011010011001100
11111111111111100010000000010010
00000000000001001110100100001100
11111111111111010100001110101100
11111111111100010011000011011101
00000000000000011010110011001000
00000000000000100111100001100011
11111111111110011010110010011001
00000000000001101101110100100111
11111111111111101010110100010110
00000000000000000000100000001001
11111111111101010101111001000000
00000000000000011000001010110000
11111111111111100111100001100011
11111111111110110000011101001001
00000000000000010010100000101110
00000000000000000011000101100101
11111111111111010000101001010110
11111111111101000101011001111101
11111111111110011001100111110101
00000000000000000010100110011010
11111111111110110011010110111100
11111111111111011101011110100011
11111111111100010010111101111010
00000000000000100100101111110001
00000000000001011000111000110111
00000000000001011011101100010001
00000000000000101011000100011001
00000000000000000100101100110000
00000000000001010001110001000111
11111111111110010101101100010000
11111111111100110011100001100010
11111111111100001000101011111100
00000000000010011001011000011111
11111111111110111110110101101001
11111111111101110010110011011101
11111111111101111100010001100011
00000000000010000000110011101010
11111111111111110111000101100011
00000000000000011111011000010110
11111111111101001000111010010111
11111111111101101011010101011100
11111111111110010101111000101100
11111111111111000111100000001100
00000000000001101111101101111001
00000000000001000000010011110111
00000000000000011001011011010011
11111111111111101110010101101000
00000000000010010000100100011000
11111111111100001100011000011111
11111111111110001110100100001100
11111111111100101011010000101101
11111111111101111110011011110011
00000000000001010111111110110011
11111111111101011100101010001101
11111111111101101100001101110101
00000000000001100011011000000001
11111111111111111101111001111000
11111111111110010111111101011101
00000000000000111100010010100111
11111111111110010111100010110110
00000000000001111110011111110111
00000000000001001010000111100000
00000000000000001111001110001010
00000000000010001100001000110110
11111111111101001100100010100101
00000000000000001010100111001100
00000000000001000000100101010111
11111111111101011000010101000110
00000000000000011000001001110110
11111111111111100111001100010111
00000000000001100101111111001101
00000000000000110011101110101100
11111111111100011110011010001100
11111111111111001101001100100001
11111111111111110101010110100000
11111111111111001111000010010001
00000000000001101001111010111011
11111111111110011000110000100100
00000000000010101001101000001110
00000000000010011001110101101110
00000000000000000010000010101000
00000000000001111011010111011100
00000000000001110011000110000000
11111111111100101101110111000100
11111111111101010010010101011000
00000000000010110011000001110011
11111111111110101010110011101100
00000000000000010100001010100011
11111111111111110001110001111011
11111111111110010111100111101101
11111111111100110101001111000100
11111111111111011000010001001010
11111111111101001110010011001110
00000000000010001000001101111001
00000000000010011010010101001101
00000000000010000110100111100001
11111111111101101110011100101110
11111111111111000010101000001000
00000000000001110011101010101100
00000000000001111001010001101000
00000000000001110111010100011101
00000000000001011010110011011010
00000000000000111110110110100000
00000000000001110111010000000001
00000000000001101111011101110011
11111111111111110001010010110001
11111111111111101001101101100000
11111111111100001110001010101011
00000000000000001000011110110001
11111111111111101110100100101100
11111111111101100101000000001100
11111111111110100101101011010101
11111111111111101111011001110101
11111111111111111000100101000110
00000000000001110111000001100010
11111111111100010000100101101100
11111111111101000000110101101100
00000000000000101100010011111101
11111111111111011001110100100100
11111111111101001110100101011110
11111111111101110100001011011001
11111111111111110110010100010001
11111111111110011011111101110011
11111111111100110011101111110111
11111111111111111000000111001001
11111111111111100100000011100101
11111111111110100000110110100000
00000000000001110011001100100100
11111111111100010001010100101011
11111111111110000100101010011001
11111111111100110110100000010100
11111111111110101001011101111011
00000000000001010000000001001011
00000000000010000111001110010111
00000000000001011100001010010001
11111111111111101111001011110101
11111111111111000011110010011010
11111111111110110010101101101111
11111111111110010101110001101011
11111111111101010010011010000000
00000000000000101010010011010011
11111111111110101000010011101010
11111111111100111011000111000011
00000000000000001010110000000101
11111111111100110000011111001001
00000000000001101011010101111001
11111111111101100100111100100101
00000000000010011000111100010000
11111111111111111010001000100110
00000000000001101001111001001100
00000000000010011111111101000011
11111111111111011001010101101011
11111111111110010000001000101111
00000000000000011111001111001100
00000000000000110110001101010110
00000000000010001010111001111101
11111111111111001000011010011010
11111111111101110110011000110010
00000000000010010110111010000001
00000000000001100000000010110101
11111111111111010001100101111101
00000000000000101000001010000001
11111111111101011101110100000110
11111111111100011110110000000010
11111111111100111000101100010110
11111111111101010101010101111111
11111111111111111001010111101111
11111111111111110111011110011111
11111111111110100110100010111101
11111111111101101110011000111010
11111111111101010011101010100010
11111111111100110000001111100001
11111111111110011001000101011100
11111111111101001000001110111000
11111111111100110010010110111010
11111111111111111001000101110111
11111111111101010100110110110110
11111111111101000001000010000101
00000000000000111110111101001101
11111111111101011110110001011011
11111111111100110001000011100001
00000000000001100111100110000001
11111111111110100010101100001011
00000000000010001100110001111100
00000000000001001111111100010000
11111111111100100011110010111100
00000000000000011000100011110110
00000000000000010101101000100010
11111111111110111010001001010000
00000000000001001101000100111101
11111111111101010100010000110111
11111111111100101010111110010011
11111111111110110010110110110101
11111111111101001100110100110110
11111111111110110000010011001100
11111111111111001100001110000110
00000000000001001000001101101011
11111111111100111101001001001100
11111111111100000110000101100101
11111111111111100101101100110011
00000000000010010000111000100011
00000000000000110000100010101100
00000000000000111001101110100111
00000000000000001001001110001110
11111111111110101100101010011011
00000000000000010000010011100011
11111111111110000000111000000111
00000000000010101000110101100110
11111111111101111110000110111101
00000000000010011100101111111011
11111111111101000111110010100000
11111111111110011010110011111011
11111111111101011001010000100110
11111111111101001111001000000011
00000000000010000010110000011000
11111111111110110001110110101000
00000000000000100101011101011101
11111111111110110000111110101110
00000000000001100010111110101001
00000000000010100110110010101101
00000000000001010100101100001011
11111111111110100001101011111011
00000000000001010101110001111010
11111111111101110111100100011011
11111111111110010101111110111010
11111111111111111111001111001111
00000000000011000110001001011001
00000000000001100111111110010011
00000000000000111011101011101010
00000000000000000110111111111000
00000000000001010101110100110100
11111111111111111011001001101101
11111111111110010111000111111101
11111111111101010011100111001001
00000000000000000010000000001100
11111111111100111100100010110100
11111111111101000111110010000000
11111111111111011101111000011111
11111111111110100100100110110001
11111111111101010000110010101010
00000000000001100011001010100001
11111111111100110001000011100111
00000000000000010001010010111000
00000000000001111100110111001101
11111111111100001110010000001001
00000000000000100101001010111000
00000000000001001000100100111010
11111111111101110110110100011001
00000000000001110011111101000011
11111111111100000100010101110100
00000000000010010100000001000010
11111111111101100010100000110011
11111111111111010001101100110011
00000000000000001111101111100110
00000000000000111001100011110110
00000000000001000011010011001110
11111111111110100001110101010000
11111111111100100011010001110110
11111111111100001101110011110011
11111111111100011010111001010001
11111111111111111101101011011011
00000000000000000010111010110001
11111111111111110101100100010010
00000000000000101001101001110010
00000000000000011011111000100010
11111111111101100010101001000100
11111111111111110111100100000011
11111111111110000001110101110110
11111111111101111011110010010000
11111111111111001110110001001010
11111111111111010101111011101001
11111111111111000101110010010000
11111111111110000010000100101000
00000000000010001011111110001011
11111111111110111100010010011000
11111111111101110010000011000100
11111111111111100111100001010111
11111111111111100000001000100000
00000000000000100010010001110101
11111111111100101110001100010000
00000000000010000001110011010001
00000000000001001101000101100011
11111111111101011001010011000011
11111111111101011001100100011101
11111111111110101000110110001110
00000000000001010101110111111111
11111111111100010111010100010011
11111111111111000111001100000110
11111111111100100001000110010110
00000000000001011111000010100101
11111111111100110111101000000010
11111111111100101100001100101101
11111111111110101000011111001000
00000000000001110001011110111000
11111111111110111111011001000110
11111111111111110011110000001010
00000000000000101111100011010110
00000000000001010001001100110001
00000000000001010110011011010010
11111111111111001011110111101010
11111111111101010011100100100010
11111111111111010101011111011011
00000000000010001011100010011000
11111111111110100010101001100011
11111111111110101010101100001000
00000000000001011110100001110110
00000000000000011111111010011100
00000000000000000110011011001101
11111111111110110001100011010101
00000000000001010110100000011101
00000000000010001011011011010110
11111111111100000100001110100101
00000000000000001000110011010100
11111111111110100011111110111001
00000000000010001110101111110001
11111111111101001100001101111100
00000000000001111110111111011010
11111111111111101000011100011110
11111111111100110100100110011111
00000000000001111100100111001001
11111111111100101100010010011101
11111111111100011110100001101101
11111111111101100001010111001100
11111111111100110010000010000110
11111111111110100110110000001001
00000000000000000111000100101101
11111111111100111010000101000100
00000000000001101100111100110010
11111111111101100101100111011100
00000000000010000110100010100011
11111111111100010101100111001111
