11111111110100111111000000111101
11111111110110100111001101110000
11111111111111010000010000001111
00000000000101101010100110000111
00000000001011111111101110001110
11111111111001111111001011111010
00000000001000000100000000011011
00000000001001000000011100001101
11111111111110010100110100001001
11111111101111110011011101111100
00000000000001011001100111010010
00000000000111101101111100100011
11111111111100111011111000101111
11111111111101111010010001010110
11111111111011010011010110011001
00000000000010001100001110100001
00000000000100100000101010000000
11111111111110001111011111110100
11111111111101111011111111101101
00000000001001000110000110001110
00000000001000000001000001110001
00000000001001110011010100101001
00000000000100001100001101110010
00000000000011110010001111001111
11111111110111101111111011001111
11111111110110111010101010011101
11111111101010101101101110111110
11111111111100000110010100001110
00000000001111000000101011101101
11111111111111000010010000111001
11111111110101101011101101101100
11111111111100100010100110100111
11111111101110110011110001111110
00000000000000001010100000111010
11111111111010101101001010111110
00000000000101010111110000011011
11111111110001000100101100110001
11111111111010100001011110011010
11111111110111011101010001011100
11111111111010111001000001010000
11111111111100110010111001000001
11111111111011011001000100011100
11111111111101010010111001000110
11111111111000111110101110101010
11111111111111101100000011010101
00000000000111000011001110001110
00000000010001000101001001110111
11111111110101000110010111010110
00000000000101100110110101011101
00000000000001000011110010010110
11111111111110111001011111010100
00000000000010010101101000110001
00000000000011100101111011110001
00000000000101100110000010101111
11111111111111110101111000000110
11111111101101010110000110100100
11111111111110000101110111100011
11111111111101000010100101101101
00000000000110100100001000110010
00000000000011100011101101111110
11111111110000001000100010000000
11111111111010001111111000010110
00000000000000010010100011010101
00000000000010111110011111011110
00000000000100000101101110011010
11111111111000010000100111101011
11111111111010001110000100001011
00000000000001110110101010111110
00000000000011001010001101110011
11111111111100010001110101101110
11111111111011011110100101110110
11111111111010110000001010000100
00000000000011101111010000101111
00000000000011000100010010111110
00000000000001011000010010111000
00000000000010111010100100001001
00000000001001101110000000100001
00000000000011001110010110111011
00000000000001010011101000001010
11111111111011000000111110001000
11111111111111111100011100010111
11111111111100011000001001001100
11111111111110100101001110011001
11111111110111001000111111010111
00000000000011101010100011001111
11111111111001100110000010001100
00000000000010010000001101011000
00000000000001101111111000011010
00000000000000101100111011001011
00000000000011110100111111101111
11111111110111111011111111011010
11111111111000011111010011100101
11111111111110101001111001111011
00000000000000000100010101001110
11111111111011110101101111110111
11111111111111000011101111100011
11111111111110011000011010110000
11111111111011101001110010111101
11111111111010001001101011111001
11111111110111100000100011000101
00000000000100111110001001110100
11111111111110101110101100001101
00000000000111111110110001001110
11111111111110101011011000101110
11111111111011100100100000010101
00000000000000001000111010001100
00000000000100000110001110010101
11111111111111110011011101110010
00000000000001101111011011001101
11111111111010011000001100100001
11111111111000010001100101100111
00000000000000000110101001010100
11111111111000111001111100111011
00000000000000011111011000000000
11111111111010011010011110111010
11111111110100111110101001010100
11111111111111110010100100011010
11111111111100001010100100101000
11111111110111010111111001000111
11111111111101010101100010100101
00000000000110001000101001001011
00000000000000010101011101110001
11111111111011000100010011101011
11111111111000001101000111000011
11111111110100010101100110001111
00000000001001101100011010111110
00000000001000000100000011111000
00000000000011011100001101010011
11111111111011001011010000011101
11111111100000111010001010011010
00000000001010000011010110000001
00000000000001000010011110010000
11111111111110101000010111011001
00000000000001001100000110001011
11111111111111000110000001010110
00000000000010000000110000111010
11111111111101110000110010001011
11111111111111001111110011110001
00000000000001100000011101001110
00000000000001110111001110111001
00000000001010010110010001100100
00000000000111001100100111000110
00000000001011101011110101101110
00000000000011100010001101111111
00000000000000100010111101000100
11111111111010111110110010110101
11111111111101011100100110111110
11111111111001111101001000110111
11111111110111000111010100000011
00000000000000100010011110001111
00000000000011100010010010010110
00000000000011010001100100010110
11111111111110011001010101011011
11111111111011100101110110100101
11111111111001101100100001010101
00000000000010100101010010001111
00000000001001100000000000101110
00000000000100100001011010100010
00000000000010000100000100100010
11111111111111111100100000100001
00000000000100101100100000000010
00000000000101110100011111010000
00000000000010000100011001011110
00000000000001101111000111101011
00000000010000100000111001100111
00000000000001101111000000000011
11111111111110100010101110010010
00000000000000111010101111001000
00000000000100110100100011101010
11111111111010111111011011010011
00000000000101111011110010110110
11111111111111000101011001001100
11111111111111100111001010111001
11111111111111100101100001010110
11111111110011010011011110001010
11111111110100000010010000111111
11111111110010110010010100110000
11111111110110000001101110000000
00000000000100110000101000010011
11111111101011110001010100111111
00000000000000001101011111111101
00000000000101111011111100101000
00000000000010101101010110110101
11111111111111010110000001111010
11111111110011011111001101011101
11111111111111000110011001001100
11111111111010101000110010010101
11111111111011110101110001011011
11111111110000010001111101101110
00000000000101110001011011110000
11111111111011011100100111001110
00000000000010111010001011111100
00000000000000010000001110011110
00000000001111110110010111001110
11111111111110011100111100001101
00000000000110110011100000000000
00000000001100000111100011010000
11111111111110011000110000001100
00000000000001110101110101110111
00000000000111100010100110011001
11111111110110111011001111101100
11111111111000001111000010000000
11111111111001011000000111101001
00000000001010110111100000100111
00000000010110111110110101101101
11111111110111101110011110010000
11111111111101000010000010011111
00000000001000010001010100111000
00000000000011010011000001011110
11111111110000101000000100100000
11111111111000111111101001000010
11111111111101001010111111010101
11111111111011100001011011100110
11111111110101100101111111000111
11111111100101100101011110000000
11111111111010110110101000110110
11111111111011101101010001010101
11111111111111001011100000000110
11111111111011111001011000010111
00000000000010111111110100111000
11111111111011111110011001001010
00000000000001010010000101011101
00000000000100000011100000010010
11111111111011011100000010000100
11111111111010011001110101001011
11111111111011111100101101111100
00000000000001101100001001000100
11111111111111101101111011100110
11111111111100111011000010000011
00000000000000000000111101010011
11111111111100011001101100011101
11111111111101100011001010001000
00000000000011111100000010010001
11111111111111001110101111011111
00000000001001001001101100100010
11111111110110010010011000110001
11111111111101000100111110011001
00000000000111100110010000000100
11111111111010100001001101101100
11111111111110101001111110111111
00000000000010101010001000000101
00000000001001011110110110011001
00000000000010110100010010111111
11111111111110100001001001101000
00000000000000001110110010011100
00000000000110111010001110010010
00000000001001101010110101001011
00000000000011001111110100100110
11111111111010010001100110000011
00000000000000001100100010111011
11111111111011111100000011100001
11111111111101001011011000100101
11111111111010011011001110100011
11111111111010111101101110000000
00000000001001011010101000101110
11111111110011011100100101110101
11111111110110000000101101010000
11111111111001000111011100110001
00000000000111110010001100001011
00000000010000001011011100001100
11111111101110111100111011111111
11111111110110011011111110000101
00000000000010011011001010111100
00000000000001101010110111001010
00000000000000000011110111110010
11111111110100111000101010000010
11111111110011011011101100111010
11111111111010011001101110000101
11111111111110000000100110101010
11111111111101011101100110010000
00000000000010011000110111010011
11111111111111001001100001101101
11111111111111101010100011111001
11111111111111110100100101100111
11111111111110010100000010010101
00000000001001000101010100000101
11111111111100101101011111011001
11111111111010100101000001010011
11111111111100111011011001011101
00000000000100110010001110101101
00000000000101100110110000001011
00000000000001111010011111001111
00000000000100101001101100010101
00000000000101100011101111111100
00000000001011011001000000000000
11111111111110000001110001100100
11111111111100101100110001110001
00000000001000010110101011110111
00000000000011111111110010010011
00000000000010111101001100101010
11111111111000011001000100110000
11111111110101011001101111011010
00000000000111010000001101110111
00000000001001001101010110000100
00000000001001100011100111111011
11111111111011111000011111101001
11111111110011101001100001000110
11111111111010101100111100001110
00000000000001101010011110011110
11111111111100011000110010110000
00000000001111101001000111010111
00000000000010101010100010101010
00000000000001001010111010000000
11111111111001001110101111100011
11111111111110100001000010001110
11111111110100000110011000110010
11111111111011101010111111010001
11111111110011111001011101000001
11111111111010111000010010010110
11111111111000111100110000110111
11111111101111011101100101111001
11111111111000010101111001000000
00000000000010011111111001010011
00000000000011001110110010011011
11111111111111111000010110010100
00000000000010011000111111000011
11111111111100010010001011001011
11111111111100001001010100110001
11111111110111110100111100100000
11111111111100100111100100001000
00000000000011100100011101111101
11111111111011001010110101110010
11111111111100100111000001110111
11111111110111001111000111110101
11111111111000011101100011000001
00000000000000111100011010010100
00000000000000010100001101110111
11111111111011011101101100110010
11111111111011000011000110110111
11111111111110000000110010010100
00000000000010101010000111000101
00000000000000011111000011110010
11111111111011101010000001001110
00000000000001001011111101001011
00000000000111110010010101100010
11111111111111101001111000100100
00000000000001111100101011100001
00000000001100000100100000110111
00000000001010000101000011111010
00000000000011110111010011001110
00000000000110000100100001110001
00000000000111001000001011010100
11111111111000101110001001111010
00000000000100010011110101000111
00000000000101000000101010011110
00000000000111101100011111011011
00000000000011111101000010011110
11111111111101101011100101000110
11111111111010011010111000101011
11111111111001110111010101010100
11111111101101011111111000001111
11111111111001001100001110010101
00000000000010011101000110110100
00000000000110010101010010010010
00000000001000101111010101100100
11111111011111001111110001001111
11111111110101100100000110100010
11111111111111100111010010111000
00000000000101110101110001011001
00000000001001100101110000100010
11111111101011110101110010101011
11111111101111000101111001001010
00000000000000100101101010001000
00000000000100000100000100111100
11111111111111000000111101011110
11111111101010010000011110101001
11111111110101010111100101101110
11111111111110011000100110001101
00000000000000010111111011100101
00000000000001010110001100000011
11111111111100001111100101100010
00000000000000110001111100111010
00000000000111100000001111110110
00000000000101001100111100010100
00000000000000101100111111110001
00000000000100001000110000100010
00000000000100010011011001010010
00000000000000110001011011100111
11111111111111010001110011001101
11111111111010100101000011001100
00000000000101101110001000100001
00000000000010110000000001111101
00000000000000011110110110000111
11111111111001001101001000001111
11111111111001010111101110001011
11111111111100100001101111000001
11111111111101011100100010101100
11111111111100010011110100110110
00000000001000011001000101101010
00000000000111000010111101111100
11111111111101101000100110001110
00000000001000110001001011110010
00000000001011010011000001101110
00000000000010100010001101001001
00000000000111100000010101000001
00000000000011001101111111011000
11111111111010001100111000011101
11111111111010000010011110010101
11111111111010010110100011001010
11111111110110101010010101110000
