00000000001011111001011010010101
00000000000111110000010111101000
11111111110101101111100110101100
00000000000000110110011110011101
00000000001100111101101101010110
00000000000001100111010101000000
00000000000010010101001010100100
00000000000011000101110000001101
00000000000101111011100001111001
11111111111000101001111111011101
00000000000100111010100110110100
00000000000011000010010111000110
11111111111011010101001110011001
00000000000010101100001111110111
11111111111001100001011011001111
00000000000000101111000100011011
00000000000010000011101001100011
11111111111001001001010101001010
11111111110110000101111010111110
00000000000110000011010001010110
00000000000001101110001010001010
11111111111101010001010001110111
11111111111100111011011011000100
00000000000001101110001000011101
11111111111110111101010111100001
00000000001100011111100111101000
00000000010010111011000100010000
00000000010100001101110101010000
00000000001111000000111000000011
00000000000001111110110001101110
00000000000010111111010011010010
00000000000010001011011000100100
00000000000010101000001010011011
00000000000111111111011001111000
00000000000010111100000010101001
11111111111001111110110001000110
11111111111111110010101001101010
00000000000001001001011100111001
00000000000010010001111110011000
11111111111101110011100010000100
11111111111110111000111111100000
11111111110011110011110110000110
00000000000011100100100010010010
11111111111101010111001101010100
11111111111111011101000101110100
00000000001000110110100110000001
11111111111111111001010101100011
00000000000001000101101001111010
11111111110101111010000000000111
00000000000001010101011110111110
11111111111111001001110000000101
00000000000000111010101111010010
11111111111111110001101011001010
00000000001000000110111000000110
00000000000011011111010100111000
00000000000000001011011111010101
00000000000000110011110001011101
11111111111110000001000110100010
11111111111110011010000010110111
11111111111111100011111101001010
00000000000000011000101100011000
11111111111110110110011000101011
00000000000001101000100001110111
00000000000100110001011010000000
00000000000100011110011011001000
11111111111011110000000000100011
11111111111001110001001111001110
11111111111101111110110010100101
00000000000100101100111110011011
00000000000101011010100001000000
11111111111101111010000110101011
00000000000101011010111101111001
00000000000101000000100111000101
00000000000100011101101001110101
00000000000000001101111011000000
11111111111110001000010101001111
11111111111011101101100000010000
00000000000001011000101010101100
00000000000011010111011011000000
11111111111111011011011101111011
11111111111111111000010100011111
11111111111011100111101101000001
11111111111011111011101111001001
11111111110111000000110000111001
00000000000000001100000101101100
00000000000110110110011111001001
11111111111101101111101101011000
00000000000011000111000101010001
11111111111101001101010100010110
00000000000100011100111010111111
00000000000010011000010000001011
11111111111110001001110010101100
11111111111101000110101010100101
00000000000100011011011111110100
00000000000110110011110011000001
11111111111101011010001111001110
11111111111101111010111011001010
00000000000100001101011001101111
00000000000011101001101001001111
11111111111010110000110111100000
00000000000001110001111101100101
11111111111101101001010111111100
00000000000010011011011101000110
00000000000100001111000010000010
00000000000100000100110000101111
00000000000000110100101010011000
00000000000010000011001010000001
00000000000110101100000110101001
11111111111111011001101100000110
11111111111110000101000110110010
11111111111111111011111000100011
00000000000001011110100000101111
11111111111111010101111011000001
00000000000010001111111000010110
11111111111010110010101000101000
11111111111011111110010000110111
11111111111111110010010011001001
11111111111110011100100000101111
11111111111110110101001011111111
11111111111100000000001101011111
11111111111101010011110001110110
11111111111001100101000101110011
11111111111001101111110110101011
11111111110110001111000111100001
11111111110001001100011101100110
11111111111001011000011110011000
11111111111010001110111001011011
00000000000010000000100101000111
00000000000000011001000010001100
11111111111001010011010111101101
11111111110110100000100000110101
11111111111100100000001100010111
11111111111110110001011001011111
00000000000001000010011001111010
11111111111001101001000011011000
00000000000100111010001000011000
11111111111010011010010011100100
11111111111001011110100101010111
00000000000100100110100001001001
11111111111101101111010001110000
00000000000011111000001010010110
11111111111101001011001111111111
11111111111000000010001000000010
11111111111110011110101111110101
00000000000100000111001001001010
00000000000000111010011101100100
11111111111100001010111100110101
00000000000001001000100000100010
11111111111101001011100110110001
00000000000100100110110001110101
11111111111011001010001010101100
11111111110111110101011011001010
11111111110101010100010111001111
11111111111101000110010101101011
00000000000000101101110011100000
00000000000001100011111111001101
00000000000101011001001101101101
11111111111010100001100010111100
00000000000110101001110000100011
00000000001101001110100111101111
00000000000101111000111100011100
11111111111101111110001000010000
11111111111111000100011100111001
11111111111101010000110011011010
00000000010011011010101100010010
00000000000111111010010111000101
00000000000000000010001111001001
11111111111100101101110000001000
00000000001010111010111010110100
00000000010010101100110100101010
11111111111010001011111011000111
11111111110111001001010111000100
11111111111000100010110001010100
11111111111101011011011111001001
00000000001001111111110110010010
11111111111000110101011100111010
00000000000000010001001111100101
00000000001101010001100101110100
00000000001011101000101001000010
11111111111101111101000011100101
11111111111110001000111100001010
00000000001000011010001011000100
00000000000100111011001011001110
00000000000001001010001101111001
11111111110100110100100111111001
00000000000010011100110000101110
11111111111001101011111010011101
11111111111011110000101011110011
11111111111111011101011101011010
11111111110110100000000100111010
00000000000001100001001010101100
00000000000101100111000000011000
11111111111101110100010110101111
00000000000001101101001110001011
00000000001011011100101100011001
00000000000101000101101010010100
11111111111010111000100011010100
00000000000101001100010011001110
11111111110111100100010011010001
00000000001011010011000011001111
00000000000000010100110111000100
11111111111110110010001001101011
00000000001001010010000110010101
00000000001111101000110110010001
00000000011010100100000100011000
11111111111101111011001111100010
00000000000010110101010001000010
00000000001101011110011001011010
00000000001011001011101011000011
00000000000110011110011101000010
11111111111100100001100100111110
00000000000101000110010101000000
00000000001000100010101000000101
00000000000011110111011000000011
11111111110110111101000110101011
11111111111101010010001000101001
00000000000010111001110011011011
00000000000110001100110100111100
11111111111111010011110110111110
11111111111101100110111100111010
00000000000010011101011101110001
00000000001011001011011111011000
00000000000110011111001111001001
11111111111100100110011000011100
11111111110101101110011101011001
00000000000101010111011000111101
11111111111101011111101101101001
11111111111101001010011101100100
11111111111110101101110100100101
00000000000100011101100010100101
11111111111100000110000001110010
11111111111011100100101110110101
11111111111011101101001110001000
11111111110111011011011101001110
11111111111101011111100110001011
11111111111101000100000011001100
11111111111111011110000010001000
00000000000011110111001110000110
11111111111011000100111000111101
11111111111110111000000001101010
11111111111110110001010001001101
11111111111111110001110111110101
11111111111010000110010111110011
11111111111000011101001100100110
00000000001011011110010100000011
00000000000000011000101001101101
00000000000001100000001111100011
11111111111011001100010010000010
11111111101111000111001000000101
00000000000000010110100000011010
11111111111110000100011010111000
11111111111111000010100000010001
00000000000100101101001111100000
00000000000101000101000011101100
00000000000111101101010000000010
11111111111110000110000011011000
11111111111101000111111011100101
00000000000101101000111011010010
00000000000100110111101011101100
00000000001100111100100011011011
11111111111100011111111001011010
11111111111000111100101001000010
00000000000011000100000011110101
00000000000101111100101110000110
00000000000001110100110010100100
11111111111011010101000101100100
00000000000000001101001000110100
00000000000001101010001001111000
00000000001000001011101001011000
00000000000001110011111001110011
11111111111011100110101100010101
00000000000001100010000000111010
11111111111111010110110110100011
11111111111110010000110100010001
11111111110000100010110010001110
11111111101001111110000010000101
00000000000010010010001101000001
00000000000000001010001101110110
00000000000101000010101000011111
11111111111110110101100101110000
11111111111000000100010011110010
11111111111110101101100011100010
00000000000111101000111110011111
00000000000000101101100000000001
11111111111111100010010000110000
00000000001011011011101010010010
00000000000100010001010001011001
11111111111010101001001110001011
11111111110101011000101000110100
11111111111011110110111010110100
00000000001101000110101000101100
11111111111010110001010100010101
11111111111001110100100001010001
00000000000100110011000110011011
00000000000110100111011001011100
00000000000111011111001110000110
11111111110000101000111001110110
11111111111000110010110011110011
00000000000010110001010001111011
00000000000100011001010110111100
00000000010001110001000110001011
00000000000111001110001100110011
00000000000001101101111000011101
11111111111110010010011000000110
11111111111001001001111000100011
00000000000101101111111000110001
00000000000111011010000000011101
11111111111011000100010011110001
11111111111100001101000100001100
11111111111010101010101010000111
00000000000100001001000100101000
00000000000011110111001101110001
11111111110111101011110001001001
11111111111101100000101011100001
11111111111010110110000111111101
11111111111111110110000110111100
11111111111101100000011110110111
11111111111010110110101011111011
11111111111101101110100100110101
11111111111100100100011100101011
11111111101011011011110000001011
11111111111010010001100110001111
00000000000000101110100000001110
00000000000100101010011101011110
11111111111001101000001000101011
11111111110100010000110100110101
11111111110111001110111100010111
11111111111001001101100111001100
11111111111010001010000011110110
00000000000011101100100110110100
00000000000000010011011110100011
00000000000100011111110010001000
00000000000001010100011010110000
11111111111111100000110011101110
00000000000110100101101110011100
00000000000101111000110001100101
11111111111110010110110000110111
11111111110110000000011111101101
11111111111111111101000111111011
00000000000100101011001101110110
00000000010011111011001010000011
11111111111110100011000010000011
11111111110110000101110110100110
11111111111111011110000100010011
00000000001000010111110000000010
11111111111011010100101111011110
11111111111110001010010000100100
11111111110101110010001111100111
11111111110111011111001110111111
11111111110110100010101000001100
00000000001010111011100100000100
00000000000111000101001100100001
00000000000111010001001100011011
00000000001001110111100111111110
00000000000011101100111111010001
00000000000100010111000011011001
11111111111111011101010101001110
00000000000001000111110101110001
00000000000010001011000100100110
00000000000010110110001111010000
00000000000010101001000001011011
00000000000011001010001111001101
00000000000011110110111011111010
00000000000000101110000001111111
11111111111111010000111100011101
00000000000001010001001101010100
00000000000001010110100000011101
00000000000011110001111010001101
11111111111111101101001100101001
11111111111010111011100001110111
00000000001010001011001110000001
00000000000001100110010000010011
00000000000100001011100110001010
00000000000010110111100111100001
11111111111101011101000110011000
00000000000000111110110011110001
11111111111000110000011100111001
11111111111000101000011111010110
11111111111000110111001010010001
11111111110101011111111100001000
00000000000011101001001000111100
00000000000000001010101000011111
00000000000010011110101110111100
11111111111101000101001001101000
11111111111111000001111000000110
00000000000010101010011111000100
00000000000000111101101100110110
11111111111001111111010101000010
11111111111110101101111001111001
00000000000001000001101011011110
00000000000000100111000101001100
00000000000101101100001111100011
00000000001000000011010110110000
00000000000000011001111010000000
00000000000011100011110000000011
11111111111000100110110010101111
00000000000000000100001010010101
11111111111111000100111111010101
00000000000011110101010110110000
00000000000111001110101000110001
