00000000010011000111111111011100
00000000000001011101001111100001
00000000001011100101111001100110
00000000001000111011110101100001
00000000010000001000101101001110
11111111110110100101000000110001
11111111110011010001001110100111
11111111111001110001000100000110
11111111111100100111000010000101
00000000001000000111110101001010
00000000000010110101101001101010
11111111111100000010001110011110
00000000000001001000111110010101
00000000000100000110011111110011
00000000000001011000011100010101
00000000000000010001110011010100
11111111111001011110111000001010
11111111111010100101100100010111
11111111111110000011011100011001
00000000000010011100010111010100
11111111110011001010011101001010
11111111101111010011111000110110
11111111111011111010010001111100
11111111111111100010011110010000
11111111111101001001011001010110
00000000000011001001010001111011
00000000010000001101000001001101
11111111111111011001000001110000
00000000000111010100111110110001
11111111111000101100111011010110
11111111111011100101101100110000
11111111111111111100111100111110
00000000000100000010100011010000
00000000001000111011111101001000
00000000000000001000000000000110
00000000000001001000111110101001
11111111111110011110101011101110
00000000001011001100011010001100
00000000000010100110001101000111
00000000000000101000101001111101
11111111111011101101110000100110
00000000000011001000011010100110
00000000000111001011101011110110
11111111111010110000100010010001
11111111111000110000100011011101
11111111111001110000010111111111
11111111110110110010000100000101
11111111111111000001011010100101
11111111111001011110000000011011
11111111111110011111011001000010
00000000000001101100010000000111
00000000001000011110011000000111
00000000000111010100111111100100
00000000000011001100110001101110
00000000000011001101100110110101
00000000000101001101100010111001
00000000000010101100111001000101
11111111111101000010001011011101
11111111110111010101101011110011
11111111111100000111000010001101
00000000000000110000011110000010
11111111111110011000001000011101
11111111111111111010011000000110
11111111111100111100100011001110
11111111111011011110111011110101
11111111110111111101000110000111
11111111111110001000100100110001
00000000000010100000011011101001
00000000000011001010000110001011
00000000000010101100110110101011
11111111111011011100010111011111
00000000000111101111010101110110
00000000000111110110100001010010
00000000000001110010000110110011
00000000000011010100000000010010
11111111111011010000000010011111
11111111111010000111110010010110
11111111111000000010011000101010
00000000000010011101001001100100
00000000001000010100010101000010
00000000000000000010111100111010
00000000000010111110110010110000
11111111111111001001110101101100
11111111111010000010101001000001
00000000000001001111100010110111
00000000000001110100000010101111
11111111111010110111001111110101
11111111111010100011101010111101
11111111111000100001000101010000
00000000000100010110010101000101
00000000000010001010101111111110
00000000000011000011010001000111
00000000000001111000101110011011
00000000000001010100011111011010
00000000000110101110100100010111
00000000000000111110111111001000
00000000000110111011100001010001
00000000001001011100101111111101
11111111111111110011111000000010
11111111111101100101110110001110
00000000000110001001100101011010
00000000000001100111100001101001
11111111111110110001111000000000
11111111111111001101110111111110
00000000000101001100000001110011
00000000000000010010010100000000
00000000000000100100011010010001
11111111111101000111111110100011
11111111111010010111000100010001
11111111111110100110001001101111
11111111111110001100100100000001
00000000000101011110001101000010
11111111111111110010001101001001
11111111111001111100101110101001
11111111111111001001001011001100
00000000001001110110001100001011
00000000000101111010100101111100
00000000000101110000111011101100
11111111111110101111101010011001
11111111111101110001110000101010
11111111110110101111100101000101
11111111111000011011011110101001
00000000000100001100101000101010
00000000001011011111001010100010
00000000000010111111101011101100
11111111110011111001011000011100
11111111101111100000100111111111
11111111110011010110100011000110
00000000000000110010101110110101
00000000010010111000111000011000
11111111110110100010111011001110
11111111111110001100101101100010
00000000000101001010110111111110
00000000000101001111010100111110
00000000001101001110010111001010
11111111111111001110110011011001
11111111111100100101010000111100
00000000000000110100111001111101
00000000000001111001110000000101
00000000001001111111010101010000
11111111110111001011000001010000
11111111111001001000001111100001
11111111111000011111000101011000
00000000000010101101100010001110
00000000001001000001011100100100
11111111110111000011010101100111
11111111111001010100111000100010
00000000000000000100011100001110
00000000000011100101001001010110
00000000000000010110010001111010
11111111111011110110010111010111
11111111111101110110010110100011
11111111111110110111101011101001
00000000000111000101100000011110
00000000001101000110100000000001
00000000000010011011010111101000
11111111111111110110110000100000
00000000000010001111000011010101
00000000000110110001100110001010
00000000010000110101001101000011
11111111111001011011000010011110
11111111111100001000001100010111
00000000000000110100001111001001
11111111111110110011100000001010
00000000000100110111100100010001
00000000000011110100001001001010
11111111111001101111000000011011
11111111111110000100000001001001
00000000000001101111101010001001
11111111111110010011011011011100
11111111111010101000100101001100
11111111111111000101001111001000
00000000000011001101011101010111
11111111111010011000100000111000
11111111111111011010110110100100
00000000001000010001011001010100
11111111111000111100100011000101
00000000001010010000011101000111
00000000001100011000001010101111
00000000001110011111110101101001
11111111110010110101101100000100
11111111110111111100000111011110
11111111111010000111001110110111
11111111111001101110100011000011
00000000000101000100110100000010
00000000001000101100111111110110
00000000000010010101010011100010
00000000000111101111000101100110
11111111110110010001111101000001
11111111111101111101110111010100
00000000001001101000100100010010
11111111111010001000101000101110
11111111111000010110011101011111
11111111111111011101101001001110
00000000000101101101110000110001
11111111111110011001110010001101
11111111110010001110100011001101
11111111101101010001011001000110
11111111110010010001000000101100
11111111111101010110110110000001
00000000001110010010100100001111
00000000000111010011001010110000
00000000001000110001111001101110
00000000010010001001010001110100
00000000010010101100111001100100
00000000000100011100001100101100
11111111111101110000110001011100
11111111111001010001101001101111
00000000000010010001001001000000
11111111110111010000100000001110
00000000000011101011001110000000
00000000000101000100001111100110
11111111111111111100001100110010
11111111111001111100010111101110
11111111110000100111101100100100
00000000000101111011011011000001
00000000000101111111110100100101
11111111110101100000011100000111
11111111101011110101100101001110
11111111110101011001100000110110
00000000001000001010000000101001
00000000000000001010001110101001
11111111110111001110011001100000
11111111111001101011010100101110
00000000000011111001111110010111
11111111111110110001100111001101
11111111111011010000101000001111
11111111111100000000110011000001
00000000000010000101110100100111
00000000000001001100010101000011
11111111111101010110111101111100
11111111111100111111111001011010
11111111111000000010110010110111
00000000000010111001100010001101
00000000001011110100111011000110
11111111111111001010111010100111
11111111111110000011001110011011
00000000000110110110001001001011
00000000000101111110011111010111
00000000000101110101001111001000
00000000000111110100000001010110
00000000000011011000100110100111
11111111111100001100100010000001
00000000000010101001110111000100
00000000001011011100100000111100
00000000000001111001001011001000
11111111111100011000101001011011
11111111111011011011101111110100
00000000000100110100010001100000
00000000001001011101001100001110
00000000000100010010110110001110
00000000000100100000010001111110
00000000000110100100100010001100
00000000000100111110110010111111
00000000000111101100101111001010
00000000000111001010010010110010
00000000000100011001010011010000
00000000000100011110111001111111
00000000001011110000001111111000
00000000001110110001101011010101
11111111111101111000010110100100
11111111111010011000110101010110
00000000000000101100110111010110
11111111111110101001011101111110
11111111111110001111111110111010
00000000000000011001000110101001
00000000000111010011110110101000
00000000001010100001110010110000
00000000000010011010100010011000
11111111111100101111101100011011
11111111111100101000101100010100
00000000000001000000100010000101
11111111111101100001000000110011
11111111111010100011101101000001
11111111101111110110110011110000
00000000000011110011100011001100
00000000000100101100011101010011
00000000000101010001101101001000
00000000000010101010111011110111
00000000001000001100011101001101
11111111111000011111000000100110
11111111111000010111111100101010
00000000001100111000000011011110
00000000000001010101011001111111
00000000000001010011011011110111
11111111110110101101111100010011
00000000000000110001010010011100
00000000000000100011101100100001
11111111111110000000011011011011
00000000000000101001001010100101
11111111111011100110101011011101
00000000000001010111110001001001
11111111111011011011111100011010
11111111111011111111011110110001
11111111111011010100101111111010
11111111110100010100010111001000
11111111111101100110011110000010
00000000000110100101110101010001
00000000000001101010110110000110
00000000000100000011001101110110
00000000000111110110011011111101
11111111111100000101011111111000
11111111111001100001010010010010
11111111111010100100110101010101
00000000000010101111110101001010
00000000001011000010000100010001
00000000000111010001000000000101
00000000000011000100000010000011
11111111110100010111000100000101
11111111111111000000100110111010
00000000000110010111000110111000
00000000001010110010011010001101
00000000000011001000000100001111
00000000000000010001011001011011
00000000000100001100000000011001
11111111110111111101110001100011
00000000000100110010101111000011
00000000000101110011010101101011
00000000000011111110011101100000
11111111111011010110100110011101
00000000000001010001101000001101
00000000000010100001101000111100
11111111111111010111001101001100
00000000000010010110101101101101
00000000000010000010100010001111
11111111110110011001000101000111
11111111111110110100001000001101
00000000000100110011101110100010
00000000000000101000110100000111
00000000000000101101001111111101
11111111111100101011111101100111
00000000000100011111010011101100
00000000000011000100010000011010
00000000000010000100111011000101
00000000000101101010011101110101
00000000000000111110111010001001
00000000000110001101101001010101
00000000000000010010101011100101
00000000000111010111011111000010
00000000000111000010110101110011
11111111111101110111001101101000
00000000000010100110010001101000
11111111111100110011010000000110
00000000000011011011011001100101
11111111111001000010010110111001
00000000000000011011100101111000
00000000000000011000011001111011
00000000000100101011111010110010
00000000000110001010101001011110
11111111111011011100010001010100
00000000000110011101101010111100
00000000001001010001000100001000
00000000000111001101011110001000
11111111111111100101111110111111
11111111111000010100001110000101
00000000000001100101111110110110
00000000001011000100001011001011
00000000000010010001010000000100
11111111111010001001111101000101
11111111110111100111011110010101
11111111111010001001010010010010
00000000000100010001001000010100
00000000000100101010010110100111
11111111111110001010010001011010
11111111111000100111000110001101
11111111111011100000100110101000
00000000001001001011011101111000
00000000001010110001100010101101
11111111111010100111011111001111
11111111111110011101111000011111
11111111111010111011111011100001
00000000000001001010110010011101
00000000000011100100011100001111
11111111111011000111000000001101
11111111111010110010101010100100
11111111111000001111110011101101
11111111111010001010111111000000
11111111110101011011000010001110
11111111111000110011111101101100
00000000000000100001111010011110
00000000000011000110010000111110
11111111111101110000100000101110
00000000000000000100000001111000
11111111111101100101001111000100
00000000000110011111000101000111
11111111111111010110001110010010
00000000000001011011100001000001
00000000000001010011011001111001
00000000000000010010011110010101
00000000000101100100110010100101
00000000000011010101100110100110
11111111111101111111000100111010
11111111111110111010011000101000
00000000000011110001111001000101
00000000000100111011101110110011
11111111111101000010001000010000
11111111111100110010010100100100
00000000000101010001100010011010
00000000000101011110110100101001
00000000000001000000110111010010
