00000000000110100101101000010000
00000000000100101000101101010111
11111111110100100100001110110000
11111111111010001100100101000100
11111111111001010111001110110111
00000000000010010010101010100110
11111111111110011101111000000011
00000000001000000100001001001100
11111111110011110111100100000100
11111111111100111101011011011101
00000000000100011001010100111010
11111111110110010010010010000010
11111111111010100111000111111111
11111111110110010000111111011001
00000000001000110100111100010111
00000000001111000001111101101000
11111111110110010010001110001110
00000000000011001010110001111100
11111111011101111000010111110011
00000000000101100011101101000110
00000000000001111010011001011000
11111111111101110011101010100000
11111111111111010111101101110010
00000000000100000110100111111000
00000000001000100001110100111110
00000000000010011010000110001100
11111111111001000010001001000001
00000000001011101011101011001101
11111111110010010001100101101001
11111111101100110110010011001100
11111111111111010000111110110000
00000000000001101010010110010010
00000000000110011101100111110011
11111111111110100110011001101000
11111111111001101100100110010000
00000000010000101011100111010001
00000000001010001100011010000100
00000000001001111010110011010011
00000000001000110100011000000100
11111111110111110011110001101111
11111111111001101100101010101011
11111111111010101000011100111110
00000000000011000000111000100010
11111111110100110000001011001101
11111111111101100000010000101100
00000000001001001010101110101000
00000000000100100111010110001011
11111111101000011100100001110100
