-- begin_signature
-- f5_bias_ram
-- end_signature
WIDTH=32;
DEPTH=10;

ADDRESS_RADIX=UNS;
DATA_RADIX=BIN;

CONTENT BEGIN
	9 :	11111111111100110110100110101001;
	8 :	00000000000001001011001100010011;
	7 :	11111111110111101101100110110111;
	6 :	00000000000111100100010000111100;
	5 :	00000000000110111011100100011010;
	4 :	00000000000010111010110111111110;
	3 :	11111111110100010001110011100011;
	2 :	00000000001010000000011100001111;
	1 :	00000000000110001011000101111011;
	0 :	00000000000000111101100111001110;
END;
