-- begin_signature
-- c1_weight_ram
-- end_signature
WIDTH=32;
DEPTH=150;

ADDRESS_RADIX=UNS;
DATA_RADIX=BIN;

CONTENT BEGIN
	149 :	00000000000010100110001010010001;
	148 :	00000000010111010011011111110010;
	147 :	00000000010000100101010100000110;
	146 :	11111111110101111000101010011110;
	145 :	00000000000101100000111000110010;
	144 :	00000000010111101100111001101111;
	143 :	00000000011000111110010010000111;
	142 :	00000000010110110000111100011110;
	141 :	11111111111100010100101010100010;
	140 :	11111111110011100000010010100000;
	139 :	11111111111000111011111011000000;
	138 :	11111111111000101101001000011000;
	137 :	00000000000010110110101110100110;
	136 :	11111111110001111001101000100001;
	135 :	11111111110011101100100101011000;
	134 :	11111111101000110100100011110001;
	133 :	11111111110101110001000100110011;
	132 :	00000000000111010110001110101110;
	131 :	00000000001100011010100101101001;
	130 :	00000000001000011110111011011001;
	129 :	11111111101111101111010001000011;
	128 :	00000000000001110110101001000000;
	127 :	00000000000010100111011001101011;
	126 :	11111111111111001000000110010000;
	125 :	11111111111100000001001011000000;
	124 :	11111111110101101101010101111100;
	123 :	11111111111101111001000001011101;
	122 :	11111111111000100011110110110110;
	121 :	00000000000100110100100101010001;
	120 :	11111111111010101111000100000111;
	119 :	00000000000110100000000001110101;
	118 :	11111111111001001010111001100111;
	117 :	11111111111101001000100110110111;
	116 :	00000000000100110010001001010001;
	115 :	11111111111110011110111111001100;
	114 :	11111111111000010100010000011011;
	113 :	11111111111001001111011100010111;
	112 :	11111111111001110101110110101101;
	111 :	11111111111110011001001010011111;
	110 :	11111111110110011101011011011000;
	109 :	00000000000101110111101010010101;
	108 :	00000000000011110001010110101100;
	107 :	11111111111010101001110111001010;
	106 :	11111111110010110000100101011100;
	105 :	00000000000100111100101111010000;
	104 :	11111111110010110001100101011000;
	103 :	00000000001000100100110100000111;
	102 :	00000000000000101001100011101110;
	101 :	00000000000011010010110000110000;
	100 :	11111111111010110100111010111101;
	99 :	11111111111100010110010101011001;
	98 :	11111111100101110110001010100001;
	97 :	11111111100101101111111011000000;
	96 :	11111111011110100100100111111011;
	95 :	11111111100101011010100110000010;
	94 :	00000000001001000010000101110100;
	93 :	11111111110100100100101001000101;
	92 :	11111111111010010011010101100000;
	91 :	11111111110100111001110110001100;
	90 :	00000000001010001000101101101100;
	89 :	00000000010111001011001101000111;
	88 :	00000000001101101100000010101110;
	87 :	00000000000010000001111100000000;
	86 :	00000000000110010110000000110111;
	85 :	00000000010100110100001110111001;
	84 :	00000000010011101110101111000000;
	83 :	00000000000100100010010110000100;
	82 :	00000000010101111001100000000110;
	81 :	00000000001110001010111100110100;
	80 :	00000000001101100011011100101000;
	79 :	00000000000011111010010100101100;
	78 :	00000000000010000011100101001111;
	77 :	00000000001010100111011010110011;
	76 :	00000000001010110110010111001000;
	75 :	00000000000111001011001011100011;
	74 :	11111111100010010100000010000011;
	73 :	11111111101100101001010000100001;
	72 :	11111111111001100101000001110101;
	71 :	00000000000101001010010011001110;
	70 :	00000000010000001001000101101011;
	69 :	11111111100000011110111100101001;
	68 :	11111111101011010001111000011000;
	67 :	11111111110111000000000000010110;
	66 :	00000000000100100111101000001010;
	65 :	00000000001011111010111110111001;
	64 :	11111111100110010101000000000111;
	63 :	11111111101001000011001100111011;
	62 :	11111111111111111000100010011110;
	61 :	00000000001001101011111011010100;
	60 :	00000000011001010100010010010000;
	59 :	11111111101010101010010101110001;
	58 :	11111111111110000000100110001101;
	57 :	00000000000010110110100100011110;
	56 :	00000000011000001000101010110010;
	55 :	00000000001000010101110100100110;
	54 :	11111111111000011101110101111110;
	53 :	00000000010111010111110000000010;
	52 :	00000000011011101011010111100001;
	51 :	00000000011100101111011111010001;
	50 :	00000000010000000011011001100100;
	49 :	00000000001011010111011001001110;
	48 :	11111111111001110001111101011100;
	47 :	11111111110000100111010011101000;
	46 :	11111111110100001100010100001010;
	45 :	11111111110011110011010000001101;
	44 :	11111111100011001100101100010011;
	43 :	11111111011010001110000101100100;
	42 :	11111111100011010011100010100011;
	41 :	11111111110100001000010001101000;
	40 :	11111111101111010110001010101011;
	39 :	11111111111011101110000101110101;
	38 :	11111111111101101111100010100111;
	37 :	11111111111001011001010011111111;
	36 :	11111111111011010101011001000100;
	35 :	11111111100111110111101000011000;
	34 :	00000000001000101010100000110111;
	33 :	00000000000100111110101000010011;
	32 :	00000000000100011011011111011000;
	31 :	00000000001010111001000000010101;
	30 :	00000000010000001110000011111110;
	29 :	00000000011001110010000110011110;
	28 :	00000000011101110001111011011110;
	27 :	00000000001101010011101000100001;
	26 :	00000000001100000010110010011001;
	25 :	00000000001110100100001100010101;
	24 :	00000000010100101111101100000000;
	23 :	00000000000110010100010100100001;
	22 :	11111111110001111001110010100011;
	21 :	11111111101000000000111101000110;
	20 :	11111111101100010010100001001101;
	19 :	00000000010100001110111101011110;
	18 :	00000000000011010011000000001011;
	17 :	11111111110110110010110100101011;
	16 :	11111111111101011101010100101001;
	15 :	11111111111011010011110010111111;
	14 :	00000000001101011100011000111001;
	13 :	00000000010101100000101101011111;
	12 :	00000000000000110101100101001101;
	11 :	11111111110101101110111111001101;
	10 :	11111111111101101100011000111110;
	9 :	00000000001000110000011001011001;
	8 :	00000000011101110111100001001000;
	7 :	00000000001111110110000010111010;
	6 :	00000000000001100000111010011001;
	5 :	00000000001110101000100101110001;
	4 :	00000000000010111011010011110000;
	3 :	00000000000100000001010011110000;
	2 :	00000000001101000110010110100011;
	1 :	00000000010011110000000100001000;
	0 :	11111111110111010111010001110010;
END;
