-- begin_signature
-- f5_weight_ram
-- end_signature
WIDTH=32;
DEPTH=480;

ADDRESS_RADIX=UNS;
DATA_RADIX=BIN;

CONTENT BEGIN
	479 :	00000000001010010011111100111111;
	478 :	00000000000001110101101001001101;
	477 :	00000000001110001011001111110011;
	476 :	00000000000100100111011100010011;
	475 :	00000000000011101001100010001001;
	474 :	11111111111011000001000111101001;
	473 :	11111111110110000100110110010100;
	472 :	00000000001010110110000001010011;
	471 :	11111111101111100111010110010010;
	470 :	11111111110100001000001101010110;
	469 :	11111111100101111001100011100010;
	468 :	00000000000110001010111100111000;
	467 :	00000000000001111111011100001110;
	466 :	11111111111001101101100011010011;
	465 :	11111111111000101100010001010101;
	464 :	00000000000011110101110110100111;
	463 :	00000000000110011100111110111011;
	462 :	11111111101100001101011010001101;
	461 :	00000000000001010110100001010010;
	460 :	00000000001011110100111100110101;
	459 :	11111111111111000011010001001101;
	458 :	11111111111011111110001111011111;
	457 :	11111111111111011101110001101100;
	456 :	00000000000000000111011001001110;
	455 :	11111111111111100111111001101111;
	454 :	11111111101101000011101011000111;
	453 :	11111111111111101001111011111000;
	452 :	11111111111001000111100010111010;
	451 :	00000000000011010000100101001110;
	450 :	11111111111100011011100111101011;
	449 :	00000000000111111110101001000000;
	448 :	00000000000111110001100000101001;
	447 :	00000000001111100000100010100001;
	446 :	00000000000100111111010000000010;
	445 :	00000000000101101001011010000101;
	444 :	00000000000111101001011110010111;
	443 :	11111111101001100110110001110110;
	442 :	11111111111001011011100110111101;
	441 :	11111111111110011100111001110110;
	440 :	11111111111010110101010110111010;
	439 :	00000000001100100001100110011011;
	438 :	00000000001001111100111000111011;
	437 :	00000000001101000100000000110111;
	436 :	11111111110010010110100111001010;
	435 :	00000000000010110110011011000100;
	434 :	11111111111011000010101101000001;
	433 :	11111111111011111100111101000111;
	432 :	00000000000010010011111111001001;
	431 :	11111111110110100111000010110100;
	430 :	00000000000001111010111101000001;
	429 :	11111111111000001001110010011000;
	428 :	00000000000110010111111011111101;
	427 :	11111111111011100100010010011100;
	426 :	11111111111011000111100110110000;
	425 :	00000000001000011100100110110110;
	424 :	00000000000011111101101111010000;
	423 :	00000000000110111010101110100000;
	422 :	00000000000001011101110101101101;
	421 :	00000000000110110110101001111100;
	420 :	00000000001101111100110000100011;
	419 :	11111111110001001011001001000100;
	418 :	11111111111111101011010111010000;
	417 :	11111111111011100001110010011000;
	416 :	11111111110110011010001100011110;
	415 :	00000000000100111100000000001001;
	414 :	11111111110101111111101100011011;
	413 :	00000000001110110010101001100001;
	412 :	11111111110000111110101001110000;
	411 :	11111111111100010111101010001100;
	410 :	11111111110110001111010010011010;
	409 :	11111111110011000010010000011000;
	408 :	00000000000110101101011011001100;
	407 :	00000000000011111111110001100110;
	406 :	00000000001000011101110001101010;
	405 :	11111111111010000101010011101101;
	404 :	00000000000010100101011000010100;
	403 :	11111111111110010000000001111110;
	402 :	11111111101011010010111111111101;
	401 :	11111111110001111100100011101101;
	400 :	11111111111010100101111000100101;
	399 :	11111111110000001010000011110100;
	398 :	00000000000111011110010100001010;
	397 :	11111111111100000001110111100101;
	396 :	11111111110100011010011111100101;
	395 :	00000000000101110111110010001100;
	394 :	11111111111100010001000110001100;
	393 :	00000000000101011111101001101100;
	392 :	00000000000111110101100111001011;
	391 :	00000000000010011001010010010001;
	390 :	00000000001010010001101110000011;
	389 :	00000000000100101101010110010010;
	388 :	11111111111011000111011000110110;
	387 :	11111111110111101111011010100111;
	386 :	00000000000110011010000011110011;
	385 :	11111111110010111011011100111000;
	384 :	00000000001110000111101010011110;
	383 :	00000000000111010000111001111000;
	382 :	11111111111011010001100110100110;
	381 :	11111111111100001011001101010001;
	380 :	11111111111101100110110010111110;
	379 :	00000000001101011011100000111010;
	378 :	11111111101000111010100001000100;
	377 :	11111111110100010110101110110000;
	376 :	00000000001001000001010001010111;
	375 :	00000000000101101110011101101010;
	374 :	00000000000101001010001001111010;
	373 :	00000000001011011101000010110110;
	372 :	11111111101110000111100000000110;
	371 :	00000000001011001101100000101100;
	370 :	11111111110001010111111000011000;
	369 :	11111111111101111111011110101011;
	368 :	11111111110110011011011001101000;
	367 :	00000000001001100010100010000000;
	366 :	00000000000001011100000001010100;
	365 :	11111111111101101101011110110110;
	364 :	11111111111010011001011000101010;
	363 :	00000000000110011010001011110001;
	362 :	11111111111110010011000100011011;
	361 :	00000000000011010110111100011111;
	360 :	11111111111000100101010101101110;
	359 :	00000000001001011100000001000010;
	358 :	11111111110011000001001000111011;
	357 :	00000000001011110110001011110011;
	356 :	11111111111010011011000010000010;
	355 :	00000000000011110100110000010001;
	354 :	11111111100110100010110001110001;
	353 :	11111111111111110101111010001010;
	352 :	11111111111010111100001100011111;
	351 :	00000000001011011011100110110111;
	350 :	00000000001001001100010101011000;
	349 :	11111111111111110101110001010010;
	348 :	00000000001100101011010000111111;
	347 :	00000000000110111100100110000100;
	346 :	11111111111111001010001010001000;
	345 :	00000000001110001101101111111011;
	344 :	11111111111110000000001110001100;
	343 :	11111111110001010011010011010001;
	342 :	11111111111110000100010111000101;
	341 :	11111111110000110011000011011000;
	340 :	11111111110001011011111100111000;
	339 :	11111111111101100011110111001100;
	338 :	00000000000000101111011001111000;
	337 :	11111111110001100010010000001100;
	336 :	11111111110010010010000010010100;
	335 :	11111111111111001011100000110001;
	334 :	11111111111001111000000000000010;
	333 :	11111111011111111100000111111100;
	332 :	00000000000011101111010100101000;
	331 :	11111111110100001101100010011001;
	330 :	00000000010001100001011000111100;
	329 :	00000000001001111110010010000000;
	328 :	11111111101110111101101100010010;
	327 :	00000000001000100001011100000010;
	326 :	00000000000100110000001101100111;
	325 :	00000000001001101001101111110110;
	324 :	00000000000111111000011100101010;
	323 :	11111111110111011111000110111110;
	322 :	00000000000110111110011001000100;
	321 :	11111111111110111111011011001110;
	320 :	11111111111110001100110110100110;
	319 :	11111111110010101011001111000101;
	318 :	00000000000010011010010101100011;
	317 :	00000000000001101011110100111010;
	316 :	11111111111010100101101010111011;
	315 :	11111111101100010001011000110100;
	314 :	11111111111001111011000011001000;
	313 :	11111111101100001111000101010111;
	312 :	11111111111111110110110011110110;
	311 :	00000000000011110010011101101100;
	310 :	00000000001010000100001010000010;
	309 :	11111111101011000110110000110011;
	308 :	11111111111100110000001101100101;
	307 :	11111111111101010100011011001010;
	306 :	11111111111101111001011110111010;
	305 :	00000000000010110111000100101011;
	304 :	00000000001000001100011100011101;
	303 :	00000000001001001100101101110110;
	302 :	11111111110110110010100111101101;
	301 :	00000000001011101100110110011100;
	300 :	11111111101101111110111010101110;
	299 :	11111111110000101100000100101000;
	298 :	11111111111111011101010011001001;
	297 :	11111111111101000110111001010101;
	296 :	11111111110011000001010001101011;
	295 :	11111111111101111111111101101011;
	294 :	00000000000000000011001110101101;
	293 :	11111111110111001100010110011001;
	292 :	11111111111001000110000000001111;
	291 :	00000000000010011110110001010110;
	290 :	11111111111011101101110010011111;
	289 :	00000000010110101011010010000011;
	288 :	11111111110111001011001110110000;
	287 :	00000000000111110010000100001110;
	286 :	11111111111010001110011100111111;
	285 :	00000000001011011001101111110010;
	284 :	00000000000111101100100001001110;
	283 :	00000000000110001011110101010110;
	282 :	00000000001100001000001111010010;
	281 :	00000000000101000011110010110101;
	280 :	00000000010000010001011101000011;
	279 :	00000000000011101100011100101011;
	278 :	00000000001100010111001100110011;
	277 :	00000000000011110100001100010111;
	276 :	11111111111001110010100111110011;
	275 :	00000000000100100111110001100110;
	274 :	11111111111001001010111111111110;
	273 :	00000000000010110000101111110110;
	272 :	00000000000011000110101100100010;
	271 :	11111111110111100100000100011110;
	270 :	11111111111101110111010101001101;
	269 :	11111111111111010011000010101110;
	268 :	00000000010010010111101001001011;
	267 :	11111111111100111111111000011010;
	266 :	11111111101111110010000110000011;
	265 :	11111111110010110001101010000100;
	264 :	11111111111011000001001101100101;
	263 :	11111111111100010110000100101010;
	262 :	00000000000010011100100101101111;
	261 :	11111111101011110001110000011111;
	260 :	11111111111101110101110111010000;
	259 :	11111111111100111000000010101111;
	258 :	11111111100101111010101000101000;
	257 :	11111111101101000111001000100110;
	256 :	11111111110100100101101011000010;
	255 :	11111111101100100010001001001000;
	254 :	00000000001000111100010100101011;
	253 :	00000000000101101111100011001000;
	252 :	11111111111001110000111011111001;
	251 :	00000000000011001011011010100000;
	250 :	00000000000001101100101001001000;
	249 :	00000000001011011111110010111110;
	248 :	11111111101000010010011111100101;
	247 :	00000000000011000001100101101000;
	246 :	11111111111001101011010000011000;
	245 :	00000000000010101110110111101111;
	244 :	00000000000101001001010000100111;
	243 :	11111111111111001100011111100110;
	242 :	11111111111101101110000111111000;
	241 :	00000000001101010011001000110010;
	240 :	00000000001000000010110001011110;
	239 :	00000000001110001000101011100100;
	238 :	00000000000100011001000111101101;
	237 :	00000000000010101010111100011001;
	236 :	11111111111010100011011100001010;
	235 :	11111111111011111100000010010000;
	234 :	11111111110110110010100011001110;
	233 :	11111111110011001011010111000001;
	232 :	00000000001010111001110111101110;
	231 :	00000000001000100101001000110010;
	230 :	00000000001001101010010010111000;
	229 :	00000000000001100010100000001010;
	228 :	11111111110111001001010010010000;
	227 :	11111111111011010000100000010001;
	226 :	11111111111001111101011111011010;
	225 :	11111111111000000010100101101010;
	224 :	00000000000111110010000010111101;
	223 :	00000000000110100000111110101011;
	222 :	11111111110100110110010101110001;
	221 :	11111111111110001000101110000010;
	220 :	11111111111110011101100110010111;
	219 :	11111111111001100110100011000010;
	218 :	11111111111000010110111011101100;
	217 :	11111111101010010111010011011010;
	216 :	11111111101000100011011110110011;
	215 :	00000000000100111100011001010000;
	214 :	11111111110101100011000000110111;
	213 :	00000000000010010001111110000000;
	212 :	00000000000111001101100001110110;
	211 :	11111111111001100111101100111110;
	210 :	00000000001001011000010001101110;
	209 :	00000000011000011000001000010110;
	208 :	00000000000111110010110011011111;
	207 :	11111111111000010010001111100101;
	206 :	11111111111111100010001111001101;
	205 :	00000000001110011011110000110010;
	204 :	00000000001100000000101011100001;
	203 :	11111111110110110111011101010111;
	202 :	11111111111101111111101001110101;
	201 :	11111111101000010010010101110001;
	200 :	11111111111110001011010011111100;
	199 :	11111111110101000111010011100100;
	198 :	00000000001111101011010011011000;
	197 :	11111111111001111010001001000001;
	196 :	00000000001000101001001011111101;
	195 :	00000000000100000001100000001100;
	194 :	00000000000001010001010110110100;
	193 :	11111111101111010101011110000010;
	192 :	11111111111110101101111010100011;
	191 :	11111111101000011100100001110100;
	190 :	00000000000100100111010110001011;
	189 :	00000000001001001010101110101000;
	188 :	11111111111101100000010000101100;
	187 :	11111111110100110000001011001101;
	186 :	00000000000011000000111000100010;
	185 :	11111111111010101000011100111110;
	184 :	11111111111001101100101010101011;
	183 :	11111111110111110011110001101111;
	182 :	00000000001000110100011000000100;
	181 :	00000000001001111010110011010011;
	180 :	00000000001010001100011010000100;
	179 :	00000000010000101011100111010001;
	178 :	11111111111001101100100110010000;
	177 :	11111111111110100110011001101000;
	176 :	00000000000110011101100111110011;
	175 :	00000000000001101010010110010010;
	174 :	11111111111111010000111110110000;
	173 :	11111111101100110110010011001100;
	172 :	11111111110010010001100101101001;
	171 :	00000000001011101011101011001101;
	170 :	11111111111001000010001001000001;
	169 :	00000000000010011010000110001100;
	168 :	00000000001000100001110100111110;
	167 :	00000000000100000110100111111000;
	166 :	11111111111111010111101101110010;
	165 :	11111111111101110011101010100000;
	164 :	00000000000001111010011001011000;
	163 :	00000000000101100011101101000110;
	162 :	11111111011101111000010111110011;
	161 :	00000000000011001010110001111100;
	160 :	11111111110110010010001110001110;
	159 :	00000000001111000001111101101000;
	158 :	00000000001000110100111100010111;
	157 :	11111111110110010000111111011001;
	156 :	11111111111010100111000111111111;
	155 :	11111111110110010010010010000010;
	154 :	00000000000100011001010100111010;
	153 :	11111111111100111101011011011101;
	152 :	11111111110011110111100100000100;
	151 :	00000000001000000100001001001100;
	150 :	11111111111110011101111000000011;
	149 :	00000000000010010010101010100110;
	148 :	11111111111001010111001110110111;
	147 :	11111111111010001100100101000100;
	146 :	11111111110100100100001110110000;
	145 :	00000000000100101000101101010111;
	144 :	00000000000110100101101000010000;
	143 :	11111111111101010111000110011000;
	142 :	00000000000010101101100001110111;
	141 :	00000000001000000010000110101001;
	140 :	00000000000110010100010010111100;
	139 :	11111111111001010010010011001000;
	138 :	00000000001100000110111001011100;
	137 :	11111111111000001011101101101110;
	136 :	11111111110000010010001000010010;
	135 :	00000000001100011001111101011001;
	134 :	00000000000101100101110101100101;
	133 :	00000000001100100000011110110110;
	132 :	11111111111110001100010011010011;
	131 :	11111111111110111000101001011111;
	130 :	11111111110000111111110010110111;
	129 :	00000000000010011010111001100100;
	128 :	11111111101100001100010000111101;
	127 :	11111111110110010001011111110100;
	126 :	00000000000101000011101011010110;
	125 :	11111111111011011110101011011010;
	124 :	00000000001000110101110100010101;
	123 :	00000000000111011111011101011110;
	122 :	11111111111111011000111000011111;
	121 :	00000000000000010110001000001111;
	120 :	11111111101110110000001101010100;
	119 :	11111111110010010110001011111100;
	118 :	11111111101110010101001101001110;
	117 :	00000000001101100011010001001000;
	116 :	00000000000000011110011001000111;
	115 :	00000000000110100100100010111011;
	114 :	11111111110011111111001100001110;
	113 :	11111111101111101011001000101110;
	112 :	00000000001000110110001111001000;
	111 :	11111111101010111010111001110100;
	110 :	00000000000111111001110110011100;
	109 :	11111111110111101110111011011110;
	108 :	00000000000000001010001001001001;
	107 :	00000000000101110110110010011011;
	106 :	11111111111010011111011111100100;
	105 :	11111111111001101011101100110010;
	104 :	00000000001000010011011010110110;
	103 :	11111111111111111111101111111111;
	102 :	00000000000101001000111110111100;
	101 :	11111111111101001101100101010001;
	100 :	11111111110011100011000000110001;
	99 :	00000000010001011110100111011111;
	98 :	11111111111110101000100000000111;
	97 :	11111111111011101101100001101111;
	96 :	00000000000011000100000011000101;
	95 :	00000000001101011011001011111010;
	94 :	11111111110111100111100100001000;
	93 :	00000000001001001000000000011000;
	92 :	11111111111010111110110000011000;
	91 :	00000000000110101110110011000000;
	90 :	00000000000111100010111011101101;
	89 :	11111111111010110101101111010100;
	88 :	11111111110100011000100000110010;
	87 :	00000000001001111001100001000111;
	86 :	11111111111100100101101100011101;
	85 :	00000000000011111100110110001001;
	84 :	11111111100101101011001001100111;
	83 :	11111111111101000100001010100100;
	82 :	11111111110101111110110011000010;
	81 :	11111111110101011101001001100100;
	80 :	00000000000000000101110111011011;
	79 :	00000000000101100101010000110011;
	78 :	00000000000111011000100000111000;
	77 :	00000000000100110111101111011011;
	76 :	11111111101110111101100000100010;
	75 :	00000000001100001101000111011001;
	74 :	00000000000110011110111111001001;
	73 :	11111111111101111011010111001001;
	72 :	00000000000110000101011001001111;
	71 :	11111111110101101001111111011111;
	70 :	00000000000111000110000111011100;
	69 :	00000000000101001001011111000000;
	68 :	00000000000111100110010010101000;
	67 :	00000000000010011110001001101100;
	66 :	00000000010001101000101100111100;
	65 :	11111111110000101000000010101010;
	64 :	11111111101001110100011110010001;
	63 :	00000000001110001001010010010101;
	62 :	11111111110010011111110010010110;
	61 :	11111111110110011111100000001110;
	60 :	11111111110101000011000100000011;
	59 :	11111111111110110101010110110101;
	58 :	11111111110101101101110101111100;
	57 :	11111111110101011010101011011000;
	56 :	00000000001001100101000101110010;
	55 :	00000000000010001000010000110011;
	54 :	11111111110010000111111001100100;
	53 :	11111111111001111110011000000001;
	52 :	00000000001010101010010000001110;
	51 :	11111111110101001010001101010101;
	50 :	00000000000011001101101111001010;
	49 :	00000000000001101101010011100101;
	48 :	11111111110100010001010010111000;
	47 :	11111111101111010001010111111001;
	46 :	11111111111110111000110100100010;
	45 :	11111111110100000111010111011101;
	44 :	00000000000000101100101100100000;
	43 :	00000000001100110010100001101110;
	42 :	00000000000100011100110110111110;
	41 :	00000000001110000110100010011001;
	40 :	11111111100111101011001110011000;
	39 :	11111111111011001000010100011100;
	38 :	11111111111110100010110100001001;
	37 :	11111111110011111010111101000111;
	36 :	11111111111110111001110111101000;
	35 :	11111111111011111011110010111101;
	34 :	00000000000110110000011000101001;
	33 :	11111111111000010000110111110010;
	32 :	11111111111001111111010110100101;
	31 :	11111111011101101010100111001111;
	30 :	11111111111001111001100111101101;
	29 :	11111111110111000011101110111101;
	28 :	00000000000111011011100011111010;
	27 :	11111111111010001100111100001001;
	26 :	00000000000110101000001001111100;
	25 :	00000000001011000011000010100001;
	24 :	00000000000100001011111010101010;
	23 :	11111111110001110000010000110011;
	22 :	11111111111101010010110000011111;
	21 :	11111111111011101101000000100111;
	20 :	11111111111011001011101010011101;
	19 :	11111111110111101011000001011110;
	18 :	00000000001000001111100110011110;
	17 :	00000000010000111101010000110110;
	16 :	00000000001001111111110101110100;
	15 :	11111111111100100111110111110011;
	14 :	11111111111110110110000001101111;
	13 :	00000000000110110111100101010110;
	12 :	00000000000011000101000110101100;
	11 :	00000000000000111011111110110011;
	10 :	11111111111111111101011111010001;
	9 :	00000000001111010110001111000010;
	8 :	11111111111101100001001100100000;
	7 :	11111111110101011111111111100110;
	6 :	11111111110100001111010111101000;
	5 :	00000000000100011111110110111011;
	4 :	00000000001100110001000110001010;
	3 :	00000000000001110101110101010100;
	2 :	11111111110111000100001101100100;
	1 :	00000000000001010100100100001001;
	0 :	11111111110100010101011110111111;
END;
