00000000000011100001101100010001
00000000000101010101101000011100
00000000000111100110101110111100
00000000000111100100010100001001
00000000001000011101111100000010
00000000000111000100000000000010
00000000000100011100010101000100
00000000000001110100101000000000
11111111110101001011110001111000
00000000001010101011100001100100
11111111111000100011010001101000
00000000000001010010101011001001
11111111111101011101101011001010
11111111101110101010111111001011
00000000001011001000101101110011
00000000001000011100001110110001
11111111111011111000101011101111
00000000001100101111101001011111
11111111110001010001010001000110
11111111101101001010010010100101
11111111110110001000000100110001
00000000000111110101000110111011
00000000000111000111010011101001
11111111111010111111010011110011
11111111110011100000001011011111
00000000000011111010000110101100
11111111110010111011010010111010
00000000000110010001000011100011
11111111110011111111000111100101
00000000000101010000100010110011
00000000000011111000111010000001
11111111111011000110010101111100
00000000000100110111111110001111
11111111111100111101000100110000
11111111110100000101100111100000
11111111111100110011110111000010
11111111111011010101110001001000
11111111111001111000110000010010
00000000010000111011000101100101
11111111111000000010101010110011
11111111111110110111010001111101
00000000000101001110101000110111
00000000000011001111111100110001
00000000000111110101100111001101
11111111110111100101100101100010
11111111111000100000010110100000
11111111101111001000001111011110
11111111110111011001111001001110
