11111111111101111010000111100110
11111111110011110110111110010001
11111111110111101100110000011100
00000000001001011100001000100101
00000000000100110010000001000101
11111111110000100011010110011111
11111111110001001101111000001100
11111111110110001000000000101111
00000000000100111000100100101000
00000000000101001110110110001101
11111111111011111001110110010101
00000000000001100000111001001000
00000000000110001100011101101001
00000000000111000011010001010111
00000000001000100001010110011101
11111111111011011001000011011111
11111111111101001110101000001000
11111111111100101111000111111110
00000000000001111000111000101111
00000000000001001100101000111000
11111111110011110010101000101011
11111111110111010101110000101101
11111111111110001110111001110111
00000000000010010000111101000001
11111111111100100011011101010111
00000000000000100001001000110110
00000000000000100000111011100000
00000000000011011010110101111000
00000000000001101000110100111011
11111111111000010010000110001100
11111111111000011000100111110101
11111111111000010001101010010000
11111111110100000110010101100001
00000000000001101000111110110110
11111111111101111001110110011110
11111111110111111010110101100010
11111111111100001101000000111100
11111111110110111110011101001110
00000000000011101010000100000000
11111111111110111010101001001011
00000000000000101001100000001110
00000000000111111100110111111011
00000000000110001100110110100110
11111111111011100000100001101100
11111111111101010010101101001011
11111111111101111000011011110101
11111111111010110110001011000010
00000000000000110011101100001100
00000000000111101111111010000110
11111111111111000001010010111110
11111111110011110110100001010111
11111111111001001010010010001111
11111111111100001010111110110000
11111111111110101100100010011000
00000000001100011010110111000000
11111111110011110000000000011100
11111111111101110100100001001011
00000000000010100011110100100000
00000000000100001111101001101111
00000000000010111010101110100100
11111111110100110101010101101110
00000000000011100001101000010110
00000000000010101100000110011110
00000000000000011000111000001000
11111111111011101000111001001101
11111111111010000011010001001111
11111111111100000101110111110111
00000000000010010111110000100000
00000000000000011111110100010011
00000000000100110011011010111011
11111111111010000101100000111111
00000000000001110000111110110000
11111111111101100000110011001000
11111111111010001111011100101100
11111111111000111011000111010101
11111111111111000100100001111100
11111111111011000000011011000010
11111111110111010111011000101000
11111111111000010100101110100001
11111111111011111011011100000011
11111111110011011010011001101011
11111111110100000011011010000100
11111111111110001010101110001110
11111111111101011101111010000101
00000000000001110011000101101010
11111111110001100110110010010100
11111111111000001111110110001001
00000000000010000011011100011001
11111111111101001001010011000111
00000000000000100110001111110000
11111111111101111011000010001111
11111111111111110110101000100011
11111111111101111000010111111001
11111111111110011000111110010001
00000000000100111101100100001000
11111111111101010111100011000000
11111111111101110110111000100101
11111111111100001101100010101011
11111111111110110010110101111000
00000000000010000100011011100010
00000000000101100110101000101110
11111111111111111010010001000001
00000000000001011101101111001100
11111111111000110111101010111010
11111111111010111111100111111110
00000000000100011100001110100000
11111111111100111011011101001000
11111111110101000011101011011111
00000000000000001111000000111101
11111111110111110000000101010101
11111111110110101111101010110001
11111111111001101111011000010110
11111111111111000001000110111101
11111111111110011011110111110111
00000000001010110011111010000010
00000000001001001011111010011001
00000000001001100101101101011001
00000000000001101001010101100111
00000000000011110000000100010011
00000000000001110000100011000001
00000000000010011110101010101111
11111111111110000110110100000100
11111111111001110000111011010110
11111111111011100110110011111110
11111111111000011101000010111000
00000000000000011110011100000101
11111111111100101011000010000101
11111111111001001101100101111000
11111111110010100110010111001100
11111111111011101000011110010001
11111111111001000001110110011000
11111111111110000010111001110101
11111111111100001100001010100100
11111111111100110001110101110111
11111111111001100101110101100000
00000000000010111010110010101011
00000000000001011001000001110011
11111111111110100001100110011111
11111111110111110110110000111001
00000000000010010010101101001010
11111111110111111011010001011010
00000000000010110100001100010111
00000000000000101101100000010100
11111111111010000111001010111111
00000000000011000100011001010001
00000000000100001101101010001110
00000000000011000110111011100111
11111111111110001010000111100101
11111111111011111100010100010101
00000000000100010100100100011010
00000000010000001110111011101101
00000000010100011100101100110010
00000000001000001101101000111011
00000000001100111011000010010000
00000000000010000100001101110100
00000000010110111110001000101011
00000000010000001010001101010111
00000000001000010110100111100001
11111111111111001011010110000101
00000000001010101101011010111000
00000000010000110100010011011100
11111111111111010100001110011000
00000000000010000110001100101001
00000000000111111101110001111100
00000000000010101000010111011110
00000000001101011000011011100010
00000000000100000001001010000011
11111111111100101010111011010100
00000000001011010110100100001110
00000000000111110011011101011010
00000000001000000100010000101110
00000000000101111110111011011011
00000000001101011001101111111010
00000000000111011001110011110000
00000000000011111110010010010010
00000000000110010010101010110011
11111111111110110011010100011111
00000000001010101011000101011000
00000000001001101010101111000100
00000000000001111100101110001101
00000000000011001111000111010100
00000000000001100001011101001101
00000000000001111111001101010101
00000000001010101111100000111100
00000000001110110110101100110101
00000000000001001100111010001100
00000000000101000111110111111110
00000000000011110010111011111011
00000000000101001000011100101111
11111111111101101110000011100010
00000000000110101110000000010010
00000000001000000011010010100011
00000000000111101111000010000000
00000000000101101000100010111011
00000000000010101000100010110001
00000000001100110010101101100001
00000000001010011011110010011000
11111111111100011011111001111100
11111111111100101010011101110011
00000000000011101100011011010000
11111111100000001101001110001011
11111111101011110001010111000010
11111111111000101100011100001100
00000000000010001011100110000111
00000000001010000101001001010110
11111111101100110001111001100111
00000000000010011110010000011101
00000000001010111001111001100101
00000000001001110111001011000111
00000000000111101010111001000100
11111111111001100001110100000011
11111111111011010100111000100011
11111111111110011100110101111011
00000000000011110000011011111110
11111111111100100011011100100101
11111111110110100100110110000011
11111111111100001010011000111010
00000000000100010101011100111111
00000000000001101100001100100101
11111111111110000011101111011000
00000000000101010001101011000101
00000000001101001011110100001101
00000000001001101001110110101111
00000000000010001010010101100100
11111111111100000001110101100001
11111111111100000101110110111100
11111111111011010101000010111110
00000000000010101000000111001101
00000000001000010001101111101000
00000000001001001010010011101100
00000000000010011100010110001001
11111111111110011111110101101011
00000000000100110011111110010001
11111111111101001011111001000000
11111111111000110001101010000001
11111111111011111111001010111001
00000000000011100010111101011101
11111111111110111000101001010111
00000000000001110010000010100111
11111111111101011101110010100111
11111111111110100011111000111010
11111111111100110010010101110111
11111111111110111010101011011010
00000000001001100010000011110111
00000000000111001001011011001101
11111111111110010000001111111100
11111111111011010101001001000011
11111111111001110101001001011111
11111111111000000000101010111111
11111111110001110011101011110010
11111111110111101100111110101100
11111111110111111010100100010101
11111111110111101001111100011000
00000000000001110111111101110011
00000000000011011110010010111111
11111111111011100001101010111101
11111111111011100000000111001011
00000000000001011011011011111011
00000000000111010101001101001100
00000000001001011100101100100110
11111111101101110101000001010001
11111111111000001011000000111101
11111111111111010000111111000101
00000000001000100001100011100101
11111111111110010110111100001000
11111111111110011010100111110010
00000000000101011110010010101010
00000000000101011100110100011011
00000000000110000000011000110100
00000000000000111000101011111100
00000000000000111100011110100011
11111111111110101101010010100001
11111111111101101000010110010000
00000000000001100010000010111101
11111111111110101011100101011001
00000000000000010011110111010110
00000000001010000011100101101010
00000000001001110111110101011010
00000000000011011111011001011001
11111111111100010001101010000100
11111111101110111010110111000000
11111111111011010000111011101011
11111111111110101000100111000101
00000000000000110100010010011000
00000000000001111000010011111110
11111111110100001110110010110100
11111111110011011110000110110100
11111111111100010011100001101010
00000000001100110110001111000100
11111111111011110101011100110101
00000000001000101111111001111111
11111111111111010011110000101011
11111111111101000110110001000111
00000000000011110010100000101100
11111111111001000111010101100010
00000000000000011000000011110010
11111111111000000010111010000011
00000000000001111000101010000111
00000000000000000011101000110100
11111111110111011011111001111101
11111111110111011000001011010111
11111111110111011011001111001011
11111111110110110111111110000110
00000000000011101100011111011010
11111111111001011001011100011101
11111111111101010100110001101000
00000000010000110111011011010000
00000000001101011010110100111010
00000000000011001000001111110111
00000000000100000000101110110110
00000000000100001001010011000100
00000000001011111101000111010101
00000000000101100011011000010011
11111111111011100111010101011100
11111111111110111100000010111110
11111111110011011001100000100110
11111111111110000100111100011011
00000000000110101101010111100111
11111111111000011111010010101010
11111111111001100100000000111110
00000000000011010100101000000001
00000000001001001111011110000001
00000000001011011001001101111011
00000000000101011100100001000010
00000000000001111010110111010011
00000000000011100111111000010000
00000000000011110011111111011101
00000000010010010111010110100000
00000000001011101100100110100110
11111111111110110101111100010110
11111111111010110110111111101001
00000000000001111001011110101100
00000000010010001010011011010110
00000000000100110110101100010111
11111111111111101010111110111000
00000000000100011010001110000010
11111111111011011110001001011001
00000000000000001110011001100010
00000000001011011100011001000111
00000000011000110000101010101111
00000000001001111001101100010001
00000000000001000011011000011011
00000000000010011000001001111100
00000000000101010101000000100100
00000000010000000111011010111011
11111111111001111000010111000000
11111111111110111000000010011011
00000000000100000010011100000011
11111111111100001100111010010011
11111111111011001111010000110100
00000000000111000101011011111111
00000000000111010100011010010010
00000000000111101110011111101011
00000000000110010010000001011000
11111111110110001000011111000110
00000000010111010011001110011110
00000000010100101101010010011100
00000000000011100000111001111111
00000000000010000100000001111100
11111111111101111011010011001011
00000000010101001010010011100011
11111111111111001011100100111001
00000000000000100111001100101101
11111111111011011010110101001011
00000000000110101010100101000001
00000000000111001111110100001001
00000000000101011100000001101110
00000000001010110011010100100101
00000000000010100100100101101011
00000000000001100011110101101111
00000000010111000000011000001110
00000000000110101100110001001011
00000000000001111111001001010010
00000000001001000100001111100101
00000000001000010101001010000110
00000000000010001000101111111110
00000000000111001000101011001011
11111111111110000001011111110011
11111111111010010110011011111110
00000000000000010011101001111111
11111111111000101011110011111001
11111111110000101000110111110100
11111111111111110110101100111110
00000000000100100011110000011110
11111111111010110010010011010110
11111111110001100110001101110000
11111111110000100011010010011010
11111111111110010000011011010111
00000000001001111000101101100001
00000000000001111001101000000111
00000000000000101000010111000100
00000000000001111000011000100000
00000000000111100110101001101000
00000000000100010000100111000010
00000000000100011001001110110101
11111111111100001000100110000001
11111111111101101101011100110111
11111111111100110110011011110111
00000000000001100011110111010000
11111111111001001100100001010000
