00000000000100101110000111111100
11111111111100110001101011111101
00000000000010101101010000111101
00000000000100000001011110111101
00000000000011000010000011110100
11111111111111101100111011110000
11111111111101000011001000000100
11111111111001000100110110100011
11111111111010011000110110110110
11111111111001001100000101100010
11111111111110110000010000100000
00000000000001101000001011011100
00000000000001111010100010010101
11111111111001010011010110001001
11111111111001110110101110101110
11111111110101001010001110100000
11111111110110100101100010110011
11111111111011000100000011001110
00000000000001011101010100100100
11111111111001111010011001000100
11111111111001110101001111011111
11111111110101000000011010010000
11111111111001001110010110100101
00000000000000110100111011001110
00000000000101000111111011111100
11111111111111100010101010001001
00000000000110001101101010111000
00000000000000110111100110111111
11111111111110010111111111101100
11111111110010101001100111100100
00000000000010110001010011000110
00000000000001001110011101101000
00000000000001011110011010110100
11111111111011101000110001101101
11111111111000111101000111101110
00000000000000000010010111010100
00000000001001010011011011110010
00000000001111001100011111000101
00000000001010011011010101000111
11111111111010010101011001110110
11111111111011111100110100111010
00000000000100010010011001110100
00000000000100100001011000011010
00000000001011101100000101010001
00000000000000110001100000000011
11111111110101001001001100000010
11111111110100011111000110110010
11111111110100111110000111011100
00000000000110000001111011010111
11111111111100011010011110110010
00000000000101011011110000100011
00000000000010010001010101001001
11111111111110000111100100011011
11111111111111101011101100101011
00000000001000001111111011000011
11111111111110101000100010000101
11111111111111000100111110101110
11111111111100111010001111010111
11111111111111101101100010001100
11111111111011001110001011001101
11111111110111010001110001001100
11111111111001000111011110010011
11111111111101001011010011111000
11111111110100101010111101011110
11111111110110011110110110111101
11111111110000110010110010010101
11111111110101001101111100101100
11111111110110010100111100000010
11111111111000101100011001111010
00000000000011100101100001001010
11111111110111111100100011111001
11111111111111111111000011100101
00000000000000011000100101011100
11111111111100000111100100101100
00000000000000011011000100011010
00000000000011111000001100101001
00000000000000010001101100011101
11111111111101101100101110101100
00000000000000000111111000100101
11111111111100000110100101110100
00000000000000001101011111100001
11111111111110110110111110100011
11111111111111101011000111100111
00000000000011111101100010100100
00000000000011010100001001001011
11111111111100110101101010100100
00000000000001110111110001011101
11111111111110101010110010110101
00000000000000111111001101010111
00000000001010100001010101111101
11111111110111001111100010000001
00000000000000010101010000100100
11111111111101010010010111001110
11111111111111010110111100011010
00000000000110001110101000001001
11111111111000100101000001011110
11111111111111010100000001010000
00000000000000000110001001011111
11111111111011011101110100001110
00000000000000111101000110101000
00000000000100001111110000100101
00000000000000110001110000000100
11111111111011101011010101101110
11111111111101110011000100111010
00000000000011001101111000010000
00000000000100100000111101110000
11111111111011001001101011001100
11111111111111111010001101111011
11111111111101001110101000001110
11111111111110000111101100100001
11111111111100101011111110010110
11111111111000000011001010010000
11111111111101001011100000101010
00000000000010000110001010001111
00000000000110011110110000110010
00000000001010110111000001111110
00000000000101110111001000010110
00000000001101101010011100111011
00000000000011100001110000001110
00000000000111001000001000100001
11111111111001001110011001100011
00000000000011010010101010001100
00000000000100011011010111111111
11111111111000001100010100000100
11111111111000010000101000101011
11111111111000000101010010011010
00000000001001010111011000001000
00000000001000000101101010011111
00000000000011100001110101010111
11111111111011011011101011011011
00000000000101111011011101100000
00000000000000000100111011110011
00000000000000001001101010110100
11111111111111011110000110111100
00000000001000001001100001101100
00000000000001100011000000001001
11111111111110111111101101001010
11111111111100110101010010010101
00000000000110011010100011100110
00000000001010011111101001011100
11111111111101011000000000101100
11111111111001101100101110010101
11111111111011010110110000111100
11111111111101011001111000101010
11111111110111011011001110001111
00000000000100100000000001100111
11111111111101100011110001000110
11111111111000000001010101011000
11111111111010110101100110111101
11111111110110100101110100100000
00000000001011100101101100000000
00000000000010111110100010010110
00000000010001011100111001110110
00000000000001001101101111001111
00000000001100100101101100110110
00000000000100001010010111111000
00000000000010000001111100101000
00000000000111001010010000010001
00000000000101011001001100111011
00000000001001100000001111001011
00000000010110001101101011111000
00000000001011111010001100010110
11111111111111111110010101110010
00000000000110111011101000000110
00000000000001011101110011010110
00000000001110001110000110011011
00000000000101111011100010111110
11111111111101011010010000100111
00000000000110000110111100011000
11111111111000101010111011001111
00000000001001100101100000010101
11111111111100010001101101001010
00000000000011111111111000111110
00000000000010001001001110010110
11111111111000000000011011001100
11111111111100111110000000101100
00000000011100110110111101111100
00000000001111110001010010100000
00000000010000010111110000110000
00000000001111111000000100111101
00000000000001000001100011100001
00000000001001101001111011011111
00000000000100111010100001111101
00000000000011001101011001010111
00000000010100110111011100001110
00000000000100101010001001111111
00000000000111101000111011000101
00000000000110011000101101000110
00000000000101011010010100110111
00000000000100000010011110010000
00000000000100111100100111001111
11111111111011000000100010011011
00000000000111011011110001001101
11111111111011010111110001010000
11111111101100010110110000111001
00000000001000101110011011111010
11111111111111100010010110010111
11111111111100011110010111010001
11111111111010100100011111101100
11111111111100011101101110101111
11111111110111011111101101111110
00000000000010000111000110100010
11111111111000010111001010011111
00000000000011110011001000010011
00000000000111101110011101101101
11111111111011110110011111000100
00000000000100101111000001111011
00000000000111011011011011101000
00000000000000011110001100110001
11111111110000011001010000110111
11111111110101101101100110100111
11111111111110101001000100001000
00000000000010100000010011110011
11111111110100001100100110110000
11111111101001001101100101100101
11111111110010000111010010110100
11111111110101001110101110101011
11111111111101110110100001011011
11111111111001010010100000000000
11111111111000110111110000000110
11111111110101011111111101110011
00000000000111101000110011010011
00000000001001101111100100101111
00000000000001000000111100000100
00000000000010010110101001011110
00000000001000101010000001001011
11111111111011111000110100000010
00000000000000100011001110000100
00000000000111001000100011110010
00000000001001001111110000010000
00000000000001000001011110011101
11111111111110011000110001110001
11111111111110011010000011010110
00000000000100101101010011001011
00000000000100101110100101101101
11111111110110100100000101100011
11111111111011000110001010011101
11111111111101001011000001011110
11111111111100110111111011011101
11111111111110100110111111010000
00000000000001101110101000010010
00000000000101010110011000000001
11111111111110100111000111011110
00000000000101011111011010001100
00000000000010101011111000100110
11111111111000100001111111010010
11111111111001111100110010111111
11111111111101110100010111010100
00000000000001101101011000110111
11111111111010000110000100010010
00000000001100011000011110111100
00000000001010111101110001001100
00000000001011110010101110001011
00000000000010110101111110110101
00000000000001011000001010101110
00000000000100111010000100111111
00000000001000011011101111101110
00000000000110000100010100001110
00000000000010101101100110110111
11111111111111110111100000100111
11111111111000101101010011001010
00000000000110111011100011010001
00000000000010111000000101000100
00000000001000001000100101110100
11111111111001011000100010000011
11111111110011001111011110000010
11111111111000010110010010001010
00000000000110100111010010000110
00000000000010011100111011000110
11111111111011101100011111101100
11111111110001111101101011101101
11111111111011101000101010011101
00000000000001000001111111011000
00000000000100100100001111111110
00000000000001001001100000011100
00000000000000110011101100000011
00000000001010110010000100010010
00000000001001110001010011011100
00000000000100111101110010110111
11111111111011110010001110110111
00000000000011011010000101001000
00000000000101011100111101101110
00000000000100000010010000000101
00000000000101011111001000000101
11111111111101010010110110010100
00000000001000101000010001000011
00000000001010100101100001110011
00000000000111001111110000011000
11111111111011100000010111011101
11111111111001011001010100011111
11111111111000000001111011110100
11111111111101110101101010000000
11111111111110111101011001111001
00000000000001011100100110100011
00000000000001000110010110100111
11111111110110010011111111110001
11111111111001110101000111100101
11111111111101010101001000101111
00000000001001000000001000011001
11111111111011111001110010100000
11111111110100001110011000011100
11111111111100001010111010101011
00000000000000010000111111000010
00000000001011111001010110100010
00000000000001011101110011010010
00000000000011111010101011011010
00000000001101100101011110111110
00000000000010101010110100111101
11111111111000011101111010010101
00000000000100110111010111101000
11111111111100100010011001101110
00000000000100101010010011010111
11111111111111111110010101110101
00000000000001101111000000000101
11111111111111100010011001101001
11111111110100100001101110010001
11111111111001001001010000011001
00000000000011100010100001010100
11111111111000011100000110000111
11111111111000010101010100010110
00000000000010101000110110101010
00000000000000011110111010001011
00000000001000000011010101110100
11111111111111110110110010011000
00000000000000100111011111001001
00000000000000100010111100011101
11111111111110111111000010011000
00000000000011111111011110100001
11111111111100100101001100110110
00000000000100011001001010101011
00000000000011110101111110111111
11111111111100100000001101001100
00000000000110011110100011011000
00000000000001011111101001010000
00000000010101011100001101110101
00000000001110010001001000111110
00000000000010010111011110100011
00000000000000011100100111101111
11111111111011101101010111100111
00000000001010000110001011110111
00000000000010101010000101011001
11111111111010111111001100010000
00000000000100111100100100011110
00000000000101100000111001110010
11111111111111111010110001110001
11111111111010011110100111110011
11111111111101110101111101011011
11111111111111111001011101101010
11111111111000100000110100110111
11111111110100111000101000101101
11111111111101000101100010111111
00000000000000101001000000100110
00000000001001000001011101001111
00000000000011110000101000011001
11111111111101110001000101110100
11111111111101001110011011000000
00000000000001000001100110101010
00000000000111000100101111001100
00000000000100111001101100111100
00000000001001110001000000101001
00000000001000110101001110011001
11111111111110011001100101110101
00000000001000111011000001010011
00000000000101010100001011111010
00000000001110100010101001010111
00000000010000010100001000101011
00000000001100010110010101000101
00000000001011001101011000001101
00000000000100101001101100000101
00000000000011000100101111100000
00000000010000100101011010101111
00000000000000011000111011101101
00000000000110011111011100111010
00000000000001110011100110001010
11111111110010001111000101010000
00000000001001000101100100010011
11111111111010001011000010101001
11111111111000011111011010010100
11111111111000011100110010011001
11111111110111111101010110101000
00000000000111111110001111010001
11111111111011000101010100110000
11111111111010100111111010101100
11111111111101110100010011010111
11111111111111101001000111101010
00000000000110111110100011000010
11111111111001001001010010000110
11111111111110001110110000110100
00000000000101000111000001010011
00000000001000000100000010100011
00000000000011001110101100011001
00000000000000000011010011011001
11111111111111000000000010001101
00000000000001001011101011110010
00000000000100001010110000111000
11111111110111011101000001111110
11111111111100110111111110111001
00000000000011000100101000111011
11111111111101110110000011101101
11111111111111011110100010110010
