11111111111110111111100010111111
11111111111111101011011101001101
11111111111111001011110110010001
11111111111000001110000100101011
11111111111001111010010101101111
11111111111101010110010001000001
11111111111111100011101100010001
11111111111110000000100101000111
11111111111100110110111101000101
11111111111110010111010001101101
11111111111100000100010101011011
11111111111101101110010110000000
11111111111011111100110101001100
11111111111010010000011011001100
11111111111111100001100100111001
00000000000001001110010010011010
00000000000000000110111111110011
00000000000001111110111111101111
11111111111011011101111110011101
11111111111101001011000111010010
00000000000000011001111111101101
11111111111111100000000000001000
11111111111011101111010100100101
11111111111010001101110111001111
00000000000000011001100101111001
00000000000001101011110111100001
11111111111100101010001011101001
11111111111010011001010000110000
11111111111100010000100111101010
11111111111100110110100111101010
11111111111100000010011010000111
00000000000001010000011010111001
11111111111100101011101111110100
11111111111011011011101111001101
11111111111100011001011101100011
11111111111101011100010010010000
00000000000001111011000001100001
11111111111100111111111100010011
11111111111001110100011000100010
11111111111110011010000000101011
11111111111101010001100111010011
11111111111100100110001110110011
11111111111101101111010001101110
11111111111101010101101001110100
11111111111110110111010111100110
11111111111110100001101011011111
11111111111110100110100101011011
11111111111000110110001000011100
11111111111110011011101011100000
00000000000010010101110100001000
11111111111101001111011011100011
11111111111110011000001110111011
00000000000000011111111110000000
11111111111101000101110011111011
11111111111100010110110100100001
11111111111101011001111100001001
11111111111110001010001000011110
11111111111101101000010000000010
11111111111011110111010001111100
00000000000001001111011110100001
11111111111101011110110001000110
11111111111100000000111111100001
11111111111010000001000011111100
11111111111111100011111000110110
11111111111101000100001011011110
11111111111100101010101001101100
11111111111100011100001111001110
11111111111111011111000000010011
00000000000010000110011110001000
11111111111100000000011011000010
00000000000000010011011000101111
11111111111101011001101010010011
11111111111010111100011101111101
00000000000001001101111011110001
11111111111111000111111001101000
11111111111110011011101111010010
11111111111100010000010101100111
00000000000001001101100000111101
11111111111100100000100111011001
11111111111100111011010111010000
00000000000010001000110010010100
11111111111100011011000101011011
00000000000000010110010101100111
11111111111000001011100110100111
11111111111111101010101111011110
11111111111101110100001010000100
11111111111111010100001010111101
11111111111011110111010010001000
11111111111011000111110001001101
11111111111001110101000110101110
11111111111100101100110110011001
11111111111000100010000010000010
11111111111101110001100000010100
11111111111111111000000000111011
11111111111100100001011110000100
11111111111110110000011000001100
11111111111111010100100101001100
11111111111110000010000011100001
11111111111101110001010001100011
11111111111100110010110010110100
11111111111111111010000111010010
11111111111100001000000111010011
11111111111100000100101100100000
11111111111111010110010101101111
11111111111001101001001111000110
11111111111001111001000001010111
11111111111010000001101011011100
11111111111101101101011110100000
11111111111001010011101010010110
11111111111001000110101011100001
11111111111011001110100010100000
11111111111001100100100000101111
11111111111111010001111100111101
00000000000010000010000010011111
11111111111011000101110000010001
11111111111101000001010111010100
00000000000010111010001110001111
11111111111111011100010111000101
00000000000010101101101101011101
00000000000000001111001001111000
11111111111001010011100010001001
11111111111100111000011011110111
00000000000001010000111110011011
00000000000000000110111000110010
11111111111110000101101100001101
00000000000010101001101011001100
00000000000010111100101101110011
00000000000001001011100001101111
11111111111110011101001000011100
11111111111101010000010110111111
00000000000001100100110111101011
11111111111111011110011011100000
11111111111110101010101001001101
11111111111101001100000100010000
11111111111100100000110000110011
11111111111011010010011000001111
11111111111101111100110111100011
11111111111010000101100111111011
11111111111011010010010011001111
11111111111110001000111010110111
11111111111111001110111010000100
11111111111001010101101000100000
11111111111101100111110000101111
11111111111111111101110000101001
11111111111101110110110101111111
11111111111011010010111000000000
11111111111011011111100101000101
11111111111111001001101110000001
00000000000001010100101000001100
11111111111110110101000000110100
11111111111011001101000000011010
11111111111110100111011101001001
11111111111001010000011010000100
11111111111111001111010110001001
11111111111100111111100101101001
11111111111101100110111100110100
11111111111100010010101000011010
11111111111101101000111110001011
11111111111101101011011011111100
11111111111000111111010001111111
11111111111101100110111101000110
00000000000011000011011100100110
00000000000010001000101111101000
11111111111111101100001100101110
11111111111010010100110100101011
11111111111100100100000011010011
11111111111111001100110010110111
11111111111101001110011110110110
11111111111101001000010011111011
11111111111100011111110101011101
11111111111111000110110000111110
00000000000000110011101000000101
00000000000001110110111001100111
11111111111000010110100111010110
11111111111010110111110100000110
11111111111001100100110111100010
11111111111001011001101111010101
11111111111110011100110011101101
11111111111110100101111000110010
11111111111010001001010001010100
11111111111100010100001111001100
11111111111110001000101001011111
00000000000001000011011011011111
11111111111110011101111100011001
11111111111110110110010001010101
00000000000001010110010001111010
00000000000010001110010100011011
11111111111101101111110110011100
11111111111110010001100110110100
11111111111101101000100010010101
11111111111100101011011011001011
11111111111011100111011100100100
11111111111101011101011011101101
11111111111101011100010101010001
11111111111100110011100010110000
11111111111100011110101011111100
11111111111101110010001110100011
11111111111101110111100010000011
11111111111010110000100110001000
00000000000001001001001111001100
00000000000000111101000111101110
00000000000000110000011001011101
00000000000000000101010110010011
11111111111100101000011111111000
11111111111101001000111111111101
11111111111110111001111100111011
11111111111100110011010011011100
00000000000000111000111100011011
11111111111111001001100010111110
11111111111001110010011101010011
00000000000001110100100011111110
11111111111110110100001000111111
11111111111010011100001011111010
11111111111011010011010100100100
11111111111110010100000110110110
11111111111011010010001000000111
00000000000000001101010001110101
11111111111001001111000000101001
11111111111001101111110100110011
00000000000000001001010110110000
00000000000010011000011001000001
11111111111110000010001011000100
11111111111011011111001010110011
11111111111110101011100110101101
11111111111111001101011010101000
11111111111100111101111110011011
00000000000010110110101011010001
00000000000001101001000001101000
11111111111001001000001101000000
11111111111010100100001110100110
11111111111111010111110101111001
11111111111001011010011101100011
11111111111110001111000100011111
11111111111110001001011110001110
11111111111011000110001111011010
11111111111101010001100110100101
11111111111011011111010101010001
11111111111100000111001011100111
11111111111110101100111000011000
11111111111101101111010111000100
11111111111001010010110110000000
11111111111101110000011011001010
11111111111100010100011010011011
11111111111100100010101101011000
00000000000010000110001000010000
11111111111100011001110111110111
00000000000000010100110010111100
11111111111011011111100011010001
11111111111010101011101100000001
11111111111111111101111101100000
00000000000001110011010001010111
11111111111110000001010011010110
11111111111111010101110100000010
00000000000000111011001110111111
11111111111001110010010000111110
11111111111100111010000111010001
11111111111100100110111000110110
11111111111110110100011000110011
11111111111110010001000000110100
11111111111010110011000111000001
11111111111110111111010100101011
00000000000000100010001110110001
11111111111110001110101101001011
11111111111011111110110010011001
11111111111100110110111100111110
11111111111101010100100000110011
11111111111100111000100011111010
11111111111101000110001000011001
11111111111101110000011100001100
11111111111111001000111000101000
00000000000000001011101011110100
00000000000001001010111010101101
11111111111101001000010111110010
11111111111011101100111101011110
11111111111110010110100111100010
11111111111101010011011111010110
11111111111101100001011101011111
11111111111110000000010011111000
11111111111010110101001110111000
00000000000001111001001110100011
00000000000001001011000111110101
11111111111110101110000001001110
11111111111111011000111001100010
11111111111011101011101101101101
11111111111100110110001010100011
11111111111100101111110011101000
11111111111100101100001011001000
11111111111011010101010110111100
11111111111011010111011101001011
11111111111110110110000000100011
11111111111110100010001110110001
11111111111111000011000001110111
11111111111010110100111011011000
11111111111111100110001001001001
11111111111111011011000101011110
00000000000010000000101001110100
11111111111111000010110010000001
11111111111001010111001000101001
00000000000000011001111101110101
11111111111111101110000001101101
11111111111101011011101000111001
11111111111110010001000101010000
11111111111100011101011001101011
11111111111001100100000001010110
11111111111001001100011000101000
11111111111110011111001110011111
11111111111110101010010011110000
11111111111101000101101000000001
11111111111101000100000111000001
11111111111011011011010100100001
11111111111110011001001100111101
11111111111110110111010010110000
00000000000000011110000010011101
11111111111110011000011110111100
11111111111010101010110010010110
11111111111100010100101001000111
11111111111101010010011101110111
11111111111100011010110111111110
11111111111101101000001100011011
11111111111111010100110101101010
11111111111011111011110011100001
11111111111100100011101101111010
00000000000000101110101101100101
11111111111101110000111111110001
11111111111111001101101011010011
11111111111101110100000010110001
00000000000001101110110010001110
11111111111100100000010100101000
11111111111101101100000111110101
00000000000001100001110100110001
11111111111110111000110111001001
11111111111010010101011010111000
11111111111010001001101001011001
11111111111101011100100001010100
11111111111110110101001000000100
11111111111100111110100011001011
00000000000000001011111110011011
11111111111110100001100100111100
11111111111110100010101110011110
00000000000000000110001110110010
11111111111001010010100010001010
11111111111100101000110101101011
11111111111010000011110100011011
11111111111111100011110111010011
11111111111011011010101101011110
11111111111101010011011010101011
11111111111100010101100110111001
00000000000001010100101100100100
00000000000000011101001011110011
00000000000010001011011111011110
11111111111111110101011011000100
11111111111101100111011101111010
11111111111110000010101111110000
11111111111110010001111001111101
11111111111111000100110111001011
11111111111001101110111011101111
11111111111100111100001011110100
11111111111110001101000111101101
00000000000001000100110000110010
11111111111010101010010010101100
11111111111100100100111011000011
11111111111101101111001000001000
11111111111111101000011111010001
11111111111110110010101101101010
11111111111111110101010111000010
11111111111101111011010111010101
11111111111001010011111100101010
11111111111111000110111001010100
11111111111110100010001000100010
11111111111111100111011010111110
11111111111101100111110001110100
11111111111101011001110011010100
00000000000011001000000100011111
11111111111001110011110000110100
11111111111100000100100000000011
11111111111101010000001011001001
11111111111110000010010001011111
11111111111101000100011001000110
00000000000000100010000111000101
00000000000001100010010010100000
11111111111111010011000011001100
00000000000000001010011110001110
11111111111111011000001111100000
11111111111111011010110100000100
11111111111111110110110010110111
11111111111011000001111111000111
11111111111101110111101011010011
11111111111110001101011000001010
11111111111101100010011101110111
00000000000001101101110011101010
11111111111011101100001010100001
11111111111110110000011111010000
11111111111101011011100001000111
00000000000001000011111010101100
11111111111100111100010110111100
00000000000010010011111001110110
11111111111100010110010010111101
00000000000001101110101000100010
11111111111100110111110100011111
11111111111100001100101111111110
