00000000001010100010111001010100
00000000000001100000010100101110
00000000000111010111000011100101
00000000000001000001111011101110
11111111111101111000001010111001
00000000000000000011000100101111
00000000000010000001110100101011
00000000000100111101011110111111
11111111111101110000110110000010
00000000000111000000010101111100
11111111111001010000001000100110
00000000000001011000010010111000
00000000000100000100010011100011
00000000001000011011011111001110
00000000001000110101100000110001
11111111111110010100100110001001
00000000000011010101011111001000
00000000001000000010101001011011
00000000000011100110000000101111
11111111111011100100010101000110
00000000000010101110101101001000
00000000001001000110101111001011
00000000000110100110001111101101
11111111111100001101011110010001
11111111111011011110100000011001
00000000001011011100110110000001
00000000001000100011110110001101
00000000000010111110111010100100
00000000000010100000110010101101
00000000000100000111010000111001
00000000000100000101111000001111
00000000000010001101001111101101
11111111111110011001010111001110
11111111111110000010000000110101
00000000000001000011011101100001
11111111111111011010011110010001
11111111111110011101000001000010
11111111111101111010100000111001
11111111111010000011101011101111
11111111111111010000110110110001
11111111111010100001111011100100
00000000000010001000110111010011
00000000000010011010101100000100
11111111111110011111001000001011
11111111111111110110011100110010
11111111111100111100011000011000
00000000000100000100101001001101
00000000001100000010110101110011
11111111111101111001111111111101
00000000000000100101101100111000
11111111111100001011100100110101
11111111111101000001101010100001
11111111111111101101111010110001
11111111111101101010101000010100
11111111111111110011101011010010
00000000000010000000110111010100
11111111111110111011101100011010
00000000000111100000101101111100
00000000000011001110111000000101
00000000001010010000000001110100
00000000000000001001101100001010
00000000000110001110001110000000
00000000000111100000000000000011
00000000000110110100001010010000
11111111111100101001110100110011
00000000001001010100111010110001
00000000001001111011110111001111
00000000000010111000100001011011
11111111111111010110100010100010
11111111111010010001100111110100
00000000000001100100010000111111
11111111111011000110111010000010
11111111111011000101011100100011
11111111111010101011100001101101
11111111111101001101110111101111
00000000000000011011011011100001
11111111110111100011000001010111
11111111111000100110111001111111
11111111111010101001100000000101
11111111111010111100010001011100
11111111111110010001111111110010
11111111111100101110010110100101
11111111111100000111100110001110
11111111111011100101110110100001
11111111111011101101010010011110
00000000000001111111100101100110
11111111111110101100000000110000
11111111111100001111101110001100
11111111111110000000000111010000
00000000000110010001111111111001
00000000000011001111100100011011
00000000000101000110110000111010
00000000001000011111100010111010
00000000000011000111000000001101
00000000000100111101011001100110
11111111111111010000101011100011
00000000000010100000010001100100
00000000000110100000000100100100
00000000000011111010100010000100
11111111111111011110011101010110
11111111111001010101000100111001
11111111110100110111110100100011
11111111110011101011011111110111
11111111110111010101010000001101
11111111111000111110111110010001
00000000000011110111000001010101
00000000000011010010011110101010
11111111111100101110010001000011
00000000000110111001010110000011
00000000000100011011010010101011
00000000001011001010000000010101
00000000000010011100000110110101
00000000000110011111001000100010
00000000000011001100000101101000
11111111111111111011001101110101
11111111111010111101011110000010
11111111111100010001110111010111
00000000000010011011101001011101
00000000001010000101111000001010
00000000001100100110011010101101
11111111101111100011111101100010
11111111110011010100000100011001
11111111111110100000001011101000
00000000000111111001111101101000
00000000000101010110101010010111
00000000000000011100110010000111
11111111111000100001000110010100
11111111110110011011000001011010
11111111111111110000000110001000
00000000000100010000101101011111
11111111111110011101001001101000
11111111111000100101111011110000
11111111110111011110111001110000
11111111110111000111111101111010
11111111111000010110001101000011
00000000000000011101000010111000
11111111111010111000000001001011
00000000000011000000001111110100
00000000000000110011111101010011
00000000000011001100110010100010
00000000001000100111011100001001
00000000000001101011101110111101
00000000000011111011111111010001
00000000000010110001111001101000
00000000000101100011011100100010
00000000000010000110111110100000
00000000000010001101000001110111
00000000000010110000010010010011
00000000000100110110011110101111
00000000000010000000001011100110
11111111111000000000011011100101
00000000000111001010110110101000
00000000000001010001100101110001
00000000000011101111011011111010
00000000000110101000101111111011
11111111110001110111011000100110
11111111111100111100111100101010
11111111110100101011000011001100
00000000000000101110110110001100
11111111111110101000100011011001
11111111111100011100001111010100
11111111111000100001011001100010
11111111111001101111111010101001
00000000000001011011001011101011
00000000000000111001100001111000
00000000000010111111110001010101
11111111110111101010100100110110
11111111111111111101100100111001
11111111111011100110110110010101
00000000000100011111010100000011
11111111111111111111010110010011
00000000000100110011100110010011
00000000001010011010011000110010
00000000000011000110000000111010
00000000000101000100100100001110
11111111111111100011011000111100
11111111111001010101010100010000
00000000000101001010010101010110
00000000001000010111111111011101
00000000001010111010110100001110
11111111111111011001000101001011
11111111111001011111110011100000
00000000000010000110011100001110
00000000001011110111001000110110
00000000000010010011000100111010
00000000000010000011101001010101
11111111111100111011101101111110
11111111110110001110101000010011
11111111111100110011011000100001
11111111111001111010101111111001
00000000000000110011110101011000
11111111111110001010100111010010
11111111111010010011110111011101
00000000000100100001010001001101
00000000000110101111101110010000
11111111111101010100011010110010
11111111111100001101111011000101
11111111111110111111010101110110
11111111111110101110101110111001
00000000000001001101001000011110
00000000001011100001101111001100
00000000001000100000010010011010
00000000001101110000001011101010
00000000001011101010111010100100
00000000000110111011011100000011
00000000000000010100111110011100
11111111111011101010000110111100
11111111111101111010110100111100
00000000000110111010101011000101
00000000001010010100011111001001
11111111111111000110011001110110
00000000000100000011000111010110
11111111111101011011001010011111
00000000000010000111101001010100
00000000000100001111110010111101
00000000000101001001001010110011
00000000001100010110100101000000
00000000000110011101000001001101
00000000000000100100011001101100
11111111111011110000011001101000
11111111111101000001011101111110
11111111111000000100111111110100
11111111111011110001001001000010
11111111111100010001011100111001
11111111110111110010010001010111
11111111110101101000101111111101
11111111111010110100000010100100
11111111111000100110011100000110
11111111111001010111001000011001
11111111110101001001111100110110
00000000000100111001010110000001
11111111111110010000110001111011
00000000000010101011101010000010
00000000000100110001101100100100
00000000000101100100011100101011
00000000000101110011111100001001
00000000000000011110010110101110
00000000000110011001101010001010
00000000000001100010100010000011
11111111111111011001110001011101
00000000000110100010011101000001
00000000000001100001000101011011
00000000000101000010111100000101
11111111111110000000110010000000
00000000000001101001000001000010
11111111111010011010001110101001
11111111110100001110011110011010
11111111111001101101011001100111
11111111111101100010001000010011
00000000000001100100100111011110
00000000000010111011100110001111
11111111111001000100110100010100
11111111110111111110111001101110
00000000000001011011000000001100
11111111111101110011001000101000
00000000000011100101111101001101
11111111111110100100101011011010
11111111111110101011011011111000
11111111111100011101101010111001
11111111111110101001111011110010
00000000001000110000000110011011
11111111111111101111101001011111
00000000000000000100011100100111
00000000000001011101110101001000
00000000000101111110101101111110
11111111111101100100001100001100
00000000000011110100101110111110
00000000000010110000010000011100
00000000000111010110010110001100
00000000000011010011000000100100
11111111111101101010001000001111
00000000000100110100001111011110
00000000000110110100011011101100
00000000000010110100011111100100
11111111111101100100000110111001
00000000001001101100001110100011
11111111111110111110000100011011
11111111111110000100010110100100
00000000000011011000100111011001
00000000001000101111011001011010
00000000000011010110001110111111
00000000000100110110001000000000
11111111111111110000111010111110
11111111111011100011100000100110
11111111111111101001111100010111
11111111111110001100000000010011
11111111111100111111100000010001
00000000000000001000000011000100
00000000000011000110111010110110
00000000000100010110001000111101
11111111111011110110000001100010
00000000000011001010101110011111
00000000000110101100001001101010
00000000000011000111100111010100
11111111111101100001110001001101
00000000000001111101010101101110
00000000000110001000010001111011
00000000000011111011111111101111
11111111111101001101011011101100
11111111111101111110001010111001
00000000000001010010111110001001
00000000001101101001110100111101
00000000000011101001101010011110
00000000000110000000010110100101
00000000000110010111111100101101
00000000000010000001010000111000
11111111111001001001100111111010
00000000000011101000111111000100
00000000000111101101011100111011
11111111111000101111000111111110
00000000000110000111101011010000
00000000000000111100010101001001
11111111111111110101100100000111
11111111111010010111011110101010
00000000000110000000011001110011
00000000001000110110101110101110
00000000000000111011011100101011
00000000000000101001010100101110
11111111111111000001000011010100
00000000000110100100100000010001
00000000000011010001110010001000
11111111111110110001101100001111
11111111111000100010010011001011
00000000000010000100110000111010
11111111111111010000010101111111
00000000000010011011101001001110
11111111111110011110100001110110
11111111111100110010101110100110
00000000000100000111110110100100
11111111111001000000111100111011
00000000000010010110100110010010
11111111111110101111111111011111
11111111110100111001010001011100
11111111110100000100000001011000
11111111011111001000010010010010
11111111111100010110010000110011
11111111111100111011000100000001
11111111111111010100010111011000
11111111111000001011001000101010
11111111111100000011100011010000
00000000000010011101101101011100
00000000001001011010101111111100
00000000000000111110100100001010
11111111111101000001000011111111
11111111111010111000100010101110
00000000001001101111000011100001
00000000001100101101000011110110
00000000000100001000110101001010
00000000000000101000000010000000
11111111111100110111101100001001
11111111111011010001001001111001
11111111111100011101011001011000
11111111111011000011010011101111
11111111111111110101001000011000
11111111111111010100001010101111
11111111111011011111110100111110
00000000000000001100011111000010
00000000000011111111110000101101
00000000000011110010101111011001
11111111111000111111010110010110
00000000000000110010001110110111
00000000001011000010000000010100
00000000000111011110010110000110
00000000000101101100000001100011
00000000000001000101001111000110
11111111110101001100110111000110
11111111110100100001110011001111
11111111110010001100000110001000
11111111110111000111101011101101
00000000001001001111000001010010
11111111101101111011000010001101
11111111110010001011000000100010
11111111111011010101110001000000
00000000001000000101010011101101
00000000010000100001000001000001
11111111111110111110011101110111
11111111110110110111010100001111
00000000000011001000101101001011
11111111111011000110010001111001
11111111111001000011100111001111
00000000000010111101011011010000
11111111111110110111010000001100
11111111110100110100100011111111
11111111110110000110011101101110
11111111111010100000101101110000
11111111111110010110111001011011
00000000000100000000010001100001
11111111111110011000110010100101
11111111111101010011010011000100
11111111111110110001010000000111
11111111111100100100010000101000
00000000000100100111110110011010
00000000000111110111110101110001
00000000000111010011001000101000
00000000000100001001001110110111
11111111111101001001011101001011
11111111111111101100110001011111
00000000000110101101100101011010
11111111111101011111110100011110
00000000000101110100011110100100
