00000000000010111010100110111010
11111111111100110010110101111101
11111111111110111001111110011110
11111111110110011001111111010010
11111111110110111101111110101011
11111111111010001001101111101100
11111111111111101010101111110101
11111111110011001111010011000001
11111111111001101100001010100101
11111111110110011000111001001100
11111111111011011011011000100100
00000000000001010100110000011011
11111111101111101001001100111110
00000000000010010111010001100111
00000000000110011110001000100101
11111111111100111100010011110001
11111111110010101111100111010011
11111111111011010011000111011011
00000000000100011100001000001101
00000000010000110010110110111101
11111111101001001110100001100110
11111111101111010010110001110101
11111111111111001110011010011101
00000000000000100111111100000010
00000000001011001010000100100011
00000000000010010111001010100011
00000000001110101010110001111011
11111111111110101101110011110011
11111111111101101000111001000110
11111111111100011101110100011011
00000000000010010000000001100101
00000000001000101110101000101101
11111111111111001100000111011010
00000000000011110110101011110001
00000000000100011011110001100111
00000000000101100111010101011010
00000000001000001010110000100100
11111111101100000101111110010000
00000000000000011110001110110010
00000000001010000000011101010001
11111111111111010111000000000100
00000000000100000101101000110111
11111111110110000000001001111010
11111111111110001011101011001101
00000000001100001011000100010001
11111111101110110011001101110111
11111111110010100011100110100111
11111111111010111100110011011011
00000000000101010110000001110110
00000000000110111000000101011111
11111111111110000101101111110000
11111111110111000101011111111001
11111111111010010111100001110010
11111111110110101010101110101010
11111111111100111100111101010101
11111111111001100100001010011111
00000000000010100011111000001010
11111111111010001001111001100010
11111111110100110101010001100101
00000000000000111000111001010101
00000000000011010000101101010100
11111111111100101100100100100001
11111111101111110111101011011101
00000000000000011111010100100010
11111111110111101001111111111001
00000000000010110100100110000111
11111111101011110011110101111101
11111111111001001000111110011111
11111111111110011011010100110100
00000000000111100000011010010001
11111111101111011011100001010111
00000000000001010011000000011101
11111111111010110000110011010111
00000000000010100011011101100101
00000000001011110000101000001111
11111111111010111110110011000111
00000000000010000001010101100101
11111111111011111100100110110001
11111111110110100010110101010011
11111111111101010111001001110000
11111111111101100111110100011000
00000000000010110100011111100010
00000000000110011011110111010001
00000000000010001010001100110000
11111111111101011010010100111011
00000000001111101111011001001110
00000000000100011100001101001000
00000000000001110001011000000000
00000000000011100101100011100010
00000000000010101110001000101001
00000000000101011111101011111111
00000000000010111000011110110111
11111111110011000101011111000110
11111111101000010001000101001110
11111111110110111111110101010000
11111111110101000001111000001010
11111111110111110000101101010110
11111111111010111000111010010011
00000000000001111001011111001110
11111111111001001101010001010101
00000000000101110101100100111100
00000000000101011101101101110101
11111111111110010111010111011101
11111111111000111001100110110100
11111111110111011001011101001100
11111111111111011010011001011110
11111111111101010011001011101110
00000000000010010110000001011011
11111111111111001101010111100111
11111111111101000001011110000111
11111111111000010111100100010001
11111111110110001010110100110100
11111111110100110110101101111010
11111111111001100010001000101001
11111111111110111110001001001100
11111111110001010010100001001101
11111111111000100101100111110100
11111111111001011111110110000101
11111111111010101011100110001010
11111111111010110100000010011110
11111111111010100101011110010100
11111111110101010100010010000100
11111111111101000111101001010110
00000000000011111001101111010100
11111111111110100000000000100011
00000000001000101000101100001010
11111111111001010010101100100101
11111111111010010001010000001011
11111111110100001111011111111100
11111111110011011100011101001010
00000000000010111111001001000011
11111111111011011010001111111101
11111111111111100010000001110011
11111111111100110101111000001111
00000000000000100010101110111111
00000000000011010001000100010111
11111111111101110101010011001011
11111111111111110101000011100001
00000000000101001001110110110001
00000000000010110010100100111001
00000000000000100100111011100000
11111111101111110111000111011000
11111111100111010110000111001001
11111111110100101100001000011101
11111111110110000100000100011110
00000000000100001011011110001001
11111111110100000110011011110111
11111111101110001001101011101111
11111111110110000101111001110001
11111111111110010001110010111101
00000000001000111001110111100101
00000000000100001111010100011101
00000000000011100111000000101001
00000000001001101111111100000001
11111111111001101000101011101000
11111111111011010111100010111110
11111111111110100001100010010011
00000000000011001111010111010000
00000000000101001010001100010100
11111111110101110101010011010111
11111111101100111100000100110000
11111111101110000001110111110000
00000000001011001011000000011101
00000000001111101110011110100100
00000000001001010110011100100111
00000000000100001010000110001011
11111111101111100010100111000111
00000000001000100011011100000001
11111111110010110000001010000011
11111111110111111001001111110110
11111111110110100010001110101010
11111111111011001001000111101001
11111111111100001011000011110111
11111111111001011000010001010110
00000000000001111000101011000010
11111111110110011101111001011010
11111111110110100001100011100001
11111111110101000001100010111110
11111111110111010001000111011000
11111111110111100010100001000111
00000000000001011011001001011101
00000000000101011011110110110100
00000000000111001110100010011001
00000000000000101101000101011001
11111111111001001111001000100110
11111111111110100111000101010101
11111111111111111001100011100100
11111111111110010000110101010110
00000000000101100101101101000011
11111111110111100101011100000001
00000000001100101010101010011111
00000000000111001100010001001100
11111111110110010101110101110000
11111111111011011010001100101010
11111111111110001011010110110010
00000000000101111110001100011100
11111111110110011111100010110111
11111111111000010101010010000111
11111111111010001011111101001000
00000000000010100100001110010111
11111111110110001110101101101010
11111111110100111000110100111010
11111111110011001011000001101111
11111111111000011110011100110001
11111111111011110001010011100110
11111111111110010001111011000110
00000000001100101000001110010000
11111111110111101101001101010011
00000000000000110000000011000000
00000000000010000001001111101111
00000000000000110000011011010100
00000000010011000000101100100111
11111111110001111000001000010010
11111111111111010110001111111111
00000000000011111001011011010100
00000000010000110010001100110100
00000000001010110100001011101010
00000000000010010010011001011011
11111111111111111000011100000010
00000000001001100011010100010111
11111111111001111111111111100000
11111111111001011011101000110110
11111111111010011011110010011111
11111111111110001101101110000010
00000000001011001001100001111011
11111111111111010000100011100001
00000000000000000010000010011010
11111111111101110111010111010001
11111111111110111110110011001000
11111111111010110100111010011011
00000000000010101101001100110111
00000000000010011110010010000100
11111111111001101110010101100100
11111111111000110000100110010110
00000000000001000101111111111111
11111111111010001001100011010010
11111111100001110000010000011100
11111111100011100010111010110101
11111111100111011011110110010011
11111111110100110100101100000101
11111111101111110010001101111000
11111111101011110101101110111010
11111111110110011010000110001110
11111111110110000001000100110110
11111111111010111001010001101111
11111111101101110001110011000010
11111111110100000000100001111001
11111111111101111001010111011110
00000000000101011110110000010110
00000000000010000010101100111101
11111111110111100101101010100010
00000000000000000101110101011111
11111111110010010010000111001000
00000000001001100110100010100100
11111111111101011001001011101011
11111111111111110110000100011110
00000000000100101111011001000000
11111111111011111010101101100001
11111111111011010001110011111111
11111111110110110000001100001100
11111111111011011010000011101001
11111111111110100001101101110110
11111111110101010110110101101010
11111111111111001001001010101101
11111111111000111101011000101110
11111111111101101011111100001111
00000000000101101110101111101000
11111111111011111111001001010110
00000000000011011111111000001111
00000000001100011110100110000110
11111111110011110000010000101000
11111111110001001011011100000111
11111111111111001011010001110110
00000000000001101011011110011011
00000000001110010001100010110001
00000000001011001110101111111000
00000000010011010011010101000110
11111111111101110010110110111110
11111111111111100000011000110100
00000000001101011011110101111000
11111111110111010110010110001110
00000000000010101110111101011110
11111111111110011010101000101111
00000000000001110100100000110101
11111111110101000000110111110000
00000000001101110100010011101110
00000000001101000001101000110110
11111111111010110111110001010000
00000000000110111101000000100101
00000000000100001001011110001000
00000000001100101011001101001100
00000000000011000010010000011100
00000000000000011011101001110000
00000000000011001100101001101011
00000000010010100011110011000100
11111111110100000101110100001000
11111111110100101001001101001111
00000000000101110000111010001010
00000000000001111011010000100011
00000000001101111000001111101101
11111111111001011011001110000101
11111111111000011000111011101111
11111111111111000111111110011110
00000000000101010011101010011001
11111111111000001001100000000001
00000000000000110001011101000111
11111111111010110111111100100010
00000000000100111001001111100011
00000000000110100010001001110110
11111111111000110110110011111101
11111111111101000111111111100101
00000000000100101010000110001001
11111111111110011100011100010000
00000000000100010110010010001111
11111111111011111110010001010101
11111111101110110000010110011010
00000000000110001011001000101100
11111111111110001001010110011110
00000000000001111110000011101101
11111111110101000110011011000101
11111111110111110101101000010110
11111111111011101101110100001001
11111111110001101110011100100001
00000000000001010101110110010101
11111111111010101000110010101011
11111111111101000110100010100111
11111111110100000101010101001011
11111111101010100100110110001111
11111111111000111100001001011101
00000000000010111100111001011100
11111111111101001111000000000010
11111111110111110010001011011110
00000000001010100010011111110110
00000000010000010010011101111011
00000000001100000101110100100010
00000000000110010110110111100010
11111111110100100000110100101010
00000000000011110000111100110010
00000000001100011001001011010111
00000000001010111110110100101111
00000000000010111011101111011111
11111111110000101110100001000001
11111111111010110000101011001001
00000000001100001001100101100001
00000000001000100110100001000110
11111111111000100110000010001011
00000000000010011011100000011001
00000000000000001010111001100110
00000000001000111000010100010011
11111111111110000010001001110111
00000000001011010000001010101011
00000000000111110101001010100000
00000000000011101100110001010000
11111111111011111001111000000111
11111111111010000100110100101100
11111111111111000010011011100011
11111111111110111100011101100111
11111111111110101000101101101100
00000000000000001000000101010110
00000000000010110110110000010111
11111111110001000001010001000000
11111111111011001001000110010111
00000000000100011011011001000100
00000000000011111100110101001010
11111111111011000101010001101111
11111111111111110111010111111010
11111111110000010101000001011101
11111111110100001100001100011111
11111111111110111010111001101011
11111111110001011011111101000100
00000000000100000001011111011001
11111111110010010010011000110010
11111111100000011101100111010110
11111111110100111001101011010000
00000000001000111011111010101101
00000000000101000100111111101011
11111111111010011111100111111000
11111111111111000000000101001010
11111111111010110110001101100011
11111111111101000000111110100011
11111111111110001011011000111110
00000000000001111101111110110101
00000000000110011101011111101011
00000000000010010000110000000110
00000000000101000010010100100010
00000000000101001001111011110011
11111111110100101000011110011010
00000000000100000011001011010011
11111111111011101110111111001100
00000000000110100000110000010100
00000000000010010011001100011010
00000000000010110001010000110100
11111111110001110001100111001010
11111111110011110100111110011000
11111111111111011111001010000101
11111111111101010011101001100010
11111111111000000011101011000011
11111111111101010010101110111000
11111111111001000001100000001101
11111111111010010101000100000000
