00000000000001010110111110001110
11111111111101100010010011011011
11111111111011100011101101001111
00000000000101001000000110100111
00000000001000110100000000100111
11111111111111111001101101101010
11111111111011111001100100010110
11111111111101101101001111001011
00000000001000001110111000000100
11111111111001110100100011101001
00000000000010111110000000001011
11111111111011010101011001110111
11111111111101010110001011111011
00000000000100100000000100101001
00000000000000011101011110110010
11111111111111100110110010110100
11111111111000100011111110001011
11111111111010111100100110110100
00000000000001010111111111001000
11111111111100101000011101000101
11111111111010100010001000001110
11111111111011010101000011111101
00000000000010111011011011010000
11111111111101100111110001010101
00000000000111011000010100000110
00000000000000000110100000000010
11111111110101100010111101110101
11111111110110100101100010001111
11111111111101010100000110100111
00000000000011011010110110100000
11111111111101101110001000110011
11111111111010100001001000010101
11111111111111011010010010110011
11111111111001011101010100001100
11111111111110111000000000011000
11111111111010101011000111101011
00000000000000110111100101111100
00000000000001001111000101101011
00000000000100100100000000011001
11111111111101110001001011001010
00000000000001101011010000010001
11111111111101110011111011001010
00000000000000110000110101100001
00000000000011011100111000000110
11111111111101111101010011000001
00000000000011110101000000010001
00000000000100000110100101101011
11111111111111101011110101111000
00000000000000001110000111110110
00000000000110111110111000000010
00000000000111110101011010111101
00000000000100000010010111111010
00000000000000101000101011111100
00000000000110101011011111111111
11111111111011110101011100100110
00000000000000110010110101111001
11111111111111110010001010001100
00000000000010000000010101011111
00000000001010101000010100111011
00000000000001101000011101100110
11111111111100001001010000011111
11111111111101011011001001100111
00000000000011101011101000000100
00000000000111100111001001010001
11111111111111110001101100100111
11111111110111100100011010001110
11111111111001101001011100010110
11111111111100111001010010010100
00000000000001101000010111110011
00000000000000110111100100001101
11111111111000000111010011001101
11111111110111010100010010011011
11111111111100010000111011010110
00000000000110111001101111011101
00000000001001101110000000001101
00000000000000001110001100101111
00000000000100111000001011001100
00000000000110110010101001101001
00000000001100100111010111110111
00000000001100101110000110100110
00000000000110000110011111010100
11111111111100110010101010110000
11111111111110001011111001110000
00000000000000101111000110110110
00000000000011110110010001011011
11111111111110000010010110001101
00000000000001111000000000111110
00000000000010001011101100010101
00000000000011011001000000110100
11111111111110000000001001100100
11111111110110111111101100101001
11111111111100111001101111000111
00000000000010101000101101111000
11111111111111101101001011000001
00000000000001101111001000100101
11111111110111001001000101110011
11111111111100100001000010111000
11111111111110110000010010101010
00000000000010001001000101010010
11111111111001110101101111001101
00000000000101010100111110000000
00000000001001000011110110100111
00000000000011101110111011101110
00000000000010110010111100000011
00000000000000000000010011101111
00000000000001010000110110111111
11111111111001001101011111000010
11111111111010111010010011111110
11111111111110001100111000000101
00000000000101001100100111110001
11111111110100111111111111001100
11111111111100111001011011000101
11111111110111011100000001000101
11111111111110001010010001010011
11111111111111111110010010000000
11111111111111111010001110010100
00000000000000010100001100100011
11111111111100111001100101100001
11111111111111010111001001111001
11111111111111101110111011100101
00000000001000101001101010010001
00000000000010110110001100000000
11111111110111011011011100100001
11111111111010101010000111101111
11111111111000110000011110000110
00000000000111011111000111001111
00000000001010111110001011000000
00000000010010010011011011100011
00000000001010000100101110011011
00000000000000110101101110010110
00000000001000011011001111001001
00000000000011010100011100010110
00000000000111100000111111000001
00000000000010011100000001111100
11111111111011101100111010000110
00000000000110110001110110101000
00000000000010110101101111101101
00000000000001010101110111100011
00000000000001111010101101011001
11111111111010001110110111110110
11111111111111001100011110100100
00000000000000011101000110001111
11111111111110110000001101111100
11111111111111011110000001000001
11111111110111111000001001011100
11111111110111101111101010010001
11111111111100110100000011001011
11111111111101001100001111010111
11111111111101011010000101110001
11111111110110100100101010011010
00000000000101101011110000110010
00000000001001100100111111010001
00000000000101001010001110100001
11111111111110011100111100000000
11111111111101110111000010110000
00000000000110100001111101000100
11111111111110000001000101001100
00000000000100000111001111011110
11111111111110000100001011101010
11111111111111111011011001101101
00000000001011000011110000100001
00000000000010000011011001011100
11111111111100100110000011101111
11111111111000011000000010100110
00000000000101001100000101110011
00000000001111111001010010110011
00000000001000101000111110000001
11111111111111100010011100001100
00000000000000110101010000011111
11111111111010110110110101010101
00000000000001100111011011111100
11111111111111100000011100001010
11111111111101110111110110101100
11111111111010110000100001110011
11111111111011110010001011111001
00000000001001011111101110101100
00000000000100000011000100001101
00000000000000000101011101001100
11111111111110111011100001011000
11111111111010000101100101100011
00000000000010111100110101111110
11111111111011000000011110111101
11111111110010100101010101010011
11111111111000010011010111100100
11111111110000000001011111010100
11111111111011111100101000000000
11111111111111011110010000000011
00000000000101111111101101110100
00000000001001010101001111101110
11111111111100001110100001111111
11111111111111111100110110111011
11111111111110000101100100101010
00000000000010011001111011111100
00000000000001011100001110001000
11111111111010000010111100111000
11111111111010011010101000011101
11111111111011001110010101011100
11111111111110100011100110011010
00000000000000110011001100000010
00000000000000011000110111010111
00000000000100010101100011100011
11111111111100110010100111101000
11111111111000010111100111110100
00000000000000010001110010111001
00000000000011011000101100100110
00000000000010000001001111111111
00000000000011100010000010000101
00000000000011011111010010101100
00000000010010101010011111011010
00000000001000000001111001101101
00000000000100000100010110000001
11111111111110000011011001101000
11111111111111010110111010011010
00000000000101111110110011011000
00000000000100001010001111001101
11111111110110111000110100110111
11111111110011011100010000010101
11111111111101111110010001011001
00000000000100001110100100010110
00000000000001001110000101011000
11111111111101010010011010000011
11111111111001101111000010101001
00000000000110100000111000011101
00000000000011100101001110011010
00000000000101010110011011111101
00000000000110100000010011111111
00000000001001110111100100100000
00000000000111011100001100110100
00000000000100010111000101011011
11111111111000011101000010110110
11111111111111001001110100110101
00000000000101000110110100100111
00000000000010011100111100010101
00000000000100001000001100001011
11111111111000101000111101011011
11111111110100010101011010110100
11111111111101001011010011100111
00000000000110001010100111011000
00000000000111110010100111011100
11111111111011100010111100110001
11111111110101000011000101000010
11111111111100010010101001011100
11111111111010110100100101100101
00000000001000100111001001110001
11111111110111010000010000010011
11111111111001100010010110101110
11111111111110010011001000010001
11111111111111001001001011110111
11111111111111010101110111111111
11111111111001111111001010111001
11111111111110011001001110001111
11111111110111000110010101011111
11111111111110010110001010110101
11111111111100010001101111001111
11111111111001100100010100101010
11111111111011011000001010111001
11111111111010111000000010001010
00000000000111011111110010011111
00000000000101011001000000100100
11111111111110010111110100110000
11111111110100101000001110110010
11111111110101111011001111100000
00000000000101111101100001010100
00000000000001011011111110000111
00000000000001001011011101011100
11111111110111010101110101011011
11111111111000110000010010000110
00000000000100011001111110000011
00000000000000010101000010110010
00000000000001001000001111111001
11111111111000010011100100010111
11111111110111010111010011110101
11111111111100110011111010100100
11111111111101011111001000000000
00000000000100001100101011101010
11111111111111101101110011101111
11111111111000001011000111010010
11111111111110100011011010001101
11111111111110001011100000011001
11111111111101101000100111110100
11111111111110010111101101011010
11111111110100000111101101101100
00000000000011011010101000000011
00000000000011110100100101001000
00000000000000101110110001010011
00000000000010100110011011011010
11111111110101101000010011100110
00000000000001110011110110110000
00000000000011001011010001111100
00000000000000011100011010101000
00000000000001110000001010111010
11111111111001010000001111000010
11111111111110100100000000010001
11111111111110000110101101100010
00000000000010001101111011001100
00000000000001100111000101101010
11111111111011010110001000101011
00000000000000100001000100001001
00000000000000000111100011010010
11111111111111001100000000000011
11111111111111100000100010111001
11111111111000101100000110001000
11111111111001100010001110000110
11111111110100001101000110110111
11111111110111011010010010111100
00000000001000101110011011101100
00000000001111011001000111000011
00000000000110111001001101100111
11111111111110101111101011010001
11111111111111001110111111100000
00000000000100001001010100111111
00000000000101100100101010110100
11111111111101111111111100100011
00000000000000100011101111110001
00000000000001001010011010010101
11111111111011101110111110011100
00000000000010101111111000100010
00000000000011011100011111010101
00000000000010010011001011100110
11111111111011000101100101010101
00000000000101010100000101011101
00000000000001111110010101100110
11111111111110000110101000001000
00000000000010100010000101110001
00000000000010111001000110011011
11111111111001111101110110000000
00000000000001110110110011000010
00000000001101110001100100000000
00000000000100110111101101000011
11111111110000011101011101010100
11111111111100001011010110001111
00000000000011111100010101110011
00000000000011110010110111010110
00000000000010111010111110100000
11111111101011100001111000101100
00000000000111010110000100101101
00000000001011111000101000101011
11111111111101110001101001101000
00000000000001101110100100110111
11111111111100111110011111010110
00000000000000011000100110000100
00000000001110010011001000000111
00000000000101001000010001001101
11111111111110111010011000111100
11111111110110111111100110001000
11111111110101001100001111100101
00000000000000101010001111100000
00000000000001001011001100000011
11111111111011100111010110010010
11111111100110110110001110100100
00000000000110100000100011001001
00000000000110001110000111010011
00000000000111001000101011011000
11111111111110100101101010111110
11111111111110101110010000111000
00000000001000100001011011110101
00000000000101011010010011100100
00000000000001111111010110000111
11111111111011110000001101010000
11111111111100001011100011000000
00000000000110001001111100000110
11111111111100100010010000010001
11111111111001111111001110101100
11111111111111010001111100010001
00000000000011001101111110001010
00000000000011111011101110111101
00000000000011001111011100111000
00000000000000111010101001100000
00000000000001010110011011011011
11111111111001111100000001001110
00000000001110100100100101101000
00000000000111011010100001010110
00000000000011011110110001100000
00000000000011111100000110100001
11111111101001110110000101111010
11111111111101111100010010100100
11111111111100100010110110001101
00000000000101001100100011001000
00000000000101010001111100000001
11111111111101011111001100000101
11111111111011101111110101010000
11111111111001001010001000001000
11111111111110000110000111110110
00000000000101000111000101101010
11111111111011000000111000110000
00000000000010011000011000101010
00000000000000010100110010010100
00000000000101100100100111110110
00000000000100001010001011101100
11111111111111010111010000100000
11111111111001000101111000011101
11111111111110111000010101011111
00000000000101101110010100100100
00000000000101001001010001100110
11111111111001110000101001010100
11111111110101010111011001001001
11111111111000100010000000011111
11111111111011101100100011001010
00000000000010010010110111001010
11111111110111100001111000111101
