11111111111111010110011101101010
00000000001100000100011111100101
11111111111011110110001110111010
00000000000000010110101111001111
00000000000111100111000100111000
11111111111011100100100011101011
00000000001000001110010001111001
11111111111110011110110100110010
11111111111101001111000100110001
00000000000001101111000101101011
00000000001010111000000000011000
00000000000000111001000111100101
00000000000000010111100100010101
11111111111101001001100011110100
00000000000110110110011010001101
00000000000001110110110010011010
00000000000101000001110101110100
00000000000110110110101000010110
00000000000010110001100000010001
00000000001011001001011011011100
11111111111010111110010000000110
11111111111010100100001000101111
11111111111101000010101110111011
11111111111001101101111111011111
00000000000010001011100000100010
11111111111100000110101100111100
11111111111110101111111100111011
11111111111111101101100101010001
11111111111011111010001010000111
00000000000010111001111100010111
00000000000000010100111011110100
00000000000111101110110101100001
00000000001110000110111011000001
11111111111010110111111001001111
00000000000000111000011001000011
11111111110101010010010110101110
11111111111101101010000001100100
00000000000001110011010100100110
11111111111100111111011111111110
00000000000001101110100010101111
11111111111000101100010111000100
00000000000000001000101101010010
11111111111101101000111110100001
11111111111010110001000100011000
11111111111000010011100110001000
00000000000011011011100110111011
11111111111101100001100001001111
11111111111100000001101101000011
11111111111000101000111010000100
00000000001101010000100001111111
11111111111110101101001100001011
00000000000100100011010100010101
00000000000000110100011110110111
00000000000001110011010110011000
11111111111111101010000110111110
00000000000110110000111100101101
00000000000001100010000001000010
11111111111001000111110100010110
00000000000001100101100001111010
00000000001010111011011101111001
00000000000010110110000010010011
00000000000101101010101101101001
00000000000101101001111100110100
00000000000011010100110001010010
11111111111110111101110100110110
00000000000101010000000111010011
11111111111011100010111011010101
00000000000001111100111101100101
11111111110111101000010111011111
00000000001000110100011011010001
11111111111010110100001001100010
00000000000101101010001011010010
11111111111101011111001001010110
00000000000101100110100100011110
00000000000011101101111000100000
00000000000010001100000010100101
00000000000000010000111110010101
00000000000111101110001110010010
00000000000001111010001001100010
11111111111110100110110010011000
11111111111010101111111010110011
11111111111110000111000111110000
11111111111011011100101011010000
11111111111011011011000100110110
11111111111010000010101101011111
00000000000110111011001000001000
11111111111110011011000011110011
00000000000100110111111011101110
00000000000101111101001011010010
00000000000101110000101000001010
11111111111111000110111010111011
11111111111100100011111000001000
11111111111111011111001111001000
00000000000111101011100110000001
00000000000111000110101110111011
11111111111110010001110000101001
00000000000101110110100010010010
00000000000101111111101010101111
11111111111101000101011011110010
11111111111111010000101010011011
11111111111110000000010011001110
00000000000111100111000101110000
11111111110110100011111110111100
00000000000101100001110011000000
00000000000110111000000111111010
00000000000010011011000011001101
00000000000010110110000101010011
11111111111100010110001001101100
11111111111100111000011010001101
11111111111010111000001011110111
00000000000000000110011101010011
11111111110101111010101110000101
00000000000000011000110011011000
00000000000000011111100101100110
00000000000111111010101001011111
00000000000100101100100101100111
00000000001101010010000100110011
00000000000001010000110101000001
00000000000100110000111101001000
11111111111111000100001011101100
