11111111111110111101000001001011
00000000000011000100110010011000
11111111111001111011000101110000
00000000000100010001001010110110
00000000001001001110100100100111
00000000000100110101101100000101
11111111111000010011001000110101
00000000000100101111010111010111
00000000000011111101001111010011
00000000000101011110010110000000
00000000000111111001111100100010
00000000001010100011110001000111
11111111111001101001110011100001
00000000001000000110101000011111
00000000000111010111101111101010
11111111111011111011001001100010
00000000000011111010010010101010
11111111110110001100101010110110
00000000000110000111101011011001
00000000000001011110111100010000
11111111111011000101101000100001
00000000000000111111011010001100
00000000000101101101011111010010
11111111111011101100001100101101
00000000000010011001101000010100
00000000001101001111011001011010
11111111111110010111101000010001
00000000000100110111111011110011
11111111111010111100010011111111
00000000000111101100011101100101
00000000000101001101111000110101
00000000000000110101010010000111
11111111110010110011001101011010
11111111111110011101000011101000
11111111110011011100110000010001
11111111111001110110010111011101
00000000000011110111001001110000
00000000000000001110011100011011
11111111111100000101011000101100
00000000000001001011100100010000
11111111110110111111110100111011
00000000001001011110011010101010
00000000000110001100101010101010
11111111110110010001010110010001
00000000000001010111101001111011
00000000000010001111000110100100
11111111111111000011101000010110
00000000000101010001010100010111
00000000000011101011011011011011
11111111111000111100110110100110
11111111111011111000110001011010
00000000001010001101110111100000
00000000001001100011000111101110
00000000000101100110010111010011
00000000000011111010000000100100
00000000000100111111101110000101
11111111101100011110100011111110
11111111111100100111010000100101
00000000000011000010010101111011
11111111111110000111111111111100
11111111111010100000100111101110
00000000001010100010011111001001
00000000000110111110000100100111
00000000000000010011110000010100
11111111111100111110000011110011
11111111111011111111000110111011
00000000000000101110110110000011
11111111111111011000110011010100
00000000000110001110110001001001
11111111111010111000011000100110
00000000000000011001010101001110
00000000001110011100000101010011
00000000000010001101010001100011
00000000000010011011001000100001
11111111111111101100101001100111
00000000001011001000110001110111
11111111111111101101011001010000
11111111111011001111001101100100
11111111110011001111001000011011
00000000000000101111100001001011
11111111110110101010111111001000
11111111111100011111000110111110
11111111110001100000011010010001
11111111110101000001101010110001
00000000001010101111010111000100
00000000000011011001110110110101
00000000000110011011111000100000
00000000001000110010100011011111
00000000001111001110001101111001
00000000000110100101000001101101
00000000000101110010011011101000
00000000000000011101101111111001
11111111111011111111001000110111
00000000000011111010110001100010
11111111111010101101001010010001
11111111111101100011101010010001
00000000000111110001101011001001
00000000010100111010101111100111
00000000000000001111010010100000
00000000000000000110110100000000
11111111111101110111110010000011
00000000000000010111100100011001
00000000000001101010011011011000
00000000000001000111011101111000
00000000000100000011000100101011
00000000000011100010111010011110
00000000001111100001010110110110
11111111111101010001010010100111
11111111111111111111011110011011
00000000001011010110111101110000
11111111111110111010101101100100
11111111110110011110001001001101
00000000000110100100010110110010
11111111111100110010011101010100
00000000001011001011001000101111
00000000001001110111010111011101
00000000000111101101010100001101
00000000000010011010001101000111
11111111111010000100110011011111
00000000000010110110111011100110
