00000000001001011101101110001111
11111111111101101001000000101010
11111111111011100101101010100101
11111111111100010001100100010111
00000000000101000001111101101001
00000000001011111100101101001010
11111111101100100101011101111010
00000000000011000110000011101010
00000000000011000010101111000111
00000000000000111001111000111101
00000000000100010111010011010101
11111111111110011011010011111111
11111111111111101000010100100101
00000000000010101101110101111010
00000000000100000111101010101111
11111111111001111000101101100000
00000000001111000011110001100110
00000000000100001011101100011110
00000000000001100011000001111111
11111111111110101111111001001011
11111111111101111001000100111101
00000000000101011100000010110001
11111111111111001100101001010010
11111111111100001001000100110110
11111111111110101111000001001000
00000000000011010010000101100010
11111111111100010000000001110010
00000000000000001001110100101110
11111111111111100000110000101011
11111111111111010010101000000111
11111111111100000010010101001010
00000000000101010110101111011011
11111111110011000000101110110100
00000000000101101100100110111010
11111111110111100000110100101110
11111111110011010100110000000110
00000000000110000111111011001101
11111111110000001011000111000101
11111111111110001101100011010100
00000000010001111111010101111001
00000000000101101110101011001000
00000000000111000000110011110101
11111111110110110001100001101011
11111111111001010110111000100110
00000000001100010101111111110111
00000000000000010010110111001111
11111111110110111110001100101100
11111111111101011101000011001111
11111111111101011011000010011010
00000000001100110101101011011001
11111111111110100011000100011111
00000000000000101100000101001000
11111111111010001100111110000101
00000000001100000111111110011110
00000000000001000011110001110111
11111111111101011001101000000111
00000000001101010101001011000101
00000000001110001001101110010100
00000000000100011101111001100110
00000000000000010111000111010110
11111111111101100100001001110101
11111111111110111101111000011001
00000000001101101101110110010111
00000000000011100010010010011100
00000000000011110111111110011100
00000000001011111011011000011010
00000000000111110100000111100010
00000000000001100001010010111111
11111111111011110011011010000010
11111111110110010111111101111101
11111111111000110000010000010101
00000000001000001110110011000011
11111111111001111010001001111101
00000000001100111101001011010101
00000000000111100001101111000000
11111111111101011010101000101011
11111111110101001000010111111000
11111111111101010110010101110101
00000000000111000111001010001000
00000000000000101000011010010010
00000000000111000000100110010010
00000000001000100010011111011110
11111111111110111101011110111111
00000000000101100110000100001101
11111111111111011011000101001010
00000000000000010000110011110110
11111111111011011000011010011100
00000000000001101100011110001000
00000000010000011100010101000010
11111111111110011001110000000000
00000000000011011101111000001111
00000000000001110001101111000111
00000000000101010111001111101100
00000000000000111100111000011110
00000000000100001111011101100010
00000000000110000010010100100100
00000000000001001010010110000100
00000000001010111010011000110001
00000000000101100111110110000001
00000000000001010001010100111000
00000000000110000101011111000111
11111111111000101000011010100001
00000000001010111111110010100101
11111111111111000001011101000000
00000000000010011010110010000101
11111111111010101011111100101000
00000000001100000111000000001000
11111111111101000100101111010010
11111111111011011100001101001010
00000000001110001010010001000000
11111111111010001100011110001111
00000000000011010011011110001100
11111111111011111001110010101010
00000000000010101110010000101110
00000000001010010001101011111111
11111111111011011110110000000001
00000000000011101111011000110001
11111111111111100010010111110010
00000000000110001011110000100111
00000000000000011011100010111010
