11111111111111100011111110011111
00000000000010100001111110011101
00000000000010000110111100000100
11111111111110111011100010001011
00000000001001011011111111001010
00000000000011000010100101111010
11111111110101110100111111111110
11111111110111000001000100100100
00000000000011011101011101010110
00000000000100110001010110010100
00000000000101010011010001001100
11111111110001010001010000111010
00000000000111100011010100100110
11111111111111101011101101101100
11111111111111010101111111001101
00000000000101011000011100111110
00000000001110001001111111110110
00000000001001000110001110000000
11111111111110000110000101010000
11111111111111110101000101001011
11111111111111010001010011011101
00000000000001010000100010000111
11111111111100000000011111000001
11111111111111110001101111001010
00000000000010010100110111110010
11111111111101010110001110101000
00000000000110111011110110010011
00000000000000101001010001111011
00000000000111011001000110110000
11111111111101111010110100101100
00000000000000011101100111011010
11111111111110110100011110111010
00000000000010010111110100101101
00000000000101101100001010100001
11111111111100011101000111010111
11111111110100110010100110011010
00000000000100111011000111101100
11111111110011111010110100110011
00000000000001000011011000011110
00000000001001010001011011101001
11111111110111111011111010000011
11111111111100100111101111010100
11111111111011001011000010001011
11111111110000011111100101011101
11111111110111011011111001110001
00000000000100010111011011100001
00000000000010001000011010001001
11111111111100011111101110100001
11111111111011111010011101110100
00000000000001001001101010010100
00000000000000100111011101110111
00000000000010010100011100000101
11111111111001001011110110110111
00000000001010110010110111010100
11111111111110100110010100100000
00000000000000110101010001101101
00000000001101101001110111010111
11111111111101010100110010011010
11111111111011100011011110100110
11111111111111111011100110111111
11111111111111100110110110100101
11111111111100001011101100100100
00000000000101101010100001110000
00000000000110011011001101101100
11111111111101111011101001111011
00000000000001100010100011011000
00000000001000111100101111111001
00000000000100111001101100000100
00000000000000110010110001010010
00000000000101001001100000000111
11111111111110000101110010010000
11111111111111110010010001010000
11111111111101010010101000000110
00000000000100110100000001111011
00000000000101110011100101100101
00000000000000000111010011100110
00000000000001001100101111010111
11111111111111101111111000010100
00000000000111011111101100000010
00000000000001000100101000110111
00000000001011100100100111001001
11111111111010110000001111000001
00000000000000011000011111010110
00000000001011000010011100110011
00000000000010000000001000100101
11111111111110011000001000011101
11111111111011010000000010010000
11111111111011011001100110010110
00000000001100010100010110010000
11111111111011010100010001010111
00000000000001111101000011010010
00000000000001110010101111011101
00000000000100011010101100001001
00000000001101010110001000001111
00000000000000001010001001111110
11111111111100000101110110011111
00000000001001110101110000100000
00000000000110000000000110000011
00000000000011111101101101011100
11111111110010101101110100001000
00000000000010011000011100001110
11111111111000111000110100010110
11111111101111011111111101111100
00000000000011000010101111101010
00000000001001011110111111000101
11111111111101000101100011010001
11111111111100111110011011000011
00000000000110110011111010011110
00000000000110000111010000010011
00000000000001010101001100100001
11111111111100000101111001000111
11111111111110110010101001001000
00000000000001100110110101101000
11111111111011101110011000001000
11111111111111000100111100011101
11111111111101111101100111110000
00000000001101011011100111000111
00000000000100110100001111100100
11111111111110010011110000001000
00000000000000001000101101010101
