00000000000001100100010110110011
11111111111011110010100001000111
00000000000000110111001011101110
00000000000001010100010101101001
00000000001101000110101101110110
11111111111111111011101000000110
00000000000010000010101100000110
00000000000100011001110111001011
11111111111101101100001010010000
00000000000110000000000000111111
11111111111110110001100110001100
00000000001000001111010101111110
00000000000111111110000010111011
11111111111110011000010001101011
11111111111111000001011010110000
11111111111111010101010101010000
00000000000001010100100000000111
00000000001100101010011100100100
11111111111010110110001001000100
11111111111000000011000100110110
11111111111110101100111111101100
11111111111110001100000011001001
00000000000110000100100100010010
11111111110101111011110011011001
11111111111100011110001001111001
00000000000010100000110011011101
00000000001011100111000111100000
11111111111100111101101100011101
11111111110110011110111001001010
11111111111100010101101001110001
11111111111111101010110011111111
00000000001000111111100110010100
11111111111100010100100001010010
00000000000100000110001000001101
11111111111001011000011111101100
11111111110100010010010011011100
00000000000100110101111110000001
00000000001001011001110010000101
11111111111001010011111100111110
00000000001001011001111010000010
00000000000000110111101100000110
11111111111001101001111111011010
11111111111110111111110100101000
11111111111001100001100101101111
00000000001011110100011000101011
11111111111010110001000110110000
00000000000100001101000010011010
11111111111011100100001100010011
11111111111010011011111101000100
11111111111111110111110110111010
00000000000000101111100101010111
00000000000101000001010110000001
11111111111100110011101000110000
00000000000100101010101101011110
11111111111011001000000001011001
11111111111101111000111010101111
11111111101101000111110100000111
00000000000011100101101110110100
00000000000011000110001001100001
11111111110100100011110011000001
00000000000000000111100101101100
00000000000101111110111001100100
00000000001000000100100011010101
00000000000001111111110001011100
11111111111011001100001110000110
00000000001011010001001111100101
00000000000000111011111001010101
11111111110111011001101001001100
00000000000011101010100101100100
11111111111101001100000101110001
00000000000001000101000111100101
11111111111010111010010000001001
00000000000110001001000101101110
00000000000010000001011100100010
11111111111011010111110100110000
00000000000101100010000101000011
11111111111111010100111111111101
00000000000111011011111110101001
00000000000010101110011110010001
00000000000000000000110000000100
11111111111100000101011101010101
00000000000000000000101110011101
00000000001000110000111101111001
00000000000011101001101101101100
00000000001110100110101011100011
00000000000001101001011101011111
00000000000100000100000011111101
00000000000110011101101011011101
00000000000111101010011011110001
00000000000001111000001011001100
00000000000101000011011001110001
00000000000100000010011011110101
00000000000010000001110100011000
00000000000000011111001100010001
00000000000000111010110010010101
11111111111110111010101110110110
00000000000001011000110101000010
00000000001000110010100000010010
00000000000110011110000001110011
11111111111001101110010101111011
00000000000001011011001001000101
11111111111010110001010110001111
00000000000101110100100100110111
00000000000001100001011110100110
11111111111010010000110010100001
00000000000001011001001110010011
11111111111101001101001100001100
11111111111110000111111110110100
00000000000000110101110000010100
00000000000111111111101001011110
11111111111111010000000101000000
00000000001011100001101110001111
11111111111011011010111101100110
11111111111111001111101001100010
00000000000010011100011110011110
11111111111111011110010001000111
11111111111010011010110010001000
11111111111111111111101111100100
00000000010011000000110010011010
00000000000110011010111100110100
