11111111111110111011011111001000
00000000000100001111010111100111
00000000000111001011000010010000
00000000001000101110001101001010
11111111110101001011100111111111
11111111111011101011101100101110
00000000000001110000100011100000
00000000001011011100101011000110
11111111111101111101111111110011
00000000000011101000000101101110
11111111110110101001100110110100
00000000001011011110010000101000
00000000000101110101101001001000
00000000000011001111101000100101
11111111111011100100111000100001
00000000000100001101000010000111
00000000000011110011000111011000
11111111110101101100000111110111
11111111111010010000011001100110
00000000000000011101111110110110
00000000000110011000011111110110
11111111111110001111010001101001
00000000000011100111101100010100
00000000001101100000010100011111
11111111111110111110100101111101
11111111111110110001110110010111
11111111110110100110100011110010
00000000000000100110100111000001
00000000001010011110111101100001
11111111111100111011101101010111
00000000000101000100010011011011
00000000000000110111100011001111
00000000000011000000011001111011
11111111111101000100100111001000
00000000000101011110101111000011
00000000000101000011000101110010
11111111111110010010011011111001
11111111111101000010010110010110
11111111111111001111000111111101
11111111110101111101110101111000
00000000000010100110111101110110
00000000000101000010000111100100
00000000000001010111101111110011
00000000000100110000111011100011
00000000000010000101111101100001
00000000000001111100101110011111
00000000001100001000010011010001
00000000001010010001000110110010
00000000001100001110111010110111
11111111111001111010100110011011
00000000000001100110011000000000
11111111111111000100011000000011
00000000000001010011101000100001
11111111111011000000111110100010
00000000000011010101001100001101
00000000000001111010001101100011
00000000000011100111101000100101
00000000001000000000110101000110
00000000000000000000111001100010
00000000000001101110111011000110
11111111111101001010100101000110
00000000000001100000111000101110
00000000000010101011010111110000
11111111111000110010011001000101
00000000000000001111010011111001
11111111111011011010011000111111
11111111111101000100011110010001
00000000000100100111001000100100
00000000001010111001110011101011
00000000001100001100001010000011
00000000000110010111100011001000
11111111111110001101011110010001
00000000001010100111011100100101
11111111111101000001111101110101
00000000001000110111000011011111
11111111111001111110001011111110
11111111111101001111011101111101
00000000001001110010100001101110
00000000001000010000001010010001
00000000000111110100011110111101
00000000001010000111010110010101
00000000000111100100110110011100
11111111111011001011010001111010
11111111110011000010011101110110
00000000000010010001111000111001
00000000000000001011100111010110
11111111111011010000100111010101
00000000000101111000010100011110
11111111101110110101000000001000
00000000000100001000011101000011
00000000000110110100000101001000
11111111111100010111000111100011
11111111111110011101101101001000
11111111110111100011000001110011
00000000001000011110111111010000
00000000000111101101000101101001
11111111111011011000001010010110
11111111110011111101011100001010
00000000000011100011111100011110
00000000010001110100001000110011
00000000000101001111110100010110
00000000000110011000101101010100
11111111110011010101000101001100
00000000001000100110110000100100
00000000000100101010111000011101
11111111111101110101011011011110
11111111111101000010111000110111
11111111110111101111100100101100
11111111111010100101110110010111
00000000000100001001111100101100
11111111111110110110110001111001
11111111111011001110001110111011
00000000000000111001100101001001
11111111111101100110000100110110
11111111111101010100101000001000
00000000000000000001011111001010
11111111111000111001110111101101
11111111111011001010011110001011
11111111110111111110000001000101
00000000000111001100100001010101
