11111111111100001000100111001111
00000000001001001101011100111110
11111111111101100111111000101010
00000000000011001100101111110010
11111111111111111111010011010101
11111111110111101111100011110101
00000000001001010110000101010010
00000000000100111010100111011010
11111111111101000000100100000101
11111111110101110010110000110100
11111111111110100010110011000001
00000000010000111111001011010011
00000000000111101010110111010101
00000000001011011011001010110100
00000000000001111011001110100000
11111111111100100011001000110111
00000000000010011111101101000101
00000000000001001111101100011001
00000000000010101000110000010111
00000000000000100001000000111001
00000000000011100100101101011111
11111111101110010001010000100011
00000000000100111111111001111000
00000000000111110111100111001101
00000000000010000111100100101011
00000000000010011011100111000110
00000000001110100110001000001010
11111111111101001001111001011000
11111111111100111111111110110101
11111111111111001111001000011001
11111111111110001111000101001111
00000000000100010110110001101000
00000000001110001111010100110001
11111111111110001001010101001101
11111111111110010111000100011101
00000000000000101001001100110100
00000000000101101001100100001101
11111111111101110010001100100110
11111111111000010100110000000000
11111111111000111100111010011101
00000000000111101001011011000010
00000000000001010101011000101111
00000000000001101010101100110001
11111111111010010001010010101101
00000000000111000111110000010110
00000000000010011001100010001110
00000000000000010000100101100110
00000000000001001110011111101110
00000000001010101001110011001000
00000000000001100011000000011100
11111111111110001110111010000111
00000000000001000001111000101111
00000000000110101100101111111011
00000000000100101110010101110001
11111111111011011000000000001110
11111111111111010000011111010010
11111111101110011101101111010101
00000000001101100110100101100100
11111111111011011000100010010111
11111111110111110010001010000100
11111111111110111011001000110101
11111111111010001100001011111111
11111111111111010100001110011101
00000000000100101100111100101001
11111111111001101010001110000010
00000000001001010010011010101101
00000000000001000000010000001001
11111111111100011000100000100010
11111111111001110010010111110001
00000000000111000001100001000100
00000000001001011111111001101100
00000000000010110100001111001100
11111111111100111000000100100001
11111111110111010010011101110100
00000000000000111110111000011111
00000000000101101101101101000111
00000000000101111001011011000000
00000000000010100011101110010101
00000000000011101011101110110001
00000000000010101001100010111101
11111111111010011000000010110010
11111111110110101110001010101110
00000000001001000111000110011011
00000000001001000111011000010110
11111111110100101000111010000101
00000000000010110111010101010100
11111111111110010011111000011110
11111111111011111001110010111100
00000000000010000000010000110010
11111111111011010111011000001111
00000000000101100010011001100100
00000000000100111101110010000100
11111111111101011110001101100010
11111111111100010100100100001101
00000000000001101001100101000111
00000000000100010111000110011011
11111111111110110010001011001011
00000000000010100000100000011100
11111111111010010100110001001111
11111111111000101101000010100011
11111111111001010011111111000000
11111111111110111100011101101010
11111111111110111011101101011100
00000000001010001011111010010001
00000000000001010001011010000001
11111111111111110011001011000100
11111111110111010011011111010111
00000000000001010101011000011101
00000000000010010100010110011100
00000000000010001111110000000011
00000000000111101111010111101011
11111111110110000100110000111001
00000000000100110100011000000100
00000000000000101000010111001001
11111111111011100110000000110111
00000000001110110000110011110111
11111111110111010010100101111100
11111111111011000011100011100111
00000000000010000000101101000100
00000000000000111001011000100001
