11111111111001010100111011110101
00000000000110011000000010110110
11111111111101111010000001001101
11111111111010011011001111111000
00000000000011011000000001010101
00000000000011011011000011101001
11111111111100011000100111011100
00000000000000011000000101110011
00000000000100001000001011000000
11111111111111101100000101010110
11111111111010110101101000010111
00000000000010111010111101110011
11111111111010001100100011001000
11111111111001001100110011011111
00000000000011011010011000110001
11111111111010010101100011110000
11111111111010100110110010011101
11111111111000011001111011111000
00000000000001001100000011110001
11111111111101100000010000100000
11111111111100000011100110000011
00000000000100110110100110100101
11111111111111111101010001000001
00000000000011011111000001100001
11111111110111010011010010011001
00000000000000011010101100000010
11111111111000101001100000010110
11111111111001100100110111111000
11111111111101100000101001001100
11111111111101011111111101110000
00000000000001100000000101010100
00000000000111011111111110010101
00000000000001100101010010010000
00000000000011011101011110010110
00000000000000111110010100011001
00000000000011000011000001011100
00000000000100010000110010111101
11111111111111100111100100111001
11111111111100111011111000101000
11111111111010011000110001000101
00000000000001100010100110110011
11111111111100111111001111000010
11111111111000110001111101111101
11111111111110111001100010111101
00000000000000011101110110101111
00000000000010001010000000100001
11111111111010110111111000100001
11111111110111111010100001000110
11111111111101001110111011111111
00000000000001001011111011001110
00000000000011000110111010111110
00000000000001101101000000010100
11111111111100001000011100110011
11111111111111111010010011111110
00000000000100100011111100010110
11111111111111101010000100101101
11111111111110101111001011100000
11111111111001001111000100001001
00000000000001011111111100111110
00000000000011110111011010110111
11111111111110010001000110000101
11111111111101100100001001011100
11111111111110001011110011011001
11111111111011010100111100110010
11111111111101110001011110000000
11111111111000100010011111100011
11111111111100011010001101100000
00000000000000100011101100001010
11111111111011111101000010111001
11111111111111110010111011101100
11111111111110000011000010100101
11111111111001000010100111110100
11111111111100100000111010011010
00000000000011010111000010000101
00000000000010010010000100011101
11111111111100101101100111101101
11111111111111101111100110001110
11111111111101000110100000100100
11111111111000110001101111000000
11111111111111101110110001011111
00000000000011011011111100101010
11111111111111001100111101001011
11111111111100100110011001000110
11111111111101010010010010011010
11111111111011110110000011111001
11111111111111011101101010010101
11111111111110101010100100000000
11111111111110001010100110010111
11111111111100010110010101110101
11111111111100111100110111110101
11111111110111101110001100000101
11111111111100011100101100011111
11111111111011010010101000101100
11111111111111101111011111110001
00000000000000111010000010011100
00000000000000111011100110110000
11111111111111001100001011000001
00000000000001000101111110010010
11111111111100101001000011001111
11111111111000010110110000001111
11111111111111010001010001100001
00000000000101011101011110011010
00000000000001000011011110101111
11111111111101101111010001100100
11111111111101001011111110011001
00000000000010100001101110101000
11111111111110101011001100100000
11111111111011010101100111001000
11111111111011111001110010100111
11111111111011100001010111111111
00000000000001011001111011111101
11111111111010000111000111000011
11111111111101010000100001111111
00000000000011011101010111111111
11111111110111110011001100000011
00000000000000000110011111011001
11111111111100110001011100101110
11111111111110010010110110111110
11111111111101011110101000100001
00000000000010111101100100100010
