11111111111011111110011010110011
00000000000000110100110001111000
11111111110101100011111011000000
00000000000100111100110000110110
11111111110111000000111010011010
11111111111110000101001011101110
11111111111100111110001100101101
00000000000110011001000110010011
11111111111110010111111101100110
11111111111001101010100001001100
00000000000100100100100011110101
11111111111101110111001111010011
00000000000110000011100001001010
00000000000100011101001000110110
00000000001000111011001010101100
00000000000001101110100000000010
00000000000010100001000010110011
11111111110001010111101100100101
00000000000010101010111101111000
00000000010000011101100000011111
00000000001010001100101110110111
00000000000100110001100011101101
00000000000001111001010000101000
00000000001111001110010011010011
11111111111001100010000011010111
00000000001000011100110011111111
11111111110010111111011010101111
00000000000011110001111010000010
00000000000101101001100010111100
00000000001010111101101001101011
00000000001000000110111110100010
11111111111001001001000010111010
11111111111110100011011101111101
00000000000010010001001111110000
00000000001001000000000000100001
00000000001011110101010000111111
11111111111101000001101010100010
00000000000010100011011111100110
00000000000111010111101010000101
11111111111000000101101011010101
11111111110110110001001000000011
00000000001001001111011011111001
11111111111011110110101100100110
11111111111100000111000010101110
11111111111001100000110000000001
00000000000001010110000011100001
00000000001100000110011101101000
00000000001010100110100110001101
00000000001010010001101111001001
11111111110111000011111101010010
00000000000000100000011000110000
00000000001100101100001011111001
00000000000101001001010010001101
00000000000111011101101111001000
11111111111111001111001000111010
00000000000111110101100011010011
11111111111110111101110111001100
11111111111101110010100100101100
11111111111101100001110010011101
00000000000011111101001111010001
11111111111101000011010100001010
00000000000001001000011011011000
11111111111111001101100011010011
11111111111010010011011110011001
00000000000010011111110011110111
11111111110111000111001100010111
00000000000110010101100110111110
00000000000101010101011000000010
00000000000100011011111101101110
00000000000011101111111010100110
11111111111101110000111011011001
00000000000011110110111010111101
00000000000010001111011011111011
00000000000100111001111110101111
00000000000011010111001010100001
11111111111001110000101100001000
11111111110101101111101010111101
00000000000100000001011110101111
11111111110111011101101100101000
00000000000111111000111111100100
00000000000111101100100100111000
00000000000001001000001111100000
11111111110111000000010101010111
11111111110100100101010110111010
00000000000100001011010010100010
00000000000001111110001101101001
00000000000101101111010101011011
00000000000101011011111110111101
11111111111011011000111111001010
00000000001001110101101011110110
00000000000011010000000011101111
11111111111011100100111100110111
11111111111001000011000100110101
11111111111111000101110110101110
00000000000011000011010111110000
00000000000101010000010010010110
00000000000110101000010110110110
11111111111000101001101100101111
11111111111111100111001001011000
00000000000011100100110010111100
00000000010000111001110010111000
00000000000000100110100101110111
11111111110010011001100010101101
00000000000110011100110010011101
00000000000111100001101000010111
11111111111101110100111000000010
11111111111110011010110000110000
11111111111110111111001100001010
11111111111110100101010001100111
00000000000000110010000011011000
00000000000001010100110001100110
11111111110110010011001110011000
00000000000111101000000000101001
00000000000011100100101011001011
00000000000010111111100000110100
00000000001010100100000100100100
00000000001000101001000000010011
11111111111110010100011110011001
11111111101011001100110011110100
11111111111101010011101011111100
