11111111111101010010001011110100
00000000000000110101010111110001
11111111110101111001000100010010
00000000000110101110000010001001
11111111111100001011000011111101
00000000001010001101100110111101
11111111111000000010001011001111
11111111111011100100101110101111
11111111111011111000000100011000
11111111110100110000000010001111
11111111111110011011101010000000
00000000000000001101010011000001
00000000000011110100001100101011
11111111111110001011001000000111
00000000001001000110000010000011
11111111111011011110100100111000
00000000000000010000001101011111
00000000000000011001011011111000
00000000000100001101001001101000
00000000000110101011100110101111
00000000000011000000110100101100
00000000000001010000011111100010
00000000000001001110010111010100
00000000000000010101000100011111
00000000001001001100000011111010
00000000000101111001100110011000
11111111110011111010110011111111
11111111111111011000011010011001
11111111111111000000110011100001
11111111111110000111000111100011
00000000000010100111100101011100
00000000000000101110111110101000
11111111110000000110011000111000
11111111111011000100111000100101
00000000000010100011000001001010
00000000000011000001000001000111
00000000000100110100011101100101
00000000001011001111100101011011
11111111110000111001000000101010
00000000000011110011100001111000
11111111111110101011100111110000
00000000000110011001100111010111
11111111110100010011011101010111
00000000000110001111100111110101
00000000000101000101001001001100
00000000000000110110100001101000
00000000000011111101001111111100
00000000001001110001001001111010
00000000000011110011010000011001
00000000001100100011110000111111
11111111111110001011101011010100
11111111111010111010100011100000
11111111111011000000011011100101
00000000000111001010110000101100
11111111111111110101001011010110
00000000000001111111010101010101
11111111111110101101111100011010
00000000001000001100001101101101
00000000000111001011110000001111
11111111111101001011000100110001
11111111111011001011111001100100
00000000000011011101001100010000
00000000001001111000010101001110
11111111111000011111100100100011
00000000000001101001111011110011
00000000000101101101111110110101
11111111111010001100001100010010
11111111111111101001110000001111
11111111111100011000101001010011
11111111111010011100111111110110
11111111110111110001101001001111
00000000000101000010001110000101
00000000001001011010100111010101
00000000001001111100110111000000
11111111111111100100111101110000
00000000001001101110000100011010
11111111111011110100010000110100
00000000000000100100000011100100
11111111111110101011101010000001
00000000001000100111101001101010
00000000000011110010011101100001
00000000000011100101110110001011
11111111111011000101110111001011
11111111110101100110101001011010
11111111111010100100110101100001
11111111111111011100001100011011
11111111111111100011000010111110
00000000000110100110001100011101
11111111111101100000001001010010
11111111111101000100100110101011
00000000000000111101101011111110
11111111111101011100011001111111
11111111111110110011000000010101
11111111110111110000001000010111
11111111111100010101110011111001
00000000000110010001101001111000
00000000000010010100110111010001
11111111110111000100011011110100
00000000000010111000010001011000
00000000001001010110000111010000
00000000000000101010101000000010
00000000000001111110110011001001
11111111111110101111011000010111
00000000000111111111010011110110
00000000001001111011111101101100
00000000000100000110110001011111
00000000001100000010000100011110
00000000001001010011001010001000
11111111111110000110111011101111
00000000001101111101010111111100
00000000000101010000000001101001
11111111111000100100011001000101
00000000000001101011110000000101
11111111111110110011111010111110
00000000000111100110100111010001
11111111111100010101010010010110
00000000001010100000010010111011
11111111111110000101100000000011
11111111111000100111010100101111
11111111111010101001001010001000
