11111111111001100011111011100010
11111111111001011100110010011111
11111111111100111111111011011111
11111111111110011011011101110010
00000000000010111001001000001011
00000000000100010110010000010001
00000000000011111001110101000010
11111111111111001010110100000110
11111111111101010010001111000010
11111111111111011100001101101001
11111111111011110001000010100000
00000000000010000011000011101001
00000000000001110001111100110101
11111111111010110101100100110010
00000000000000001001010000100010
00000000000100011111000001100110
00000000000010111110010101000000
11111111111111011001010001010000
11111111111101011110100001101100
11111111111100100110000111011101
11111111111101001010011111000111
11111111111010110111010100011110
11111111111010111011010000100111
00000000000001011110000100011010
00000000000000001110001101011011
11111111111110001100011000001000
11111111111100000111000011000010
11111111111110001110001011110000
00000000000001011011101110111011
11111111111100110001001010010000
11111111111011111010010111110011
11111111111101101100000000011000
11111111111001000001000111011000
11111111111110111111100010100111
11111111111011101110011100000100
11111111111111010001011000010010
11111111111100110001001011111011
11111111111110000001101001100110
00000000000001000110001100100100
00000000000011000111111001001011
11111111111001111100000100010011
11111111111011110001001101010011
00000000000100000101001000110110
11111111111101001001011011111010
00000000000101110011011000010001
00000000000001010110001111100010
11111111111011111111100001101110
11111111111111100011100011110100
11111111111001110110110110001101
11111111111100000011111101100111
11111111111100010111011101101100
11111111111111100011110101111011
11111111111110011100110010000101
11111111111010101100110101000000
00000000000010000001000101010001
11111111111011000100011000101010
00000000000011111101100101000001
00000000000000011001010111101100
11111111111110100000111100110110
11111111111110010101111001100000
00000000000100100001111011101100
11111111111111111110101110111001
11111111111111100011011111110100
00000000000011011000101010101110
11111111111010110011000000000011
00000000000010001011000010101000
11111111111111010101101000001110
00000000000011101100000100100100
11111111111110111001001001011001
11111111111110111010010110000000
11111111111100111100011001111000
11111111111001111000011101110111
00000000000001011110100100001101
11111111111101000000110100010010
00000000000011101110001000010100
11111111111100011111010110000111
11111111111111010001111111000000
11111111111010101111001000111010
00000000000001100110011000010111
11111111111100111100001110110000
11111111111100100000011011000010
11111111111101110010000101110001
11111111111100100110001011001111
11111111111100001110100111000110
11111111111101000100000001000011
11111111111001101011110110110010
00000000000011011000011010110111
11111111111110111110000110010110
00000000000001100000001111010011
00000000000011000011111011000100
11111111111100010100001001011001
00000000000000001110001101110111
11111111111100111101001011110101
11111111111011110111110100111100
00000000000011011101010110011001
00000000000001110011100011000000
11111111111100000110001001011111
11111111111101010011101001011011
00000000000001011010110110010010
00000000000010110011101110101111
11111111111001111000001111101110
11111111111010011111001001011000
00000000000001111101000111101010
11111111111111010101000001001000
00000000000000101010010010101011
00000000000010100011101010010100
11111111111110110111111111011100
11111111111100001011000100000111
00000000000101101101101010110000
11111111111110011100111011101011
11111111111101101111110110101100
00000000000000101111000100001110
11111111111100110110101010010000
00000000000001001010000100111001
11111111111011111000000011100000
11111111111000111001000101001000
00000000000100000011000111001001
11111111111111100110110000100000
11111111111111100001100100010101
00000000000011110100000000100100
