00000000000000100001111100000010
00000000001010111010001101110011
11111111111100000011111110000111
11111111111110011011011101110100
11111111111111010011001010100100
11111111111000100111000001011000
00000000000111010100010110101100
11111111111110110000001000111110
00000000000011101000010001011010
11111111111101000101101111110010
11111111111110101100111000011010
11111111111000010001110011011000
11111111111110110000001110011100
00000000000001010101110011000111
00000000000110010111111101001010
11111111111011001100110001001101
00000000000111111101010010110101
00000000000000001100100110001011
11111111111011001111100000101000
00000000001011011010011000000011
00000000001000010100101111011110
00000000000000111001011010001000
11111111111011100011101001001001
11111111110100011101001001000000
00000000000111101111111100110000
11111111111000111011011011110110
00000000000011111101101000101010
00000000000001100100110001000101
00000000000000100111000011001010
00000000001100101001011111100111
00000000000011100100000111110111
11111111111100111100011000010000
00000000010001100110101011010101
00000000000011111011100000100100
00000000001010111100010100001111
11111111111001100001111001100000
00000000000001111110111011101010
00000000000100000100001101100101
11111111111110111111010100100010
00000000000110100101100010100101
11111111110110111110111011100101
11111111111001110001111000100000
00000000000011111011101111110001
00000000000100111011001111000000
11111111111000111000100010011110
00000000000100101101010100110110
00000000000100000010000010100011
00000000000100100000010110111110
11111111111010111101001011111011
00000000000000000000000011001010
11111111111110000011100011100011
00000000001010011011001110000101
00000000000010011111111010000110
00000000000000100001001001011011
00000000000000001101110000000100
00000000000010100111111000110001
00000000000000100110101000101110
11111111111010010110011110010000
00000000000000011010111001101000
11111111111110110110111100111110
11111111111101010010110001111010
00000000000010001000001010111101
11111111111010101011101001000010
00000000000100010000000101101000
11111111111100011011110101011001
11111111111110011000100011111010
11111111111110010000010111110001
11111111111111111100010100111001
11111111111110001010000000100010
00000000001110010001110011000101
11111111111100101000001110011000
00000000000000111111010001001111
00000000000011000011110101110010
11111111111110110100001110100110
00000000000000001111110001100000
00000000000011010001011001101110
11111111111100110011100111100000
00000000000011011001011111001011
11111111111110001101010011001100
00000000000011100101010111000001
11111111111011011111101011110101
11111111111110000100001111011110
00000000000001110000010101100111
00000000000100100011111010111011
11111111111101001101001010101001
00000000000100101100110101111110
00000000000001100110011110011111
00000000000000111000111011001011
00000000000011000101011101101101
00000000000111000011100100000111
11111111111111101100111011001110
00000000000011000100010110111000
00000000000011010110110101101010
00000000000000000111101111111000
00000000000100000010011111101011
11111111111100001011100011010111
11111111111101110100101001111100
00000000000001010001111101100101
00000000000010111011110010001001
11111111111001111110101110101101
00000000001111000001010000101000
00000000000011101100110000000100
11111111111011110000111000110100
00000000000010100111100011101000
11111111111110100000011101100110
00000000000100100111011010110101
00000000000010000011110000000000
11111111111010111101100101101101
00000000000011001101100100011101
11111111110100100010001010111101
00000000000101010011111100000101
11111111110100111111000011110011
00000000000001010000110011101000
00000000000011100011111001001001
00000000000100100110101100011001
00000000000100000011110110111011
00000000000011111010101001011011
11111111111101010010101101000110
11111111110111001010011101100100
11111111111110011100010001101000
