11111111111011011000000110111100
11111111110001111111001100001001
11111111110101011101100111110000
11111111111001101111001011010000
11111111111100011101010111000100
11111111111111011101001001110100
11111111110110110010010011110101
11111111111001000001101011001111
00000000000010000000010111111001
11111111111110101011110011000110
11111111111011100001000001101100
00000000000111001011110000100000
11111111111001011100100000001000
11111111111110101010101000110111
11111111111000000111011110111001
00000000000101011101101010001001
00000000000010110110000101001111
11111111110111101101011010000000
00000000000100101111010000100111
11111111111100110010111001110001
00000000000100101011011100101011
11111111110110001111110000011111
11111111111111111011000110011010
11111111111001011010010111111000
00000000000001010100010001010011
00000000000011011011110100001001
11111111110100001011111011111001
11111111111011101111000110011010
11111111110110001110111100011110
00000000000001010101010100101101
11111111111001011101100000101111
11111111111000111001011111001001
11111111111101001010100110001101
00000000000010101101001010001000
00000000000111101100100101110011
00000000000010100010000100011110
00000000000100010100010010110010
11111111101110110011111100010000
11111111111000011010001101100110
11111111111100111110010110011011
00000000000010011001001010110000
11111111111111010010110000010011
11111111111101101101110011011000
00000000000110010011110000100011
00000000000011000111011000000000
00000000000011011110001110111101
00000000000101001010100011101100
11111111111111100011111111110011
11111111110111110010110001001010
11111111111011001100100111111011
11111111111011000101011001001110
11111111111100101011101011000000
00000000000000010001100000100100
11111111111000011100100011110010
00000000000000111110001001011110
11111111111000001011111000011010
00000000000000000110001010111010
11111111111101000010100111110010
11111111111010100000001001000101
11111111111101011000001100000011
00000000000000010011101100110010
11111111111110101101100000101011
11111111110100011010101111100101
11111111111011100101111010011000
11111111111110001110101001110110
11111111110100001100100001111111
11111111111110010100100101011111
11111111111001110110001011110000
11111111111001001001001010111110
11111111110110111001101000000111
11111111111100111001000100001100
11111111111100101001001101101000
11111111110101111010100110101101
11111111111100001000000010110011
11111111110101010010100011111111
11111111111101001010111101100010
11111111111101110001100011100100
11111111110101000100110000100011
11111111111100111101101110001100
11111111111000011101000110111101
11111111110111111010010000010110
11111111111010010001001001110111
11111111111001010100101000001011
11111111110110000001000011101011
11111111110111010000001000000111
11111111111100111110111011100100
00000000000001010100001100001101
11111111110010100101100100100110
11111111111101111011110110001111
11111111110110101110001010000100
00000000000010000001111110011111
11111111111101011000010110111110
11111111111000010111000001101111
11111111110101111011000110101011
11111111110010010110011111111010
11111111110110011111110111000100
00000000000000101101010000110111
11111111111100011000100011001011
11111111111010010111100110000101
00000000000001110101110100001000
11111111111010011011000100001011
00000000000101101010001011110110
00000000010001001011110001100100
11111111110101111011010010101011
11111111110111101110000110000110
00000000000010110011011011101100
11111111111111110011011101001000
11111111111111111101001110001011
00000000000101011110001101010111
11111111111111111000101101101010
11111111111001111111100001101110
00000000000000001000111011100000
11111111110100000110111101011110
11111111111111000101000010101001
11111111111001010101100001101111
11111111111101001101011101010110
11111111110101100111010010101000
00000000000001110101000011111111
00000000000101101111100011010010
11111111111100100111101111111011
