00000000000001110010010110111110
00000000000000110110101110000101
11111111110010110100011101010001
11111111111101011100000010011000
00000000001011010011010100110010
00000000000110111011111110101101
00000000001101011010010010111010
11111111111011001001000111101100
11111111111110101111111111010111
11111111111100000011100000100010
11111111111100100101111010000101
00000000000001101001100010101100
00000000000011110100100011101000
00000000000001101001111101010001
11111111111111111001100000100110
11111111111100110101011100010001
11111111110110101111110100101101
11111111111100111101100110011000
00000000000001110001110100111100
00000000001000001011101100100101
00000000000000010100001101111011
11111111111100101001001110001110
11111111111101111110011100110101
11111111111010110011000100110011
00000000000111101001111101011011
11111111111111110010011111000100
00000000000110100111011010110111
11111111111001110001111111111010
11111111111010001010011011100000
11111111111010000111001000111011
11111111111111010010111010100011
11111111111110101111000011011000
11111111111100000110011001101110
00000000000101011101001101100100
00000000000111000010001010110101
11111111111101010101100001010011
00000000000011100011101001010010
00000000010001101111101011010101
11111111111000101000111001000100
00000000000010010100100100000010
11111111111101011001001100010111
11111111111100111110000111011001
00000000000101100000010100110110
00000000001010001100101011111111
11111111111110100000000001010111
00000000000000011101110010111010
00000000000011001001100111000011
00000000000001010100100101100101
00000000000011001011110111010000
11111111111111001011101000100000
11111111111010110011110000001010
11111111111000110001000000001010
00000000001010000100110001111101
00000000000010110111001000011001
11111111111011011110101100110101
11111111111110101011101110110101
11111111111101010100110100010001
11111111111000001010011001010011
00000000000011000110111110001010
11111111110111110101000110110011
11111111111101110010111010000110
00000000001010000010101101001000
00000000000001001011000001001001
00000000000110001001000000111101
11111111111001101010100010001000
11111111111100111101001101110011
00000000000000011110001000101010
11111111110101010100011010100111
00000000000000001010000111011010
11111111111010111001001100000010
00000000000001000010101010010011
00000000000010110101000011100010
00000000000110101001110011011111
11111111111111110011011100100011
00000000000000100100101001001000
00000000010000101110101101100001
00000000000001101111100101010011
11111111111110111011100101001111
00000000000100100000100110011000
00000000000100111111011011001000
11111111110111110100111001000100
11111111111110010010001111011100
11111111111110100100111111000101
11111111110111010101111011111101
00000000010000001101000101110110
11111111111100111010010100101110
11111111111110001010011000111011
11111111111001111000011001110110
00000000000011100110111010111010
00000000001010011101101100111011
11111111111100011011111000011000
11111111111110010010101111101110
11111111111111110011010101111111
11111111110110011111011011100101
11111111110010001111010001000100
00000000000101100000001110101101
00000000000000110101111100000000
11111111111000010110100000101001
00000000001010101101100110100100
11111111111100111001011100111000
00000000000010000110100000010111
00000000000111000011010000111101
00000000001111011101010001101001
00000000000011101011100110000111
00000000000000100010110100001101
11111111111111111100000011111001
00000000000001010010011110111100
00000000001000010100111100101010
11111111111110000010011000001011
11111111111111101100001101110001
00000000001000111011101111010010
00000000000001001010110101001101
00000000000001000010000001001000
00000000000010110100111101111011
00000000000001101100001001100010
00000000000001100001000011101000
11111111111111100100110111010101
00000000000100101101000111011000
00000000000110000101010100011011
00000000000101000010011100010110
