00000000000001110011000100010011
11111111111111011100100001011001
00000000000111011000011000011000
00000000000111010001000101010010
11111111111001100000110001101111
00000000000100101110101001110110
11111111111100100110110011001011
00000000000110101110010100110110
00000000000101001101111011100011
11111111111000111001011001010000
11111111111110100001111000010000
00000000000101111111110100101010
00000000000100101101010100011001
00000000001011100000000101100011
11111111111101011110010000110110
11111111111110101100010001010000
00000000010000000101110110110000
11111111111101111011100100011101
00000000000000101100000001010011
11111111111011000101110000000010
00000000000111100011110101000111
11111111111111011001110010011011
00000000000001111010011010001110
00000000001001110101100100110111
11111111111111010101000110000101
00000000000110010101101001110110
11111111110111100110011110010010
11111111111101110000111010001100
00000000001001101110011100001111
00000000000001100000001011010011
11111111111101111011001010010111
00000000000011011000010011101010
11111111110111110100010011001101
11111111111011100101000110101100
11111111111010000101110110010100
00000000001111100010111001101110
11111111111101101011101010101001
11111111110101000101000010110111
11111111111010011001010110010000
11111111111001000111101001011110
00000000001000101110011111101001
00000000000011001111101101011100
00000000000010001100100010010011
11111111111001001110110111111011
11111111111110010100000101001101
11111111111110110110000101000000
00000000001101111001101110111100
00000000001000111111001110111111
00000000001000100100011001111001
11111111111011101111101011010101
11111111111110010000000101100111
00000000000011101000100101011111
11111111110000111100011000010101
00000000000001000110000001100011
11111111111110001100010010001111
11111111111110011000011001011110
00000000000000110100111110000111
00000000010100001110001101000101
00000000000101010001111001010110
11111111111010111111111101001101
11111111111110010101001100111011
11111111111100111101100110100010
11111111111111010100101110001011
00000000000001000111111101010110
11111111111010110010101000110111
11111111111011111000111010011010
00000000000101010111011111111000
00000000001010100010001110100001
00000000000011001101110111111111
11111111110101110100111001111010
00000000000000110101001011101000
00000000000000100000010111101100
00000000000100011011011110111001
00000000000010110010101010111100
00000000000001101101010100101011
11111111111100001011000010111000
11111111111011010111011100101010
11111111111111110011000111110110
00000000000011101111100010100111
11111111111101100010100001001010
00000000001001100010001010001010
00000000000011101111000000010011
00000000000010110010000001101101
11111111111110101011000000100010
00000000000011111110011111111010
00000000000000100110010100111101
00000000000011010100111011101111
00000000000101000100010010001100
11111111111110110100110011101000
11111111111110010100110001101001
00000000000010000010100111001100
00000000000000100001001010010000
00000000000100000010111110001011
11111111111111001101010000010100
00000000000011001010110110111101
00000000001000011111001100100110
00000000000100001111111111100110
11111111110100101011001100001000
00000000001000000001001011010001
00000000001001011100100001010011
00000000000010111011100001101111
11111111110101001011011010010111
11111111101101000111111001010111
00000000000111010011000010101101
00000000000100000011100010001011
11111111111100000010010111010001
11111111111100011010100001011101
11111111111000010110010001000000
00000000000010001101101010000010
11111111111101011011001000101111
11111111111100010001011010110101
11111111111101110101001000111010
00000000000011111101110001110011
11111111111101001100111110111001
11111111111111011101110011011111
00000000000111000101011110001000
00000000000010110101001010100000
11111111111011110101010110000000
11111111110000101010011100110011
11111111111100111000111011010100
