11111111110011010101011101100101
00000000001001001000001001110001
11111111110111010100000011000000
11111111111111000000001011001101
11111111111100010101100101011011
11111111110000011101110110111110
00000000000011101001110110101001
11111111111100010010001111110110
00000000000111000100011110110111
00000000010011101011010110101001
00000000010000001001110100100010
00000000000010111000100011001011
00000000000100010000110111110101
00000000000101010010000101010001
00000000000000011001110111110100
00000000000000000101110101111000
00000000000101000010001101001011
00000000000000011010110111001100
00000000001001101010110010110011
11111111110011111101011111101100
11111111111001000110100010100010
11111111111010110110001000110101
11111111110111110111011001110011
11111111111011010010100011110011
00000000001000010010010000101000
11111111110011001011010000011001
00000000000010010010011001100100
00000000000001111101000101100011
00000000001101000000110100010100
11111111111010001110011001001101
11111111111000110001100000010100
00000000000101000001101010010101
00000000000001010111001010000000
11111111111001000000111111010010
00000000000101001110001100001111
00000000000011011101011010101101
00000000000101110110111001101101
00000000001011101101100010001111
00000000000011110110011001110111
11111111111001010110000010110010
11111111111100100101001010001000
11111111110111001100101010010100
00000000000000101111001111101000
00000000000110101101101100010000
00000000001000001010100101011010
00000000001001001001000010110100
11111111111010101110101000100010
00000000000010000101101111101011
00000000001101011101111111111001
11111111101111000111000100001111
00000000000110001011100011101110
00000000000000111111000100001110
11111111111001010010111011110001
00000000000000101001110111010111
00000000000001110111100101101110
11111111111100001101110001011001
00000000001100110111011110100011
00000000001000101111001110100000
11111111111011100111001010011111
00000000000010010010011100111011
