11111111110101101011101110111111
11111111111110110110010100101101
00000000000000101110011111100100
11111111111101000110000000111111
11111111111010000001101101111111
00000000000101000000100011001010
11111111111111001110111101011100
11111111110110111100101111010101
11111111111110101101011000101100
11111111111011011110100100100011
11111111111110011101001000100100
00000000000011111001011110100110
00000000000011101111000001100010
11111111111110011111010111011100
00000000000101010001100011001010
11111111111001111111111010101000
11111111111111011011000000011000
11111111111101000110110001100011
00000000000010001010011101010100
00000000000010100101100110101001
11111111111000000100011001001111
00000000000111000101110001111100
00000000000101010101100100010001
11111111111100101001111011110100
00000000000011110011010011100110
11111111111011000000011111001101
11111111111110001001100111101111
00000000000011111010011001110111
00000000000010010111111000111100
00000000000010011101001000111000
00000000000010011001100000001011
00000000000010001000111001010001
11111111111110001101101100100110
11111111110111011011011001100000
00000000000100100101111111100011
11111111111010001100110011000110
11111111111101110000000011011101
11111111111000000010010001110100
00000000000000111001001100000000
11111111111101100111101010010000
11111111111100011100010001011101
00000000000001001011011010111101
11111111111110000001000100011111
11111111111001001000001101111010
11111111111011011111000101000010
11111111111101101000100111011011
11111111111100011101101001010010
00000000000111010000101111100010
11111111111000011110001010011000
11111111111001011010011011010001
11111111110111100001111101110001
00000000000011101001011010101110
11111111111101010111001101010001
11111111110111100100001110100011
00000000000011010010100101010001
11111111111110001000011100101101
11111111111101101010000110110011
00000000000001101100000011110001
00000000000011000010100111111000
11111111111001111001000111000111
