00000000000110001110001111001000
00000000000010110100010001011011
11111111111101101011000011010010
00000000000100100101111011010111
11111111100111000010000111001010
11111111110100011001101111111111
00000000001001110000001001101010
00000000000111110001000001000100
00000000000110011101110000111001
00000000001000111011001111111001
11111111111111011100110111000101
11111111101110101000101001000101
00000000000010111110100110000011
11111111111111111101010110110110
00000000010001001010001010011110
11111111111110010110010110100100
00000000001001000110010000001001
00000000000001111001111111001100
11111111111111111010100100000010
00000000000100010111100111001011
00000000001001100011110001000111
00000000000010001111100101011011
00000000001100011011101101110111
00000000000101110000100010100010
11111111111101100001010101001011
11111111111100101111001100001000
00000000001001101110010000111000
11111111111111110001001001000101
00000000000011110010110001000101
00000000000101111111100111100001
11111111111101001100000111100100
00000000000001001101111000011010
11111111111101011110001000100100
00000000000010010100100000011011
00000000000100101011011111000010
11111111110110100101000110010011
00000000000101100110000100010111
11111111111001010001100000101011
11111111101000101010011111100011
00000000001011101100111010110000
11111111101010110111101000100001
00000000000011110011010111111000
11111111111001100111111100010101
11111111110000110000111000100000
00000000000001110001110101001111
11111111110101001011001110111101
11111111111001111101010100110100
11111111111101100101110000011000
00000000001000111110101100001101
00000000010001111110010010010110
11111111110000101110010111001101
11111111111011100011010110101100
11111111111110100011010001111110
11111111111010011101001001100000
11111111111110101101100110000100
00000000000000110001111000110011
00000000000000111010100000000011
11111111110101111011100010010001
00000000000001111101111011001100
11111111111001110001111001010100
