11111111111100100101110110001101
00000000000000010000100010100100
00000000000000010101100010100110
00000000000111001101011110110111
11111111110001000101110011010000
00000000000001000101011000000111
00000000000000000111100101110001
00000000000010010001111001111000
11111111111010100100111011100101
00000000001000000001100011101110
00000000000000001111001111010100
11111111111100010111111110111110
00000000000010011010010111011010
11111111111100111100010001100110
11111111111011101100010011011101
00000000000111111111110110001111
11111111111111100001111101110110
00000000001101010011111110001001
11111111111011101110101000111111
11111111111100011111001010110001
00000000001011110101000000010010
00000000000011010111111011011110
00000000000010110000110000011001
11111111111100000010000001110011
11111111110000001010010100011010
11111111111010111000100000000111
00000000000111001110110110100111
00000000000110110001100100101110
00000000000010011010110000100010
11111111111101000110011110011011
11111111111111100100001100010001
11111111111010100000000000001011
00000000001101110000100110000011
00000000010000111001100101101010
11111111111001010101100000111010
00000000000010000110101001110111
00000000001010101101101111101010
00000000000111001011010100101110
00000000000010000111111000111110
11111111111111011010110011100110
11111111111100111110100000100010
00000000001100011101011011011010
11111111111100111110001010101111
11111111111011101001101011000111
00000000001100010111011001001011
11111111110110110010100100010101
00000000000111001001101000010101
00000000000010101110111110110000
00000000001100101000010000011010
11111111110011101110111111001111
00000000001000001001010011110000
00000000000011111010011110010001
11111111110110000110101000101100
11111111101110001111110111011010
11111111111011101001011101001110
11111111111000011110110001000010
00000000000010111110100001101110
11111111111101100001111011010111
11111111111100101001110100100110
11111111111001010101000000110001
