00000000000100001011110010000010
11111111110011111111000101110001
00000000000100101110111011111011
00000000000111000011000000100100
11111111111100000100101010011100
11111111110111010110110001000011
00000000001001010000100011111001
00000000000110111111000111101110
00000000000011111100001000011001
00000000001001000010111100111100
00000000001001100111110011011000
11111111111110110101101010101010
11111111111111001110101100100011
00000000000100111100010000001011
11111111111001000100011001010011
00000000000011010110011111101010
00000000001001111110010001000110
11111111111110010011101010111011
00000000000011111101011010000110
00000000001010101001100000111011
00000000000110100011001010011000
00000000000001100101111110101100
11111111111011001001101001101011
00000000000010110001010111101001
11111111111001101010011111111000
00000000000010010011111011110010
00000000001001111110001101111000
00000000001100110101001010100000
00000000001111110001100011000101
11111111111000010000101100010011
11111111111011011011010000011000
11111111111100000111001111110111
00000000000010101101010000111110
00000000001100001000000111101000
11111111111111011011110001011110
00000000000111100111101110001000
00000000000101011101110001111111
11111111111001110100000010010100
11111111111000100111011111111101
00000000001001010001010001011000
00000000000011000101001101001100
11111111111010011110010110000101
11111111111111011010001011000111
00000000000011010000101011001011
00000000000100000001111001100001
11111111111101110001110000101111
11111111111001000001000010111111
00000000000010011001110111101000
11111111110001111111000001101000
11111111111101100000101001110110
11111111111011111010000011100010
00000000000101101111100111100100
11111111111110010100111111110110
00000000000010111010000111101000
00000000001101111000000011100001
11111111111101110101001000111011
11111111111111000010001100010010
11111111111111100111100011011101
00000000001101110001100011001100
00000000001010010011011011001010
