00000000000111001111000100111011
00000000001010101000011010111010
00000000000101101011100000000110
00000000000000000100100101001001
00000000001000000000100100010011
00000000000101100001110001110100
00000000000001101010111100001011
00000000001001001100100110011011
00000000000000001011111001000001
11111111111101010110001111111011
00000000000000001000001011000100
11111111111110101010000011101100
11111111111011011000110100001100
11111111111110100001010101000110
00000000000100010011110001110110
00000000000011001110011111100100
11111111111101011100011100100011
11111111111101110101010110101010
00000000000001110111110101011110
11111111101111011110001001111110
11111111111100111101110101010000
11111111111101110000000100001101
11111111111011110010000101001101
00000000001010111101100111111000
00000000000101101111101001010111
00000000000011100101110110011011
11111111111011111101011110110101
00000000000100110010110001010111
11111111111100000000011110001001
11111111111011100111011100100001
11111111111001011111110110111010
11111111111000111011000111000000
00000000000010011011100101101000
00000000000001001111010011001110
00000000000111010100010110110000
00000000000101001000110101110000
11111111111000100111111010011101
00000000000011110111001010110111
11111111111011001001101110000010
11111111111000011010111101011110
00000000001101101010011110110000
11111111111011001111000111001100
11111111111010100010111111000110
00000000000110011011010100101010
00000000000110101101000000100000
00000000000110110110000000011111
11111111111100000001011101011100
00000000000011001100010101000001
00000000000001011110101011101111
11111111111101010000100011100100
00000000000000001100001001010101
00000000000010110001110000011001
00000000000101011010000010011110
00000000000111111000001101101100
11111111110110000000101011010011
00000000000000101101110000101001
00000000010101111011111010010011
00000000000010100111111011101011
00000000001001100100001001111010
11111111110111110100001101111100
